{
  "version": "1.0",
  "truncation": null,
  "padding": null,
  "added_tokens": [
    {
      "id": 0,
      "content": "[PAD]",
      "single_word": false,
      "lstrip": false,
      "rstrip": false,
      "normalized": false,
      "special": true
    },
    {
      "id": 1,
      "content": "[UNK]",
      "single_word": false,
      "lstrip": false,
      "rstrip": false,
      "normalized": false,
      "special": true
    },
    {
      "id": 2,
      "content": "[CLS]",
      "single_word": false,
      "lstrip": false,
      "rstrip": false,
      "normalized": false,
      "special": true
    },
    {
      "id": 3,
      "content": "[SEP]",
      "single_word": false,
      "lstrip": false,
      "rstrip": false,
      "normalized": false,
      "special": true
    },
    {
      "id": 4,
      "content": "[MASK]",
      "single_word": false,
      "lstrip": false,
      "rstrip": false,
      "normalized": false,
      "special": true
    }
  ],
  "normalizer": null,
  "pre_tokenizer": {
    "type": "Whitespace"
  },
  "post_processor": null,
  "decoder": null,
  "model": {
    "type": "BPE",
    "dropout": null,
    "unk_token": "[UNK]",
    "continuing_subword_prefix": null,
    "end_of_word_suffix": null,
    "fuse_unk": false,
    "vocab": {
      "[PAD]": 0,
      "[UNK]": 1,
      "[CLS]": 2,
      "[SEP]": 3,
      "[MASK]": 4,
      "!": 5,
      "\"": 6,
      "#": 7,
      "$": 8,
      "%": 9,
      "&": 10,
      "'": 11,
      "(": 12,
      ")": 13,
      "*": 14,
      "+": 15,
      ",": 16,
      "-": 17,
      ".": 18,
      "/": 19,
      "0": 20,
      "1": 21,
      "2": 22,
      "3": 23,
      "4": 24,
      "5": 25,
      "6": 26,
      "7": 27,
      "8": 28,
      "9": 29,
      ":": 30,
      ";": 31,
      "<": 32,
      "=": 33,
      ">": 34,
      "?": 35,
      "@": 36,
      "A": 37,
      "B": 38,
      "C": 39,
      "D": 40,
      "E": 41,
      "F": 42,
      "G": 43,
      "H": 44,
      "I": 45,
      "J": 46,
      "K": 47,
      "L": 48,
      "M": 49,
      "N": 50,
      "O": 51,
      "P": 52,
      "Q": 53,
      "R": 54,
      "S": 55,
      "T": 56,
      "U": 57,
      "V": 58,
      "W": 59,
      "X": 60,
      "Y": 61,
      "Z": 62,
      "[": 63,
      "\\": 64,
      "]": 65,
      "^": 66,
      "_": 67,
      "`": 68,
      "a": 69,
      "b": 70,
      "c": 71,
      "d": 72,
      "e": 73,
      "f": 74,
      "g": 75,
      "h": 76,
      "i": 77,
      "j": 78,
      "k": 79,
      "l": 80,
      "m": 81,
      "n": 82,
      "o": 83,
      "p": 84,
      "q": 85,
      "r": 86,
      "s": 87,
      "t": 88,
      "u": 89,
      "v": 90,
      "w": 91,
      "x": 92,
      "y": 93,
      "z": 94,
      "{": 95,
      "}": 96,
      "~": 97,
      "¡": 98,
      "£": 99,
      "©": 100,
      "ª": 101,
      "­": 102,
      "°": 103,
      "±": 104,
      "²": 105,
      "³": 106,
      "¶": 107,
      "»": 108,
      "Â": 109,
      "Ã": 110,
      "Å": 111,
      "×": 112,
      "á": 113,
      "â": 114,
      "ã": 115,
      "è": 116,
      "é": 117,
      "í": 118,
      "ð": 119,
      "ñ": 120,
      "ó": 121,
      "ö": 122,
      "ø": 123,
      "ú": 124,
      "ü": 125,
      "ý": 126,
      "þ": 127,
      "Ā": 128,
      "š": 129,
      "ž": 130,
      "Ε": 131,
      "Η": 132,
      "Κ": 133,
      "Μ": 134,
      "Ο": 135,
      "Ѕ": 136,
      "Ј": 137,
      "В": 138,
      "И": 139,
      "К": 140,
      "М": 141,
      "Н": 142,
      "С": 143,
      "Х": 144,
      "Ч": 145,
      "Э": 146,
      "а": 147,
      "в": 148,
      "г": 149,
      "д": 150,
      "е": 151,
      "ж": 152,
      "з": 153,
      "и": 154,
      "й": 155,
      "к": 156,
      "л": 157,
      "м": 158,
      "н": 159,
      "о": 160,
      "р": 161,
      "с": 162,
      "т": 163,
      "у": 164,
      "ц": 165,
      "ы": 166,
      "ь": 167,
      "я": 168,
      "ѕ": 169,
      "і": 170,
      "آ": 171,
      "ا": 172,
      "ب": 173,
      "ج": 174,
      "د": 175,
      "ر": 176,
      "ز": 177,
      "س": 178,
      "ش": 179,
      "غ": 180,
      "ق": 181,
      "ك": 182,
      "م": 183,
      "ن": 184,
      "ه": 185,
      "و": 186,
      "گ": 187,
      "ی": 188,
      "ऊ": 189,
      "ख": 190,
      "ग": 191,
      "न": 192,
      "प": 193,
      "भ": 194,
      "र": 195,
      "ल": 196,
      "व": 197,
      "ह": 198,
      "ा": 199,
      "े": 200,
      "ो": 201,
      "ক": 202,
      "গ": 203,
      "চ": 204,
      "ট": 205,
      "ত": 206,
      "ম": 207,
      "র": 208,
      "ল": 209,
      "া": 210,
      "্": 211,
      "ગ": 212,
      "ન": 213,
      "ભ": 214,
      "ર": 215,
      "વ": 216,
      "ા": 217,
      "ം": 218,
      "ത": 219,
      "ന": 220,
      "പ": 221,
      "ര": 222,
      "വ": 223,
      "ി": 224,
      "ു": 225,
      "്": 226,
      "​": 227,
      "‎": 228,
      "–": 229,
      "“": 230,
      "”": 231,
      "•": 232,
      "™": 233,
      "→": 234,
      "∶": 235,
      "♪": 236,
      "原": 237,
      "厦": 238,
      "太": 239,
      "安": 240,
      "西": 241,
      "门": 242,
      "＃": 243,
      "an": 244,
      "ak": 245,
      "er": 246,
      "ah": 247,
      "ang": 248,
      "en": 249,
      "at": 250,
      "ya": 251,
      "ar": 252,
      "am": 253,
      "in": 254,
      "al": 255,
      "di": 256,
      "se": 257,
      "un": 258,
      "kan": 259,
      "pa": 260,
      "tu": 261,
      "da": 262,
      "ka": 263,
      "em": 264,
      "sa": 265,
      "yang": 266,
      "el": 267,
      "men": 268,
      "ber": 269,
      "ti": 270,
      "ke": 271,
      "ta": 272,
      "akan": 273,
      "per": 274,
      "..": 275,
      "eng": 276,
      "or": 277,
      "dak": 278,
      "ai": 279,
      "as": 280,
      "ku": 281,
      "ia": 282,
      "saya": 283,
      "ari": 284,
      "aw": 285,
      "nya": 286,
      "gi": 287,
      "bu": 288,
      "ol": 289,
      "dan": 290,
      "lah": 291,
      "kam": 292,
      "ini": 293,
      "aya": 294,
      "aku": 295,
      "ki": 296,
      "la": 297,
      "mem": 298,
      "ere": 299,
      "ih": 300,
      "ing": 301,
      "ter": 302,
      "apa": 303,
      "uh": 304,
      "on": 305,
      "orang": 306,
      "ereka": 307,
      "Saya": 308,
      "su": 309,
      "ja": 310,
      "itu": 311,
      "ung": 312,
      "tidak": 313,
      "kamu": 314,
      "mu": 315,
      "tak": 316,
      "ahu": 317,
      "tuk": 318,
      "dal": 319,
      "ba": 320,
      "deng": 321,
      "ada": 322,
      "ap": 323,
      "il": 324,
      "pat": 325,
      "au": 326,
      "dia": 327,
      "eh": 328,
      "mereka": 329,
      "meng": 330,
      "pada": 331,
      "awak": 332,
      "ana": 333,
      "untuk": 334,
      "us": 335,
      "ma": 336,
      "kau": 337,
      "dengan": 338,
      "ur": 339,
      "oleh": 340,
      "...": 341,
      "ju": 342,
      "si": 343,
      "anya": 344,
      "du": 345,
      "dari": 346,
      "lu": 347,
      "tahu": 348,
      "ama": 349,
      "angan": 350,
      "es": 351,
      "dah": 352,
      "ri": 353,
      "Aku": 354,
      "ga": 355,
      "bi": 356,
      "ara": 357,
      "kita": 358,
      "pu": 359,
      "ali": 360,
      "Kam": 361,
      "boleh": 362,
      "anda": 363,
      "mel": 364,
      "kat": 365,
      "Dan": 366,
      "le": 367,
      "dalam": 368,
      "atu": 369,
      "ni": 370,
      "be": 371,
      "hi": 372,
      "pi": 373,
      "um": 374,
      "aik": 375,
      "bah": 376,
      "Apa": 377,
      "Se": 378,
      "dapat": 379,
      "beri": 380,
      "tel": 381,
      "alah": 382,
      "is": 383,
      "Al": 384,
      "asa": 385,
      "mana": 386,
      "te": 387,
      "Dia": 388,
      "ati": 389,
      "ben": 390,
      "pun": 391,
      "kepada": 392,
      "dalah": 393,
      "jadi": 394,
      "adalah": 395,
      "mas": 396,
      "ker": 397,
      "ji": 398,
      "ong": 399,
      "eri": 400,
      "wak": 401,
      "buat": 402,
      "sini": 403,
      "bel": 404,
      "semu": 405,
      "pan": 406,
      "pen": 407,
      "telah": 408,
      "kar": 409,
      "ut": 410,
      "it": 411,
      "Kami": 412,
      "ungg": 413,
      "Kau": 414,
      "kami": 415,
      "Ti": 416,
      "tem": 417,
      "bar": 418,
      "ihat": 419,
      "Awak": 420,
      "mak": 421,
      "ban": 422,
      "ita": 423,
      "lagi": 424,
      "ok": 425,
      "baik": 426,
      "kem": 427,
      "sen": 428,
      "ik": 429,
      "cu": 430,
      "kel": 431,
      "ten": 432,
      "gal": 433,
      "awa": 434,
      "ay": 435,
      "Allah": 436,
      "gai": 437,
      "man": 438,
      "Tidak": 439,
      "meny": 440,
      "uk": 441,
      "diri": 442,
      "alu": 443,
      "akukan": 444,
      "Ya": 445,
      "nak": 446,
      "perlu": 447,
      "benar": 448,
      "alan": 449,
      "amat": 450,
      "sel": 451,
      "pe": 452,
      "iki": 453,
      "pergi": 454,
      "pas": 455,
      "bun": 456,
      "pak": 457,
      "Kita": 458,
      "har": 459,
      "om": 460,
      "ra": 461,
      "bih": 462,
      "Ini": 463,
      "uar": 464,
      "semua": 465,
      "karang": 466,
      "dat": 467,
      "tang": 468,
      "An": 469,
      "Per": 470,
      "tah": 471,
      "de": 472,
      "im": 473,
      "ses": 474,
      "ci": 475,
      "ting": 476,
      "inya": 477,
      "dang": 478,
      "iapa": 479,
      "seorang": 480,
      "Itu": 481,
      "adi": 482,
      "tapi": 483,
      "peng": 484,
      "bil": 485,
      "bukan": 486,
      "li": 487,
      "satu": 488,
      "Ke": 489,
      "kata": 490,
      "perti": 491,
      "ken": 492,
      "lebih": 493,
      "mat": 494,
      "sama": 495,
      "kin": 496,
      "api": 497,
      "re": 498,
      "alam": 499,
      "hari": 500,
      "bat": 501,
      "alau": 502,
      "yak": 503,
      "ungguh": 504,
      "ul": 505,
      "Tak": 506,
      "ro": 507,
      "tul": 508,
      "masa": 509,
      "hen": 510,
      "gun": 511,
      "kali": 512,
      "menjadi": 513,
      "uhan": 514,
      "sudah": 515,
      "Di": 516,
      "bali": 517,
      "mahu": 518,
      "Kamu": 519,
      "Ba": 520,
      "dar": 521,
      "ungkin": 522,
      "Mereka": 523,
      "bang": 524,
      "tan": 525,
      "datang": 526,
      "af": 527,
      "atau": 528,
      "Ber": 529,
      "bagai": 530,
      "cak": 531,
      "ser": 532,
      "han": 533,
      "seperti": 534,
      "angat": 535,
      "Anda": 536,
      "ran": 537,
      "keluar": 538,
      "suatu": 539,
      "lain": 540,
      "tar": 541,
      "emu": 542,
      "Tapi": 543,
      "olong": 544,
      "ungguhnya": 545,
      "Jangan": 546,
      "ce": 547,
      "Ma": 548,
      "Ia": 549,
      "bagi": 550,
      "aha": 551,
      "cakap": 552,
      "pel": 553,
      "sekarang": 554,
      "kah": 555,
      "oh": 556,
      "Bu": 557,
      "hidu": 558,
      "nah": 559,
      "He": 560,
      "Oh": 561,
      "juga": 562,
      "bunuh": 563,
      "hanya": 564,
      "lan": 565,
      "pem": 566,
      "lakukan": 567,
      "he": 568,
      "aki": 569,
      "os": 570,
      "wan": 571,
      "ir": 572,
      "jalan": 573,
      "Tuhan": 574,
      "anak": 575,
      "gu": 576,
      "mati": 577,
      "ilih": 578,
      "Ay": 579,
      "sana": 580,
      "ot": 581,
      "inta": 582,
      "punya": 583,
      "jika": 584,
      "lalu": 585,
      "ek": 586,
      "sih": 587,
      "sesuatu": 588,
      "kap": 589,
      "ikir": 590,
      "dakah": 591,
      "ail": 592,
      "od": 593,
      "bila": 594,
      "ger": 595,
      "),": 596,
      "cara": 597,
      "dua": 598,
      "rasa": 599,
      "cam": 600,
      "mer": 601,
      "arkan": 602,
      "sangat": 603,
      "saja": 604,
      "Jadi": 605,
      "Mak": 606,
      "me": 607,
      "Ji": 608,
      "aran": 609,
      "hidup": 610,
      "der": 611,
      "sem": 612,
      "kerana": 613,
      "tempat": 614,
      "kannya": 615,
      "pernah": 616,
      "lang": 617,
      "ambil": 618,
      "na": 619,
      "belum": 620,
      "ck": 621,
      "ingin": 622,
      "bab": 623,
      "wa": 624,
      "asan": 625,
      "juk": 626,
      "san": 627,
      "Jika": 628,
      "Baik": 629,
      "berl": 630,
      "unggu": 631,
      "hu": 632,
      "hati": 633,
      "ingat": 634,
      "eg": 635,
      "tentang": 636,
      "fikir": 637,
      "melihat": 638,
      "hir": 639,
      "beritahu": 640,
      "Adakah": 641,
      "baru": 642,
      "masuk": 643,
      "bes": 644,
      "masih": 645,
      "dun": 646,
      "anti": 647,
      "bur": 648,
      "dengar": 649,
      "ayah": 650,
      "kerja": 651,
      "banyak": 652,
      "nam": 653,
      "salah": 654,
      "sedang": 655,
      "Sel": 656,
      "betul": 657,
      "ab": 658,
      "sam": 659,
      "sendiri": 660,
      "Tu": 661,
      "bin": 662,
      "ata": 663,
      "atas": 664,
      "bawa": 665,
      "pal": 666,
      "gitu": 667,
      "ha": 668,
      "Meng": 669,
      "daripada": 670,
      "annya": 671,
      "Be": 672,
      "mpa": 673,
      "mendapat": 674,
      "maka": 675,
      "lo": 676,
      "mungkin": 677,
      "tiap": 678,
      "\".": 679,
      "Ken": 680,
      "Te": 681,
      "menc": 682,
      "Ada": 683,
      "jangan": 684,
      "sesungguhnya": 685,
      "punyai": 686,
      "Ter": 687,
      "Nya": 688,
      "jan": 689,
      "nama": 690,
      "kembali": 691,
      "akhir": 692,
      "dian": 693,
      "bak": 694,
      "kut": 695,
      "melakukan": 696,
      "besar": 697,
      "selamat": 698,
      "ahan": 699,
      "takkan": 700,
      "tahun": 701,
      "asi": 702,
      "00": 703,
      "do": 704,
      "tinggal": 705,
      "gus": 706,
      "kasih": 707,
      "bahawa": 708,
      "Men": 709,
      "berapa": 710,
      "mempunyai": 711,
      "Bagai": 712,
      "Hei": 713,
      "tap": 714,
      "Su": 715,
      "teri": 716,
      "et": 717,
      "tuan": 718,
      "harus": 719,
      "kara": 720,
      "rang": 721,
      "berlaku": 722,
      "Bi": 723,
      "Bagaimana": 724,
      "usia": 725,
      "bung": 726,
      "aj": 727,
      "elaki": 728,
      "begitu": 729,
      "aham": 730,
      "caya": 731,
      "lihat": 732,
      "erima": 733,
      "dam": 734,
      "kawan": 735,
      "Le": 736,
      "serta": 737,
      ").": 738,
      "atakan": 739,
      "kalau": 740,
      "sekali": 741,
      "fail": 742,
      "unjuk": 743,
      "henti": 744,
      "ag": 745,
      "sebagai": 746,
      "main": 747,
      "jumpa": 748,
      "guna": 749,
      "teng": 750,
      "atan": 751,
      "dem": 752,
      "hal": 753,
      "pah": 754,
      "Semu": 755,
      "tiada": 756,
      "perkara": 757,
      "Mari": 758,
      "sedi": 759,
      "umah": 760,
      "kun": 761,
      "kit": 762,
      "tur": 763,
      "yi": 764,
      "ahai": 765,
      "engkau": 766,
      "makan": 767,
      "key": 768,
      "bal": 769,
      "ham": 770,
      "ej": 771,
      "membuat": 772,
      "Maaf": 773,
      "malam": 774,
      "berada": 775,
      "Deng": 776,
      "tara": 777,
      "bersama": 778,
      "aka": 779,
      "berkata": 780,
      "sud": 781,
      "suka": 782,
      "Kenapa": 783,
      "Pen": 784,
      "Peng": 785,
      "pula": 786,
      "ca": 787,
      "Am": 788,
      "lelaki": 789,
      "hendak": 790,
      "En": 791,
      "tor": 792,
      "pert": 793,
      "Si": 794,
      "Siapa": 795,
      "pasti": 796,
      "sebab": 797,
      "uran": 798,
      "gan": 799,
      "padan": 800,
      "puan": 801,
      "Tia": 802,
      "manusia": 803,
      "pin": 804,
      "Ayah": 805,
      "sia": 806,
      "Baiklah": 807,
      "to": 808,
      "tahui": 809,
      "hada": 810,
      "ubah": 811,
      "memberi": 812,
      "cuba": 813,
      "dunia": 814,
      "mi": 815,
      "Yang": 816,
      "gunakan": 817,
      "ain": 818,
      "agi": 819,
      "rumah": 820,
      "but": 821,
      "duk": 822,
      "Tiada": 823,
      "jam": 824,
      "siapa": 825,
      "hil": 826,
      "Sekarang": 827,
      "sebelum": 828,
      "patut": 829,
      "az": 830,
      "sele": 831,
      "pilih": 832,
      "jah": 833,
      "In": 834,
      "ru": 835,
      "sy": 836,
      "nampak": 837,
      "Boleh": 838,
      "janji": 839,
      "kunci": 840,
      "ch": 841,
      "tam": 842,
      "anggi": 843,
      "Mem": 844,
      "macam": 845,
      "Ses": 846,
      "lama": 847,
      "arah": 848,
      "tetap": 849,
      "baw": 850,
      "ialah": 851,
      "lam": 852,
      "st": 853,
      "tika": 854,
      "mes": 855,
      "alat": 856,
      "tentu": 857,
      "Kalau": 858,
      "tanya": 859,
      "sej": 860,
      "percaya": 861,
      "awan": 862,
      "ny": 863,
      "sah": 864,
      "cuma": 865,
      "Mungkin": 866,
      "Maha": 867,
      "Tolong": 868,
      "saha": 869,
      "pai": 870,
      "beriman": 871,
      "min": 872,
      "paya": 873,
      "kay": 874,
      "tangan": 875,
      "masalah": 876,
      "Bukan": 877,
      "jang": 878,
      "ram": 879,
      "takan": 880,
      "membunuh": 881,
      "dur": 882,
      "kena": 883,
      "kec": 884,
      "ikian": 885,
      "beberapa": 886,
      "faham": 887,
      "sai": 888,
      "urus": 889,
      "Semua": 890,
      "terus": 891,
      "apabila": 892,
      "balik": 893,
      "hing": 894,
      "kal": 895,
      "dis": 896,
      "Un": 897,
      "fon": 898,
      "sedia": 899,
      "Tuan": 900,
      "Sesungguhnya": 901,
      "sak": 902,
      "katakan": 903,
      "Kel": 904,
      "kere": 905,
      "Terima": 906,
      "perlukan": 907,
      "benarnya": 908,
      "sesiapa": 909,
      "sedikit": 910,
      "minta": 911,
      "buah": 912,
      "sek": 913,
      "temu": 914,
      "padanya": 915,
      "akut": 916,
      "unya": 917,
      "keada": 918,
      "azab": 919,
      "Sam": 920,
      "arik": 921,
      "buk": 922,
      "Pergi": 923,
      "abi": 924,
      "Ker": 925,
      "rah": 926,
      "gel": 927,
      "semula": 928,
      "segal": 929,
      "kup": 930,
      "bagus": 931,
      "bantu": 932,
      "kemu": 933,
      "Mas": 934,
      "ko": 935,
      "sayang": 936,
      "harap": 937,
      "Ayuh": 938,
      "Pem": 939,
      "cip": 940,
      "Cu": 941,
      "supaya": 942,
      "menge": 943,
      "mengen": 944,
      "belak": 945,
      "turun": 946,
      "Nam": 947,
      "jen": 948,
      "antara": 949,
      "semasa": 950,
      "jauh": 951,
      "demikian": 952,
      "cari": 953,
      "cik": 954,
      "pur": 955,
      "bagaimana": 956,
      "jaya": 957,
      "par": 958,
      "empuan": 959,
      "cepat": 960,
      "Bar": 961,
      "Ce": 962,
      "ketika": 963,
      "inggal": 964,
      "tetapi": 965,
      "gerak": 966,
      "Beri": 967,
      "gem": 968,
      "tin": 969,
      "luar": 970,
      "bahagi": 971,
      "kum": 972,
      "bercakap": 973,
      "barang": 974,
      "Ras": 975,
      "cur": 976,
      "kuasa": 977,
      "sim": 978,
      ".\"": 979,
      "uju": 980,
      "wahai": 981,
      "hantar": 982,
      "hingga": 983,
      "sampai": 984,
      "sahaja": 985,
      "keadaan": 986,
      "mula": 987,
      "anggil": 988,
      "kemudian": 989,
      "Ban": 990,
      "angkan": 991,
      "bawah": 992,
      "fir": 993,
      "sau": 994,
      "mengambil": 995,
      "Untuk": 996,
      "Nabi": 997,
      "sur": 998,
      "):": 999,
      "Muh": 1000,
      "mad": 1001,
      "Betul": 1002,
      "por": 1003,
      "vi": 1004,
      "seseorang": 1005,
      "pakah": 1006,
      "Mu": 1007,
      "ikut": 1008,
      "lat": 1009,
      "pro": 1010,
      "ry": 1011,
      "up": 1012,
      "tau": 1013,
      "perempuan": 1014,
      "ont": 1015,
      "berikan": 1016,
      "Selamat": 1017,
      "ammad": 1018,
      "bumi": 1019,
      "paling": 1020,
      "unjukkan": 1021,
      "belakang": 1022,
      "bahagian": 1023,
      "Muhammad": 1024,
      "ad": 1025,
      "tup": 1026,
      "menj": 1027,
      "buka": 1028,
      "older": 1029,
      "memang": 1030,
      ");": 1031,
      "ob": 1032,
      "tung": 1033,
      "tik": 1034,
      "pul": 1035,
      "atkan": 1036,
      "mele": 1037,
      "FF": 1038,
      "arna": 1039,
      "mus": 1040,
      "maaf": 1041,
      "kaum": 1042,
      "semuanya": 1043,
      "maksud": 1044,
      "tahan": 1045,
      "rak": 1046,
      "tek": 1047,
      "benda": 1048,
      "hadap": 1049,
      "ver": 1050,
      "aman": 1051,
      "kasi": 1052,
      "kecil": 1053,
      "Pas": 1054,
      "ras": 1055,
      "air": 1056,
      "uru": 1057,
      "duduk": 1058,
      "jat": 1059,
      "buruk": 1060,
      "kereta": 1061,
      "segala": 1062,
      "Tunggu": 1063,
      "--": 1064,
      "dung": 1065,
      "ibu": 1066,
      "takut": 1067,
      "kur": 1068,
      "Hanya": 1069,
      "Orang": 1070,
      "Pe": 1071,
      "menur": 1072,
      "tiasa": 1073,
      "omb": 1074,
      "odoh": 1075,
      "Pilih": 1076,
      "elas": 1077,
      "....": 1078,
      "membawa": 1079,
      "mata": 1080,
      "pertama": 1081,
      "mesti": 1082,
      "tua": 1083,
      "tus": 1084,
      "menang": 1085,
      "kul": 1086,
      "terlalu": 1087,
      "Mar": 1088,
      "ho": 1089,
      "mal": 1090,
      "aikan": 1091,
      "Tetapi": 1092,
      "Ben": 1093,
      "ner": 1094,
      "tunggu": 1095,
      "dir": 1096,
      "efon": 1097,
      "jak": 1098,
      "so": 1099,
      "pulang": 1100,
      "awab": 1101,
      "Ja": 1102,
      "ic": 1103,
      "intah": 1104,
      "setiap": 1105,
      "saat": 1106,
      "hebat": 1107,
      "Sudah": 1108,
      "Cepat": 1109,
      "'%": 1110,
      "Ku": 1111,
      "Lihat": 1112,
      "Sem": 1113,
      "dahu": 1114,
      "aris": 1115,
      "jaga": 1116,
      "biarkan": 1117,
      "bunyi": 1118,
      "mencari": 1119,
      "Ten": 1120,
      "gas": 1121,
      "pol": 1122,
      "th": 1123,
      "itan": 1124,
      "tengah": 1125,
      "den": 1126,
      "ahkan": 1127,
      "meninggal": 1128,
      "dahulu": 1129,
      "bas": 1130,
      "tolong": 1131,
      "berdua": 1132,
      "Hey": 1133,
      "terima": 1134,
      "Har": 1135,
      "bira": 1136,
      "ani": 1137,
      "mengi": 1138,
      "budak": 1139,
      "cukup": 1140,
      "Okey": 1141,
      "Sa": 1142,
      "Sen": 1143,
      "lin": 1144,
      "padam": 1145,
      "terhadap": 1146,
      "kenal": 1147,
      "kenapa": 1148,
      "Dengar": 1149,
      "Du": 1150,
      "impan": 1151,
      "fi": 1152,
      "olah": 1153,
      "dulu": 1154,
      "Ameri": 1155,
      "Is": 1156,
      "og": 1157,
      "terjadi": 1158,
      "tanpa": 1159,
      "Dengan": 1160,
      "mil": 1161,
      "pes": 1162,
      "erita": 1163,
      "selalu": 1164,
      "Okay": 1165,
      "bo": 1166,
      "gang": 1167,
      "yah": 1168,
      "arai": 1169,
      "berjaya": 1170,
      "menye": 1171,
      "mendapatkan": 1172,
      "Bel": 1173,
      "Ye": 1174,
      "bia": 1175,
      "neg": 1176,
      "secara": 1177,
      "perang": 1178,
      "pir": 1179,
      "penuh": 1180,
      "selama": 1181,
      "ow": 1182,
      "gila": 1183,
      "kir": 1184,
      "tera": 1185,
      "mul": 1186,
      "mengatakan": 1187,
      "ity": 1188,
      "menyer": 1189,
      "depan": 1190,
      "jata": 1191,
      "ren": 1192,
      "tikan": 1193,
      "tion": 1194,
      "waktu": 1195,
      "bungan": 1196,
      "Amerika": 1197,
      "De": 1198,
      "Nama": 1199,
      "Ralat": 1200,
      "Satu": 1201,
      "Tem": 1202,
      "aja": 1203,
      "dara": 1204,
      "ug": 1205,
      "amal": 1206,
      "tas": 1207,
      "sum": 1208,
      "lumat": 1209,
      "sentiasa": 1210,
      "Hel": 1211,
      "Pu": 1212,
      "iau": 1213,
      "win": 1214,
      "ina": 1215,
      "sebuah": 1216,
      "tif": 1217,
      "ilai": 1218,
      "Maafkan": 1219,
      "Apakah": 1220,
      "Fi": 1221,
      "bodoh": 1222,
      "mendengar": 1223,
      "tiga": 1224,
      "memper": 1225,
      "Maka": 1226,
      "mengetahui": 1227,
      "op": 1228,
      "kurang": 1229,
      "itulah": 1230,
      "pala": 1231,
      "ainkan": 1232,
      "hilang": 1233,
      "Me": 1234,
      "Ro": 1235,
      "rin": 1236,
      "kas": 1237,
      "bergerak": 1238,
      "perintah": 1239,
      "uruh": 1240,
      "Mengapa": 1241,
      "ajar": 1242,
      "ding": 1243,
      "mari": 1244,
      "uang": 1245,
      "put": 1246,
      "senjata": 1247,
      "Hi": 1248,
      "gur": 1249,
      "sehingga": 1250,
      "berhenti": 1251,
      "apan": 1252,
      "Ch": 1253,
      "dus": 1254,
      "mini": 1255,
      "rakan": 1256,
      "daku": 1257,
      "uskan": 1258,
      "Macam": 1259,
      "jenis": 1260,
      "City": 1261,
      "Kemu": 1262,
      "ye": 1263,
      "tuju": 1264,
      "memer": 1265,
      "dekat": 1266,
      "Kerana": 1267,
      "Rasul": 1268,
      "for": 1269,
      "kafir": 1270,
      "tiba": 1271,
      "awal": 1272,
      "ayar": 1273,
      "Keluar": 1274,
      "cipta": 1275,
      "anc": 1276,
      "Itulah": 1277,
      "Bagus": 1278,
      "melakukannya": 1279,
      "neraka": 1280,
      "Kemudian": 1281,
      "ac": 1282,
      "leh": 1283,
      "angg": 1284,
      "sebenarnya": 1285,
      "bulan": 1286,
      "inggu": 1287,
      "lepas": 1288,
      "bekerja": 1289,
      "ayat": 1290,
      "Dalam": 1291,
      "Pel": 1292,
      "ly": 1293,
      "kaw": 1294,
      "dungi": 1295,
      "tengok": 1296,
      "Kem": 1297,
      "lem": 1298,
      "dit": 1299,
      "tidur": 1300,
      "aian": 1301,
      "baca": 1302,
      "tingkap": 1303,
      "Maksud": 1304,
      "janganlah": 1305,
      "folder": 1306,
      "peri": 1307,
      "penj": 1308,
      "selesai": 1309,
      "pilihan": 1310,
      "biasa": 1311,
      "Ar": 1312,
      "Fail": 1313,
      "ikan": 1314,
      "dike": 1315,
      "kanak": 1316,
      "sakit": 1317,
      "Sh": 1318,
      "Wahai": 1319,
      "has": 1320,
      "kon": 1321,
      "tanda": 1322,
      "ve": 1323,
      "menya": 1324,
      "tai": 1325,
      "kuat": 1326,
      "memu": 1327,
      "sis": 1328,
      "menurut": 1329,
      "padamu": 1330,
      "St": 1331,
      "yg": 1332,
      "akah": 1333,
      "utan": 1334,
      "olongan": 1335,
      "wanita": 1336,
      "mainan": 1337,
      "minit": 1338,
      "ge": 1339,
      "okey": 1340,
      "muka": 1341,
      "bisa": 1342,
      "menyel": 1343,
      "pet": 1344,
      "nyata": 1345,
      "minum": 1346,
      "gembira": 1347,
      "ew": 1348,
      "gh": 1349,
      "jek": 1350,
      "jelas": 1351,
      "sat": 1352,
      "the": 1353,
      "kebenar": 1354,
      "nik": 1355,
      "ranc": 1356,
      "osong": 1357,
      "pintu": 1358,
      "\"%": 1359,
      "hak": 1360,
      "bis": 1361,
      "telefon": 1362,
      "yakin": 1363,
      "mesej": 1364,
      "Mel": 1365,
      "kalah": 1366,
      "berjalan": 1367,
      "apar": 1368,
      "mengu": 1369,
      "melainkan": 1370,
      "keluarga": 1371,
      "gen": 1372,
      "mun": 1373,
      "za": 1374,
      "atang": 1375,
      "indah": 1376,
      "memberitahu": 1377,
      "membantu": 1378,
      "terakhir": 1379,
      "mudah": 1380,
      "polis": 1381,
      "?\"": 1382,
      "pus": 1383,
      "sebarang": 1384,
      "tuhan": 1385,
      "sus": 1386,
      "beg": 1387,
      "belah": 1388,
      "bandar": 1389,
      "meninggalkan": 1390,
      "Teng": 1391,
      "rat": 1392,
      "kanlah": 1393,
      "pulan": 1394,
      "buatan": 1395,
      "balasan": 1396,
      "10": 1397,
      "and": 1398,
      "ori": 1399,
      "gadis": 1400,
      "okong": 1401,
      "ayan": 1402,
      "rek": 1403,
      "bangun": 1404,
      "ingatlah": 1405,
      "selepas": 1406,
      "Yeah": 1407,
      "The": 1408,
      "cinta": 1409,
      "nanti": 1410,
      "luk": 1411,
      "bim": 1412,
      "mengenai": 1413,
      "Katakan": 1414,
      "Quran": 1415,
      "Sya": 1416,
      "akannya": 1417,
      "tinggi": 1418,
      "Masuk": 1419,
      "ombor": 1420,
      "Mana": 1421,
      "No": 1422,
      "kg": 1423,
      "mam": 1424,
      "sang": 1425,
      "wang": 1426,
      "wat": 1427,
      "kira": 1428,
      "panjang": 1429,
      "demi": 1430,
      "jahat": 1431,
      "gam": 1432,
      "hluk": 1433,
      "kepadanya": 1434,
      "mengapa": 1435,
      "sila": 1436,
      "rik": 1437,
      "isteri": 1438,
      "Bila": 1439,
      "Ing": 1440,
      "simpan": 1441,
      "Hai": 1442,
      "Oleh": 1443,
      "iz": 1444,
      "jar": 1445,
      "panggil": 1446,
      "sebut": 1447,
      "bertemu": 1448,
      "bilik": 1449,
      "antik": 1450,
      "hamba": 1451,
      "port": 1452,
      "Ser": 1453,
      "fa": 1454,
      "son": 1455,
      "tugas": 1456,
      "Seperti": 1457,
      "peny": 1458,
      "menyem": 1459,
      "impi": 1460,
      "Biar": 1461,
      "jatuh": 1462,
      "kgm": 1463,
      "Ibu": 1464,
      "cin": 1465,
      "menu": 1466,
      "sukan": 1467,
      "alui": 1468,
      "penge": 1469,
      "langit": 1470,
      "dosa": 1471,
      "balas": 1472,
      "patutnya": 1473,
      "Car": 1474,
      "din": 1475,
      "lis": 1476,
      "ou": 1477,
      "sal": 1478,
      "era": 1479,
      "ket": 1480,
      "makhluk": 1481,
      "imej": 1482,
      "kahwin": 1483,
      "kebenaran": 1484,
      "Atau": 1485,
      "kom": 1486,
      "oo": 1487,
      "tr": 1488,
      "wuju": 1489,
      "kanan": 1490,
      "menerima": 1491,
      "menggunakan": 1492,
      "sisi": 1493,
      "asaan": 1494,
      "menjadikan": 1495,
      "petunjuk": 1496,
      "bol": 1497,
      "cerita": 1498,
      "dy": 1499,
      "lari": 1500,
      "mm": 1501,
      "sar": 1502,
      "kai": 1503,
      "tadi": 1504,
      "teruk": 1505,
      "ihatan": 1506,
      "bantuan": 1507,
      "sembah": 1508,
      "Pro": 1509,
      "gung": 1510,
      "ne": 1511,
      "digunakan": 1512,
      "ell": 1513,
      "menen": 1514,
      "kumen": 1515,
      "melalui": 1516,
      "penting": 1517,
      "tembak": 1518,
      "kapal": 1519,
      "hampir": 1520,
      "syen": 1521,
      "musuh": 1522,
      "Masa": 1523,
      "her": 1524,
      "ty": 1525,
      "ton": 1526,
      "padaku": 1527,
      "menunggu": 1528,
      "keter": 1529,
      "terbaik": 1530,
      "senarai": 1531,
      "alaupun": 1532,
      "hidupan": 1533,
      "ramai": 1534,
      "Pada": 1535,
      "co": 1536,
      "id": 1537,
      "sung": 1538,
      "pagi": 1539,
      "kehidupan": 1540,
      "cul": 1541,
      "tenang": 1542,
      "Hari": 1543,
      "Li": 1544,
      "car": 1545,
      "ide": 1546,
      "jing": 1547,
      "nilai": 1548,
      "ukan": 1549,
      "disini": 1550,
      "bertanya": 1551,
      "meminta": 1552,
      "urga": 1553,
      "sif": 1554,
      "gera": 1555,
      "Encik": 1556,
      "siap": 1557,
      "memberikan": 1558,
      "nikmat": 1559,
      "Sy": 1560,
      "Sangat": 1561,
      "fil": 1562,
      "hor": 1563,
      "nia": 1564,
      "sya": 1565,
      "kekunci": 1566,
      "perbuatan": 1567,
      "aikat": 1568,
      "mur": 1569,
      "ohon": 1570,
      "hukum": 1571,
      "habar": 1572,
      "hentikan": 1573,
      "dirinya": 1574,
      "Re": 1575,
      "Warna": 1576,
      "cah": 1577,
      "ianya": 1578,
      "po": 1579,
      "tali": 1580,
      "ahli": 1581,
      "sebenar": 1582,
      "maklumat": 1583,
      "cuali": 1584,
      "Kitab": 1585,
      "Tengok": 1586,
      "keterangan": 1587,
      "Do": 1588,
      "Ga": 1589,
      "Hen": 1590,
      "jakan": 1591,
      "ping": 1592,
      "ambah": 1593,
      "ingkar": 1594,
      "lum": 1595,
      "utama": 1596,
      "teman": 1597,
      "seluruh": 1598,
      "selamatkan": 1599,
      "rancangan": 1600,
      "wujud": 1601,
      "Ak": 1602,
      "Joh": 1603,
      "Man": 1604,
      "cantik": 1605,
      "ampun": 1606,
      "bermain": 1607,
      "kepadamu": 1608,
      "dapatkan": 1609,
      "paskan": 1610,
      "hanyalah": 1611,
      "Bil": 1612,
      "Lalu": 1613,
      "adakah": 1614,
      "jawab": 1615,
      "lak": 1616,
      "sara": 1617,
      "sepatutnya": 1618,
      "pasukan": 1619,
      "berat": 1620,
      "keku": 1621,
      "memil": 1622,
      "umat": 1623,
      "berita": 1624,
      "tetingkap": 1625,
      "ulang": 1626,
      "akhirat": 1627,
      "Lebih": 1628,
      "agak": 1629,
      "seksa": 1630,
      "Bandar": 1631,
      "penjara": 1632,
      "Jen": 1633,
      "col": 1634,
      "ip": 1635,
      "nes": 1636,
      "okay": 1637,
      "kedua": 1638,
      "ris": 1639,
      "gagal": 1640,
      "Sebenarnya": 1641,
      "Cuma": 1642,
      "Katakanlah": 1643,
      "John": 1644,
      "Ianya": 1645,
      "Lu": 1646,
      "kosong": 1647,
      "khabar": 1648,
      "minggu": 1649,
      "situ": 1650,
      "warna": 1651,
      "ami": 1652,
      "ala": 1653,
      "sebahagian": 1654,
      "undang": 1655,
      "bersedia": 1656,
      "mengan": 1657,
      "jadikan": 1658,
      "masing": 1659,
      "tentera": 1660,
      "amatkan": 1661,
      "tinggalkan": 1662,
      "malaikat": 1663,
      "ugama": 1664,
      "Hello": 1665,
      "Da": 1666,
      "Dem": 1667,
      "Jum": 1668,
      "Mi": 1669,
      "Tur": 1670,
      "kini": 1671,
      "of": 1672,
      "amu": 1673,
      "tusan": 1674,
      "kepala": 1675,
      "buang": 1676,
      "terbang": 1677,
      "merasa": 1678,
      "teks": 1679,
      "12": 1680,
      "50": 1681,
      "Gun": 1682,
      "Kat": 1683,
      "Pan": 1684,
      "Pak": 1685,
      "baikan": 1686,
      "ed": 1687,
      "kaki": 1688,
      "las": 1689,
      "mau": 1690,
      "pang": 1691,
      "yakan": 1692,
      "ine": 1693,
      "sabar": 1694,
      "menemu": 1695,
      "permainan": 1696,
      "kus": 1697,
      "lupa": 1698,
      "katan": 1699,
      "bahaya": 1700,
      "Sebab": 1701,
      "beliau": 1702,
      "Buka": 1703,
      "buru": 1704,
      "makanan": 1705,
      "hendaki": 1706,
      "Tentu": 1707,
      "milik": 1708,
      "Dah": 1709,
      "Ko": 1710,
      "Ok": 1711,
      "Papar": 1712,
      "batu": 1713,
      "aksi": 1714,
      "tum": 1715,
      "sukar": 1716,
      "uri": 1717,
      "beli": 1718,
      "kelihatan": 1719,
      "datangan": 1720,
      "darah": 1721,
      "selamatan": 1722,
      "tambah": 1723,
      "Tolonglah": 1724,
      "upakan": 1725,
      "bimbang": 1726,
      "AR": 1727,
      "Dari": 1728,
      "bayar": 1729,
      "ganti": 1730,
      "arahan": 1731,
      "alih": 1732,
      "kac": 1733,
      "mener": 1734,
      "kes": 1735,
      "buh": 1736,
      "olak": 1737,
      "dengannya": 1738,
      "isti": 1739,
      "Berhenti": 1740,
      "Sila": 1741,
      "dakan": 1742,
      "yat": 1743,
      "tuh": 1744,
      "tis": 1745,
      "aitu": 1746,
      "buku": 1747,
      "meman": 1748,
      "jut": 1749,
      "tepat": 1750,
      "pengguna": 1751,
      "Berapa": 1752,
      "peluang": 1753,
      "habis": 1754,
      "hendaklah": 1755,
      "Name": 1756,
      "sumpah": 1757,
      "satunya": 1758,
      "Gagal": 1759,
      "20": 1760,
      "Simpan": 1761,
      "no": 1762,
      "res": 1763,
      "sungguh": 1764,
      "tal": 1765,
      "sebelah": 1766,
      "undur": 1767,
      "pap": 1768,
      "berfikir": 1769,
      "kiamat": 1770,
      "ihak": 1771,
      "mengel": 1772,
      "duit": 1773,
      "benarkan": 1774,
      "ulis": 1775,
      "dera": 1776,
      "Nampak": 1777,
      "mulakan": 1778,
      "mampu": 1779,
      "Ju": 1780,
      "cer": 1781,
      "hadi": 1782,
      "kol": 1783,
      "war": 1784,
      "empat": 1785,
      "mene": 1786,
      "berakhir": 1787,
      "perasaan": 1788,
      "kiri": 1789,
      "memas": 1790,
      "beza": 1791,
      "Kekunci": 1792,
      "kataan": 1793,
      "jalanan": 1794,
      "Memang": 1795,
      "turunkan": 1796,
      "Beritahu": 1797,
      "saudara": 1798,
      "memerlu": 1799,
      "sistem": 1800,
      "Cari": 1801,
      "Ni": 1802,
      "Pol": 1803,
      "Sal": 1804,
      "adam": 1805,
      "hai": 1806,
      "jur": 1807,
      "len": 1808,
      "lar": 1809,
      "mar": 1810,
      "tarik": 1811,
      "we": 1812,
      "bersih": 1813,
      "ihan": 1814,
      "menghantar": 1815,
      "putus": 1816,
      "temp": 1817,
      "ikiran": 1818,
      "tangkap": 1819,
      "bukanlah": 1820,
      "Diam": 1821,
      "laluan": 1822,
      "kumpulan": 1823,
      "memiliki": 1824,
      "Bang": 1825,
      "Bun": 1826,
      "naik": 1827,
      "zali": 1828,
      "aturan": 1829,
      "amaran": 1830,
      "seku": 1831,
      "berubah": 1832,
      "lahan": 1833,
      "one": 1834,
      "suai": 1835,
      "usaha": 1836,
      "alaman": 1837,
      "batan": 1838,
      "tanah": 1839,
      "sembunyi": 1840,
      "Sele": 1841,
      "ubahan": 1842,
      "sekolah": 1843,
      "ciptakan": 1844,
      "\",": 1845,
      "Bah": 1846,
      "Jo": 1847,
      "pakan": 1848,
      "dilakukan": 1849,
      "setelah": 1850,
      "beroleh": 1851,
      "asakan": 1852,
      "jap": 1853,
      "jual": 1854,
      "bijak": 1855,
      "Seorang": 1856,
      "ayakan": 1857,
      "paksa": 1858,
      "hancur": 1859,
      "bina": 1860,
      "000": 1861,
      "halang": 1862,
      "Semuanya": 1863,
      "dungan": 1864,
      "Islam": 1865,
      "dustakan": 1866,
      "kawasan": 1867,
      "Anak": 1868,
      "Char": 1869,
      "Ki": 1870,
      "Lo": 1871,
      "New": 1872,
      "seri": 1873,
      "bit": 1874,
      "senang": 1875,
      "pasal": 1876,
      "lie": 1877,
      "kalian": 1878,
      "Ambil": 1879,
      "hadapan": 1880,
      "bukti": 1881,
      "menjawab": 1882,
      "pesan": 1883,
      "negeri": 1884,
      "AN": 1885,
      "fo": 1886,
      "khi": 1887,
      "mo": 1888,
      "sk": 1889,
      "akkan": 1890,
      "dipilih": 1891,
      "menarik": 1892,
      "ingan": 1893,
      "menger": 1894,
      "bebas": 1895,
      "okok": 1896,
      "impah": 1897,
      "pelayan": 1898,
      "Tuhanku": 1899,
      "Sayang": 1900,
      "gambar": 1901,
      "idea": 1902,
      ")\".": 1903,
      "Dap": 1904,
      "abang": 1905,
      "go": 1906,
      "gar": 1907,
      "gon": 1908,
      "hat": 1909,
      "kak": 1910,
      "mah": 1911,
      "naf": 1912,
      "nombor": 1913,
      "tun": 1914,
      "tutup": 1915,
      "menuju": 1916,
      "askan": 1917,
      "kisah": 1918,
      "lapor": 1919,
      "onok": 1920,
      "apis": 1921,
      "mengem": 1922,
      "jadian": 1923,
      "bungi": 1924,
      "eks": 1925,
      "ganggu": 1926,
      "menyelamatkan": 1927,
      "Syurga": 1928,
      "don": 1929,
      "edah": 1930,
      "golongan": 1931,
      "mere": 1932,
      "mimpi": 1933,
      "anjing": 1934,
      "setengah": 1935,
      "elaka": 1936,
      "berani": 1937,
      "tih": 1938,
      "suk": 1939,
      "aul": 1940,
      "bahkan": 1941,
      "bahasa": 1942,
      "jian": 1943,
      "pekerja": 1944,
      "adil": 1945,
      "sihir": 1946,
      "binatang": 1947,
      "tori": 1948,
      "ruang": 1949,
      "urusan": 1950,
      "Baru": 1951,
      "Jack": 1952,
      "negara": 1953,
      "hasil": 1954,
      "30": 1955,
      "Tan": 1956,
      "bangan": 1957,
      "bot": 1958,
      "fu": 1959,
      "fur": 1960,
      "ipu": 1961,
      "je": 1962,
      "lok": 1963,
      "alkan": 1964,
      "seki": 1965,
      "sesudah": 1966,
      "segera": 1967,
      "menim": 1968,
      "berjumpa": 1969,
      "kedu": 1970,
      "kehil": 1971,
      "uhkan": 1972,
      "ungan": 1973,
      "atian": 1974,
      "erik": 1975,
      "makna": 1976,
      "langkah": 1977,
      "rahsia": 1978,
      "suruh": 1979,
      "Stat": 1980,
      "kehilangan": 1981,
      "Han": 1982,
      "Mal": 1983,
      "Sai": 1984,
      "Sia": 1985,
      "des": 1986,
      "gram": 1987,
      "ent": 1988,
      "semak": 1989,
      "menem": 1990,
      "kejap": 1991,
      "tersebut": 1992,
      "uhi": 1993,
      "mum": 1994,
      "apuskan": 1995,
      "juta": 1996,
      "risau": 1997,
      "Setelah": 1998,
      "oktor": 1999,
      "radi": 2000,
      "tanggung": 2001,
      "Buat": 2002,
      "tapkan": 2003,
      "Dua": 2004,
      "Ingat": 2005,
      "by": 2006,
      "bai": 2007,
      "con": 2008,
      "fikiran": 2009,
      "akal": 2010,
      "ela": 2011,
      "berta": 2012,
      "kesan": 2013,
      "asih": 2014,
      "jabat": 2015,
      "ungsi": 2016,
      "menyimpan": 2017,
      "likasi": 2018,
      "tentulah": 2019,
      "tindak": 2020,
      "onton": 2021,
      "begini": 2022,
      "izin": 2023,
      "color": 2024,
      "memerlukan": 2025,
      "Hu": 2026,
      "Tel": 2027,
      "Tambah": 2028,
      "hel": 2029,
      "alasan": 2030,
      "kepu": 2031,
      "kecuali": 2032,
      "perkataan": 2033,
      "perubahan": 2034,
      "mengubah": 2035,
      "lut": 2036,
      "rip": 2037,
      "pukul": 2038,
      "keras": 2039,
      "belajar": 2040,
      "data": 2041,
      "Bagi": 2042,
      "jalankan": 2043,
      "sanakan": 2044,
      "Menge": 2045,
      "Eng": 2046,
      "curi": 2047,
      "tujuan": 2048,
      "Syaitan": 2049,
      "sifat": 2050,
      "zalim": 2051,
      "As": 2052,
      "Hal": 2053,
      "Ka": 2054,
      "So": 2055,
      "Tah": 2056,
      "Uni": 2057,
      "bos": 2058,
      "baris": 2059,
      "dangan": 2060,
      "kalan": 2061,
      "leng": 2062,
      "lawan": 2063,
      "pihak": 2064,
      "diam": 2065,
      "keselamatan": 2066,
      "membuka": 2067,
      "apai": 2068,
      "dup": 2069,
      "duli": 2070,
      "gaan": 2071,
      "pek": 2072,
      "resi": 2073,
      "mahukan": 2074,
      "Tuhanmu": 2075,
      "sempur": 2076,
      "fikirkan": 2077,
      "melihatnya": 2078,
      "Lepaskan": 2079,
      "Fiji": 2080,
      "kekuatan": 2081,
      "Jumpa": 2082,
      ":%": 2083,
      "Je": 2084,
      "Kan": 2085,
      "Sama": 2086,
      "pung": 2087,
      "tinya": 2088,
      "atur": 2089,
      "sedar": 2090,
      "unkan": 2091,
      "mendustakan": 2092,
      "berbuat": 2093,
      "perasi": 2094,
      "memilih": 2095,
      "memanggil": 2096,
      "hitam": 2097,
      "pikir": 2098,
      "benci": 2099,
      "peduli": 2100,
      "adik": 2101,
      "tulis": 2102,
      "hubungi": 2103,
      "ingatkan": 2104,
      "sendirian": 2105,
      "tetapkan": 2106,
      "puluh": 2107,
      "soalan": 2108,
      "Beliau": 2109,
      "muncul": 2110,
      "rektori": 2111,
      "Can": 2112,
      "Folder": 2113,
      "Jam": 2114,
      "Kap": 2115,
      "pr": 2116,
      "qu": 2117,
      "you": 2118,
      "sas": 2119,
      "menolong": 2120,
      "berbeza": 2121,
      "kebaikan": 2122,
      "perjalanan": 2123,
      "awai": 2124,
      "terpaksa": 2125,
      "mengh": 2126,
      "rikat": 2127,
      "kepadaNya": 2128,
      "penduduk": 2129,
      "gerakan": 2130,
      "derh": 2131,
      "langsung": 2132,
      "hubungan": 2133,
      "egang": 2134,
      "bintang": 2135,
      "lokasi": 2136,
      "dokumen": 2137,
      "Sial": 2138,
      "sebabkan": 2139,
      "terusnya": 2140,
      "Tempat": 2141,
      "keputusan": 2142,
      "Co": 2143,
      "Ime": 2144,
      "Jalan": 2145,
      "Kali": 2146,
      "Kawan": 2147,
      "Nak": 2148,
      "Raja": 2149,
      "ff": 2150,
      "lik": 2151,
      "tunjukkan": 2152,
      "indungi": 2153,
      "kesalah": 2154,
      "perhati": 2155,
      "memak": 2156,
      "ingkat": 2157,
      "badi": 2158,
      "apakah": 2159,
      "usi": 2160,
      "pelik": 2161,
      "otong": 2162,
      "ikirkan": 2163,
      "ingatan": 2164,
      "burung": 2165,
      "jahatan": 2166,
      "lambat": 2167,
      "temui": 2168,
      "Ah": 2169,
      "Com": 2170,
      "Op": 2171,
      "Qu": 2172,
      "Tunjukkan": 2173,
      "cap": 2174,
      "marah": 2175,
      "amanya": 2176,
      "alog": 2177,
      "dimana": 2178,
      "tukan": 2179,
      "kekal": 2180,
      "kejadian": 2181,
      "kufur": 2182,
      "usah": 2183,
      "bicara": 2184,
      "ley": 2185,
      "tepi": 2186,
      "panas": 2187,
      "menyes": 2188,
      "lakukannya": 2189,
      "ekor": 2190,
      "Begitu": 2191,
      "akhirnya": 2192,
      "anggilan": 2193,
      "gurau": 2194,
      "menentang": 2195,
      "eriksa": 2196,
      "Saiz": 2197,
      "Imej": 2198,
      "ER": 2199,
      "Ed": 2200,
      "Jer": 2201,
      "Mer": 2202,
      "Ste": 2203,
      "Tarik": 2204,
      "aju": 2205,
      "isi": 2206,
      "sin": 2207,
      "wi": 2208,
      "set": 2209,
      "selain": 2210,
      "menunjukkan": 2211,
      "berdiri": 2212,
      "tapan": 2213,
      "ore": 2214,
      "ork": 2215,
      "bul": 2216,
      "sik": 2217,
      "menyu": 2218,
      "pakaian": 2219,
      "ulakan": 2220,
      "bakar": 2221,
      "uruskan": 2222,
      "Berikan": 2223,
      "FFFF": 2224,
      "figur": 2225,
      "Selepas": 2226,
      "Mengetahui": 2227,
      ",..": 2228,
      "Akan": 2229,
      "Bat": 2230,
      "Bawa": 2231,
      "Mes": 2232,
      "Ta": 2233,
      "Uh": 2234,
      "Wil": 2235,
      "gin": 2236,
      "oga": 2237,
      "angkat": 2238,
      "diti": 2239,
      "disebabkan": 2240,
      "mencipta": 2241,
      "menulis": 2242,
      "berkuasa": 2243,
      "bermakna": 2244,
      "asal": 2245,
      "layak": 2246,
      "terang": 2247,
      "tukar": 2248,
      "rid": 2249,
      "letak": 2250,
      "kematian": 2251,
      "pesa": 2252,
      "harga": 2253,
      "pengikut": 2254,
      "lima": 2255,
      "Maklumat": 2256,
      "namaCity": 2257,
      "turut": 2258,
      "Bukankah": 2259,
      "saksi": 2260,
      "Cuba": 2261,
      "surat": 2262,
      "mengikut": 2263,
      "menyebab": 2264,
      "Hidup": 2265,
      "diketahui": 2266,
      "Hentikan": 2267,
      "sekitar": 2268,
      "Ho": 2269,
      "Hati": 2270,
      "Mat": 2271,
      "Nah": 2272,
      "SA": 2273,
      "Yah": 2274,
      "bapa": 2275,
      "jil": 2276,
      "ts": 2277,
      "uan": 2278,
      "walaupun": 2279,
      "ze": 2280,
      "zik": 2281,
      "akit": 2282,
      "aktif": 2283,
      "enam": 2284,
      "ard": 2285,
      "diberi": 2286,
      "sepanjang": 2287,
      "unit": 2288,
      "das": 2289,
      "menjaga": 2290,
      "kejahatan": 2291,
      "perc": 2292,
      "kuti": 2293,
      "laut": 2294,
      "suara": 2295,
      "muda": 2296,
      "mulut": 2297,
      "tahuan": 2298,
      "hida": 2299,
      "Setiap": 2300,
      "atik": 2301,
      "banyakan": 2302,
      "mewa": 2303,
      "Biarkan": 2304,
      "pertolongan": 2305,
      "gantung": 2306,
      "Pasti": 2307,
      "ajaan": 2308,
      "sumber": 2309,
      "Puan": 2310,
      "action": 2311,
      "hormat": 2312,
      "./": 2313,
      "Cak": 2314,
      "Dr": 2315,
      "Ero": 2316,
      "Kum": 2317,
      "Oli": 2318,
      "cang": 2319,
      "dr": 2320,
      "jem": 2321,
      "kong": 2322,
      "les": 2323,
      "my": 2324,
      "pon": 2325,
      "panggilan": 2326,
      "sambil": 2327,
      "diberikan": 2328,
      "dai": 2329,
      "bertindak": 2330,
      "bergurau": 2331,
      "ketua": 2332,
      "orak": 2333,
      "membaca": 2334,
      "rim": 2335,
      "puter": 2336,
      "Apabila": 2337,
      "ted": 2338,
      "ation": 2339,
      "bentuk": 2340,
      "baiknya": 2341,
      "sesat": 2342,
      "row": 2343,
      "gunung": 2344,
      "doa": 2345,
      "janjian": 2346,
      "Pergilah": 2347,
      "Jenis": 2348,
      "Nampaknya": 2349,
      "Eropah": 2350,
      "Fran": 2351,
      "Ger": 2352,
      "Gre": 2353,
      "Im": 2354,
      "OK": 2355,
      "Sil": 2356,
      "Wal": 2357,
      "doktor": 2358,
      "jin": 2359,
      "jung": 2360,
      "ukur": 2361,
      "ena": 2362,
      "atus": 2363,
      "dih": 2364,
      "setuju": 2365,
      "emas": 2366,
      "perjanjian": 2367,
      "arikan": 2368,
      "label": 2369,
      "membiarkan": 2370,
      "inggi": 2371,
      "sul": 2372,
      "bac": 2373,
      "dukan": 2374,
      "masanya": 2375,
      "item": 2376,
      "menyen": 2377,
      "pejabat": 2378,
      "pakai": 2379,
      "bilang": 2380,
      "inginkan": 2381,
      "binasakan": 2382,
      "Teruskan": 2383,
      "sekalian": 2384,
      "sebabnya": 2385,
      "top": 2386,
      "lamanya": 2387,
      "Senarai": 2388,
      "Guna": 2389,
      "tempoh": 2390,
      "semakin": 2391,
      "bertaq": 2392,
      "residen": 2393,
      "kesalahan": 2394,
      "menyebabkan": 2395,
      "11": 2396,
      "Cip": 2397,
      "Go": 2398,
      "Kes": 2399,
      "Lagi": 2400,
      "Mo": 2401,
      "Mon": 2402,
      "To": 2403,
      "Well": 2404,
      "_B": 2405,
      "dol": 2406,
      "mod": 2407,
      "ogi": 2408,
      "tama": 2409,
      "anyi": 2410,
      "dag": 2411,
      "berpaling": 2412,
      "perik": 2413,
      "ord": 2414,
      "gigi": 2415,
      "bus": 2416,
      "badan": 2417,
      "menges": 2418,
      "jum": 2419,
      "biar": 2420,
      "melindungi": 2421,
      "galanya": 2422,
      "harta": 2423,
      "pembunuh": 2424,
      "janjikan": 2425,
      "Cukup": 2426,
      "kuasaan": 2427,
      "rasul": 2428,
      "Harry": 2429,
      "kiranya": 2430,
      "dusta": 2431,
      "habiskan": 2432,
      "mengeluar": 2433,
      "sempurna": 2434,
      "pesawat": 2435,
      "hidayah": 2436,
      "periksa": 2437,
      "AT": 2438,
      "El": 2439,
      "Ib": 2440,
      "Ikut": 2441,
      "Wow": 2442,
      "bing": 2443,
      "fan": 2444,
      "fik": 2445,
      "fungsi": 2446,
      "ganya": 2447,
      "udara": 2448,
      "was": 2449,
      "yap": 2450,
      "dilihat": 2451,
      "diturunkan": 2452,
      "semen": 2453,
      "unt": 2454,
      "kad": 2455,
      "menciptakan": 2456,
      "bermula": 2457,
      "kekuasaan": 2458,
      "peranti": 2459,
      "peraturan": 2460,
      "inilah": 2461,
      "membalas": 2462,
      "baju": 2463,
      "mengej": 2464,
      "bentar": 2465,
      "kerj": 2466,
      "ayuh": 2467,
      "ragu": 2468,
      "nahkan": 2469,
      "pemberi": 2470,
      "merupakan": 2471,
      "asib": 2472,
      "ajaran": 2473,
      "sediakan": 2474,
      "anggap": 2475,
      "lemah": 2476,
      "ght": 2477,
      "faedah": 2478,
      "kaian": 2479,
      "mengandungi": 2480,
      "Bangun": 2481,
      "laporan": 2482,
      "menembak": 2483,
      "Cipta": 2484,
      "15": 2485,
      "Ham": 2486,
      "IM": 2487,
      "Lelaki": 2488,
      "Patu": 2489,
      "abu": 2490,
      "aga": 2491,
      "cat": 2492,
      "faul": 2493,
      "gn": 2494,
      "ralat": 2495,
      "seng": 2496,
      "tom": 2497,
      "ys": 2498,
      "ino": 2499,
      "seterusnya": 2500,
      "kadang": 2501,
      "elok": 2502,
      "bersalah": 2503,
      "kuman": 2504,
      "lagu": 2505,
      "susah": 2506,
      "jau": 2507,
      "dut": 2508,
      "dangkan": 2509,
      "irkan": 2510,
      "gup": 2511,
      "ilihan": 2512,
      "merah": 2513,
      "hidupkan": 2514,
      "Bolehkah": 2515,
      "Samada": 2516,
      "rahmat": 2517,
      "Musa": 2518,
      "Duduk": 2519,
      "dikehendaki": 2520,
      "pengetahuan": 2521,
      "Demi": 2522,
      "menemui": 2523,
      "Charlie": 2524,
      "tanggungjawab": 2525,
      "Oliver": 2526,
      "Patut": 2527,
      ")!": 2528,
      "Gem": 2529,
      "La": 2530,
      "Malam": 2531,
      "Pus": 2532,
      "San": 2533,
      "Walaupun": 2534,
      "bkan": 2535,
      "bom": 2536,
      "derita": 2537,
      "ks": 2538,
      "ler": 2539,
      "operasi": 2540,
      "pd": 2541,
      "tri": 2542,
      "umur": 2543,
      "angi": 2544,
      "all": 2545,
      "diperlukan": 2546,
      "direktori": 2547,
      "dialog": 2548,
      "unan": 2549,
      "tut": 2550,
      "dadah": 2551,
      "kapan": 2552,
      "bert": 2553,
      "tapa": 2554,
      "tasi": 2555,
      "aib": 2556,
      "arisan": 2557,
      "memaham": 2558,
      "ihkan": 2559,
      "bayang": 2560,
      "juang": 2561,
      "esok": 2562,
      "bir": 2563,
      "melam": 2564,
      "let": 2565,
      "atuk": 2566,
      "baiklah": 2567,
      "kemas": 2568,
      "bunuhan": 2569,
      "pakej": 2570,
      "haram": 2571,
      "ome": 2572,
      "Percaya": 2573,
      "impin": 2574,
      "Ketika": 2575,
      "keluarkan": 2576,
      "name": 2577,
      "Tutup": 2578,
      "Peny": 2579,
      "saiz": 2580,
      "baliknya": 2581,
      "firman": 2582,
      "Pilihan": 2583,
      "Benar": 2584,
      "Lihatlah": 2585,
      "nescaya": 2586,
      "istimewa": 2587,
      "mengerjakan": 2588,
      "Opsyen": 2589,
      "ajuan": 2590,
      "figurasi": 2591,
      "percayakan": 2592,
      "mengeluarkan": 2593,
      "sementara": 2594,
      "fault": 2595,
      "Datang": 2596,
      "Em": 2597,
      "ID": 2598,
      "Kun": 2599,
      "Min": 2600,
      "Ra": 2601,
      "Ri": 2602,
      "Rumah": 2603,
      "York": 2604,
      "cing": 2605,
      "cana": 2606,
      "hos": 2607,
      "juh": 2608,
      "mon": 2609,
      "ph": 2610,
      "para": 2611,
      "ring": 2612,
      "va": 2613,
      "vin": 2614,
      "‎.": 2615,
      "angin": 2616,
      "inci": 2617,
      "dikatakan": 2618,
      "bertahan": 2619,
      "berhak": 2620,
      "berkahwin": 2621,
      "berusaha": 2622,
      "tim": 2623,
      "kepadaku": 2624,
      "awat": 2625,
      "kis": 2626,
      "tertentu": 2627,
      "tidaklah": 2628,
      "bayi": 2629,
      "putih": 2630,
      "tetan": 2631,
      "temb": 2632,
      "banding": 2633,
      "kemen": 2634,
      "peg": 2635,
      "pasang": 2636,
      "Ang": 2637,
      "alami": 2638,
      "masukkan": 2639,
      "pastikan": 2640,
      "sejak": 2641,
      "lindungan": 2642,
      "penyel": 2643,
      "Laluan": 2644,
      "derhaka": 2645,
      "kongsi": 2646,
      "100": 2647,
      "Col": 2648,
      "Dun": 2649,
      "Dis": 2650,
      "For": 2651,
      "Font": 2652,
      "Lam": 2653,
      "Mod": 2654,
      "Po": 2655,
      "Par": 2656,
      "Sar": 2657,
      "limpah": 2658,
      "pokok": 2659,
      "sh": 2660,
      "tunya": 2661,
      "anku": 2662,
      "akses": 2663,
      "angka": 2664,
      "enek": 2665,
      "diken": 2666,
      "seti": 2667,
      "sekejap": 2668,
      "menik": 2669,
      "berharap": 2670,
      "berdoa": 2671,
      "butang": 2672,
      "kamera": 2673,
      "kib": 2674,
      "apos": 2675,
      "iling": 2676,
      "mengalah": 2677,
      "dahkan": 2678,
      "puak": 2679,
      "melawan": 2680,
      "melarikan": 2681,
      "niakan": 2682,
      "Sesuatu": 2683,
      "berikut": 2684,
      "jiwa": 2685,
      "kelak": 2686,
      "peluru": 2687,
      "hujan": 2688,
      "hukuman": 2689,
      "Terdapat": 2690,
      "font": 2691,
      "buktikan": 2692,
      "harapkan": 2693,
      "parti": 2694,
      "vid": 2695,
      "meletakkan": 2696,
      "ombong": 2697,
      "menangkap": 2698,
      "bunyikan": 2699,
      "hadiah": 2700,
      "Engkau": 2701,
      "FFFF00": 2702,
      "\"?": 2703,
      "Af": 2704,
      "Ap": 2705,
      "Abang": 2706,
      "Con": 2707,
      "Ge": 2708,
      "Jim": 2709,
      "Kon": 2710,
      "Kur": 2711,
      "Mor": 2712,
      "Nombor": 2713,
      "Sk": 2714,
      "Teks": 2715,
      "Ver": 2716,
      "We": 2717,
      "ld": 2718,
      "sor": 2719,
      "soleh": 2720,
      "wah": 2721,
      "akju": 2722,
      "ahari": 2723,
      "atih": 2724,
      "alamat": 2725,
      "diper": 2726,
      "disana": 2727,
      "ditetapkan": 2728,
      "sesuai": 2729,
      "kaan": 2730,
      "ment": 2731,
      "berperang": 2732,
      "bertenang": 2733,
      "bersumpah": 2734,
      "kesen": 2735,
      "ast": 2736,
      "memel": 2737,
      "ihara": 2738,
      "musy": 2739,
      "ili": 2740,
      "dahal": 2741,
      "dalamnya": 2742,
      "hitung": 2743,
      "bahan": 2744,
      "bahag": 2745,
      "pandang": 2746,
      "utang": 2747,
      "selamanya": 2748,
      "pegang": 2749,
      "Janganlah": 2750,
      "land": 2751,
      "otor": 2752,
      "sambungan": 2753,
      "Tukar": 2754,
      "mencuri": 2755,
      "Meny": 2756,
      "India": 2757,
      "syukur": 2758,
      "proses": 2759,
      "versi": 2760,
      "perangkap": 2761,
      "komputer": 2762,
      "bola": 2763,
      "cahaya": 2764,
      "Bilangan": 2765,
      "David": 2766,
      "Salin": 2767,
      "serius": 2768,
      "khian": 2769,
      "nafas": 2770,
      "United": 2771,
      "menyesal": 2772,
      "kesenangan": 2773,
      "musyrik": 2774,
      "bahagia": 2775,
      "Ev": 2776,
      "Iaitu": 2777,
      "Jan": 2778,
      "Ray": 2779,
      "Sc": 2780,
      "Who": 2781,
      "Yu": 2782,
      "ec": 2783,
      "gah": 2784,
      "gaya": 2785,
      "iaitu": 2786,
      "kod": 2787,
      "mis": 2788,
      "nasib": 2789,
      "pil": 2790,
      "ujian": 2791,
      "wai": 2792,
      "xt": 2793,
      "untung": 2794,
      "daya": 2795,
      "meneg": 2796,
      "kebanyakan": 2797,
      "memikirkan": 2798,
      "terbuka": 2799,
      "apapun": 2800,
      "sut": 2801,
      "takdir": 2802,
      "duan": 2803,
      "daripadanya": 2804,
      "andai": 2805,
      "raun": 2806,
      "Inilah": 2807,
      "seronok": 2808,
      "cedera": 2809,
      "pembunuhan": 2810,
      "Marilah": 2811,
      "teruskan": 2812,
      "segalanya": 2813,
      "jenayah": 2814,
      "menurunkan": 2815,
      "Kuasa": 2816,
      "Tembak": 2817,
      "Firaun": 2818,
      "Masukkan": 2819,
      "niagaan": 2820,
      "Dokumen": 2821,
      "memandu": 2822,
      "paparkan": 2823,
      "Polis": 2824,
      "hancurkan": 2825,
      "Dapatkan": 2826,
      "menimpa": 2827,
      "Kapten": 2828,
      "dolar": 2829,
      "kemenangan": 2830,
      "akjubkan": 2831,
      ")?": 2832,
      "Atas": 2833,
      "Bum": 2834,
      "Bob": 2835,
      "CD": 2836,
      "Ha": 2837,
      "IS": 2838,
      "Kar": 2839,
      "Neg": 2840,
      "Oke": 2841,
      "Pa": 2842,
      "Pi": 2843,
      "Pat": 2844,
      "Ram": 2845,
      "UR": 2846,
      "gak": 2847,
      "halaman": 2848,
      "kh": 2849,
      "lot": 2850,
      "rom": 2851,
      "aksara": 2852,
      "endar": 2853,
      "ather": 2854,
      "dipanggil": 2855,
      "ditemui": 2856,
      "sebaliknya": 2857,
      "kaitan": 2858,
      "tikus": 2859,
      "tab": 2860,
      "taat": 2861,
      "nyawa": 2862,
      "membel": 2863,
      "suami": 2864,
      "him": 2865,
      "his": 2866,
      "Sebelum": 2867,
      "tekan": 2868,
      "kerajaan": 2869,
      "pantas": 2870,
      "Tiga": 2871,
      "aluan": 2872,
      "deo": 2873,
      "rosak": 2874,
      "ungkinan": 2875,
      "Ayo": 2876,
      "bincang": 2877,
      "log": 2878,
      "mencapai": 2879,
      "harusnya": 2880,
      "bungkan": 2881,
      "tamu": 2882,
      "membunuhnya": 2883,
      "disokong": 2884,
      "Barry": 2885,
      "tuskan": 2886,
      "peribadi": 2887,
      "silap": 2888,
      "paparan": 2889,
      "skrin": 2890,
      "gonna": 2891,
      "pekerjaan": 2892,
      "daging": 2893,
      "jumlah": 2894,
      "Patutkah": 2895,
      "Gembira": 2896,
      "':": 2897,
      "18": 2898,
      "19": 2899,
      "Air": 2900,
      "Kol": 2901,
      "Nor": 2902,
      "Tinggal": 2903,
      "boh": 2904,
      "duh": 2905,
      "kor": 2906,
      "ling": 2907,
      "ubat": 2908,
      "way": 2909,
      "zat": 2910,
      "ers": 2911,
      "erah": 2912,
      "sejuk": 2913,
      "seharusnya": 2914,
      "menjual": 2915,
      "berkat": 2916,
      "berfungsi": 2917,
      "berfirman": 2918,
      "iaya": 2919,
      "iawai": 2920,
      "membeli": 2921,
      "menghalang": 2922,
      "jukan": 2923,
      "sir": 2924,
      "ribu": 2925,
      "pist": 2926,
      "Alam": 2927,
      "kerjakan": 2928,
      "baran": 2929,
      "cuti": 2930,
      "rab": 2931,
      "bukannya": 2932,
      "balikan": 2933,
      "darat": 2934,
      "serang": 2935,
      "osakan": 2936,
      "oto": 2937,
      "campur": 2938,
      "mesin": 2939,
      "jangka": 2940,
      "video": 2941,
      "adakan": 2942,
      "Semoga": 2943,
      "lepaskan": 2944,
      "filem": 2945,
      "sekutu": 2946,
      "Joe": 2947,
      "States": 2948,
      "Siap": 2949,
      "baiki": 2950,
      "dikehendakiNya": 2951,
      "pegawai": 2952,
      "pistol": 2953,
      "(%": 2954,
      "Bo": 2955,
      "Faham": 2956,
      "IN": 2957,
      "Lan": 2958,
      "Lari": 2959,
      "Lain": 2960,
      "Mc": 2961,
      "Mus": 2962,
      "Padam": 2963,
      "Presiden": 2964,
      "Tin": 2965,
      "Tinggi": 2966,
      "blok": 2967,
      "jaw": 2968,
      "nor": 2969,
      "nanya": 2970,
      "net": 2971,
      "panya": 2972,
      "sing": 2973,
      "yatakan": 2974,
      "angnya": 2975,
      "indung": 2976,
      "dibuat": 2977,
      "dibunuh": 2978,
      "dibenarkan": 2979,
      "sebaik": 2980,
      "pau": 2981,
      "kaya": 2982,
      "emasan": 2983,
      "elek": 2984,
      "menari": 2985,
      "menjalankan": 2986,
      "bersyukur": 2987,
      "titik": 2988,
      "kejut": 2989,
      "kedai": 2990,
      "peringatan": 2991,
      "perlindungan": 2992,
      "ologi": 2993,
      "akuan": 2994,
      "terdahulu": 2995,
      "mengaku": 2996,
      "mayat": 2997,
      "bolehkan": 2998,
      "niah": 2999,
      "eritakan": 3000,
      "ciri": 3001,
      "matahari": 3002,
      "Berundur": 3003,
      "Buku": 3004,
      "matikan": 3005,
      "semangat": 3006,
      "agar": 3007,
      "sebagaimana": 3008,
      "hadapi": 3009,
      "misi": 3010,
      "kala": 3011,
      "Kerja": 3012,
      "rahim": 3013,
      "Masih": 3014,
      "objek": 3015,
      "maksudkan": 3016,
      "rasanya": 3017,
      "menangis": 3018,
      "perintahkan": 3019,
      "yeah": 3020,
      "kahwinan": 3021,
      "sembahyang": 3022,
      "utamaan": 3023,
      "menetapkan": 3024,
      "bersihkan": 3025,
      "Bunuh": 3026,
      "Bahawa": 3027,
      "sukakan": 3028,
      "Tarikh": 3029,
      "bertaqwa": 3030,
      "setia": 3031,
      "Afri": 3032,
      "Cik": 3033,
      "Lat": 3034,
      "Lakukan": 3035,
      "Mati": 3036,
      "Nilai": 3037,
      "Salah": 3038,
      "Sul": 3039,
      "Tang": 3040,
      "edar": 3041,
      "esai": 3042,
      "fe": 3043,
      "jej": 3044,
      "nakan": 3045,
      "ota": 3046,
      "ps": 3047,
      "sil": 3048,
      "ven": 3049,
      "dio": 3050,
      "ditor": 3051,
      "sebentar": 3052,
      "sasa": 3053,
      "menahan": 3054,
      "menolak": 3055,
      "berbagai": 3056,
      "bermaksud": 3057,
      "keju": 3058,
      "orong": 3059,
      "asat": 3060,
      "kuda": 3061,
      "membayar": 3062,
      "memulakan": 3063,
      "terdapat": 3064,
      "onal": 3065,
      "mengawal": 3066,
      "sikit": 3067,
      "ess": 3068,
      "asai": 3069,
      "masi": 3070,
      "kerosakan": 3071,
      "kelas": 3072,
      "Pertama": 3073,
      "dek": 3074,
      "yakit": 3075,
      "ulia": 3076,
      "tanding": 3077,
      "serah": 3078,
      "hantu": 3079,
      "cetak": 3080,
      "Hebat": 3081,
      "gula": 3082,
      "meter": 3083,
      "semalam": 3084,
      "cky": 3085,
      "sampah": 3086,
      "kalaulah": 3087,
      "jumpai": 3088,
      "hala": 3089,
      "sedih": 3090,
      "percayai": 3091,
      "kalangan": 3092,
      "Ayuhlah": 3093,
      "ontoh": 3094,
      "menyerang": 3095,
      "rentetan": 3096,
      "Mesej": 3097,
      "sanggup": 3098,
      "menyembah": 3099,
      "tral": 3100,
      "Demikian": 3101,
      "asihani": 3102,
      "perhatian": 3103,
      "memakai": 3104,
      "ditimpa": 3105,
      "Frank": 3106,
      "memahami": 3107,
      "bohong": 3108,
      "Afrika": 3109,
      "!\"": 3110,
      "'.": 3111,
      "14": 3112,
      "Aut": 3113,
      "Gu": 3114,
      "can": 3115,
      "chi": 3116,
      "dmat": 3117,
      "get": 3118,
      "nenek": 3119,
      "ood": 3120,
      "pandai": 3121,
      "rap": 3122,
      "spe": 3123,
      "van": 3124,
      "aksanakan": 3125,
      "ditangkap": 3126,
      "kadar": 3127,
      "menyang": 3128,
      "menonton": 3129,
      "berkel": 3130,
      "bertar": 3131,
      "berguna": 3132,
      "berjanji": 3133,
      "kesudah": 3134,
      "ketahui": 3135,
      "keturun": 3136,
      "asihat": 3137,
      "kampung": 3138,
      "membaw": 3139,
      "suci": 3140,
      "aplikasi": 3141,
      "sial": 3142,
      "sikap": 3143,
      "sibuk": 3144,
      "melu": 3145,
      "nie": 3146,
      "betapa": 3147,
      "Sebagai": 3148,
      "Sebuah": 3149,
      "Ali": 3150,
      "asas": 3151,
      "buatkan": 3152,
      "belas": 3153,
      "pendapat": 3154,
      "utk": 3155,
      "kemana": 3156,
      "mandi": 3157,
      "alukan": 3158,
      "ompat": 3159,
      "bilangan": 3160,
      "libat": 3161,
      "red": 3162,
      "akibat": 3163,
      "Tuhannya": 3164,
      "Mengasihani": 3165,
      "Letakkan": 3166,
      "Sampai": 3167,
      "kota": 3168,
      "Rasanya": 3169,
      "simbol": 3170,
      "tahanan": 3171,
      "format": 3172,
      "anggar": 3173,
      "bangunan": 3174,
      "cintakan": 3175,
      "menerangkan": 3176,
      "sasaran": 3177,
      "Cakap": 3178,
      "mengejar": 3179,
      "Asia": 3180,
      "Bro": 3181,
      "Cal": 3182,
      "Jahan": 3183,
      "Kata": 3184,
      "Mr": 3185,
      "OM": 3186,
      "ct": 3187,
      "com": 3188,
      "duhan": 3189,
      "fes": 3190,
      "iman": 3191,
      "lal": 3192,
      "mohon": 3193,
      "out": 3194,
      "rel": 3195,
      "rum": 3196,
      "tong": 3197,
      "trik": 3198,
      "andu": 3199,
      "ahi": 3200,
      "angkah": 3201,
      "enang": 3202,
      "arang": 3203,
      "alaluan": 3204,
      "dipaparkan": 3205,
      "sekel": 3206,
      "uni": 3207,
      "papan": 3208,
      "tujuh": 3209,
      "dap": 3210,
      "berjuang": 3211,
      "tip": 3212,
      "tipu": 3213,
      "taw": 3214,
      "perniagaan": 3215,
      "membuang": 3216,
      "terlambat": 3217,
      "apor": 3218,
      "mabuk": 3219,
      "...?": 3220,
      "letakkan": 3221,
      "bahwa": 3222,
      "isah": 3223,
      "jik": 3224,
      "panel": 3225,
      "raja": 3226,
      "tulang": 3227,
      "bangkan": 3228,
      "serangan": 3229,
      "hei": 3230,
      "sempat": 3231,
      "wajah": 3232,
      "hujung": 3233,
      "Tetapan": 3234,
      "Pengampun": 3235,
      "sejarah": 3236,
      "minal": 3237,
      "akutkan": 3238,
      "kotak": 3239,
      "tindakan": 3240,
      "Banyak": 3241,
      "latar": 3242,
      "program": 3243,
      "meletup": 3244,
      "musnahkan": 3245,
      "rakyat": 3246,
      "Tenang": 3247,
      "Keluarkan": 3248,
      "kawalan": 3249,
      "Arahan": 3250,
      "Projek": 3251,
      "apisan": 3252,
      "Tanpa": 3253,
      "James": 3254,
      "Kalian": 3255,
      "Import": 3256,
      "Silakan": 3257,
      "melampau": 3258,
      "Percayalah": 3259,
      "Bumi": 3260,
      "himpun": 3261,
      "Demikianlah": 3262,
      "24": 3263,
      "200": 3264,
      "Ale": 3265,
      "BI": 3266,
      "Bla": 3267,
      "Bon": 3268,
      "Es": 3269,
      "Edit": 3270,
      "GN": 3271,
      "Her": 3272,
      "Hmm": 3273,
      "Keh": 3274,
      "Kom": 3275,
      "Mah": 3276,
      "Or": 3277,
      "SE": 3278,
      "Vi": 3279,
      "acur": 3280,
      "bara": 3281,
      "ble": 3282,
      "celaka": 3283,
      "hutan": 3284,
      "pangan": 3285,
      "ron": 3286,
      "vis": 3287,
      "eral": 3288,
      "ate": 3289,
      "alangan": 3290,
      "die": 3291,
      "disediakan": 3292,
      "seekor": 3293,
      "padahal": 3294,
      "kainya": 3295,
      "menipu": 3296,
      "asama": 3297,
      "gian": 3298,
      "lay": 3299,
      "laju": 3300,
      "membuktikan": 3301,
      "terlibat": 3302,
      "suf": 3303,
      "muk": 3304,
      "ehat": 3305,
      "mengalami": 3306,
      "uraian": 3307,
      "jua": 3308,
      "dahan": 3309,
      "piran": 3310,
      "Sejak": 3311,
      "Alamat": 3312,
      "pener": 3313,
      "penyakit": 3314,
      "ayu": 3315,
      "Tidakkah": 3316,
      "Pernah": 3317,
      "Permainan": 3318,
      "default": 3319,
      "datangkan": 3320,
      "pelbagai": 3321,
      "pemilihan": 3322,
      "Selain": 3323,
      "had": 3324,
      "jantung": 3325,
      "tock": 3326,
      "Sambungan": 3327,
      "mengena": 3328,
      "pura": 3329,
      "taubat": 3330,
      "Pastikan": 3331,
      "Pasukan": 3332,
      "mulai": 3333,
      "kurangnya": 3334,
      "China": 3335,
      "Pelayan": 3336,
      "memuatkan": 3337,
      "menguasai": 3338,
      "syarikat": 3339,
      "ampunkan": 3340,
      "istiwa": 3341,
      "kakak": 3342,
      "fuck": 3343,
      "Hantar": 3344,
      "Telefon": 3345,
      "Tahniah": 3346,
      "Comment": 3347,
      "Kumpulan": 3348,
      "Dunia": 3349,
      "Au": 3350,
      "Baw": 3351,
      "Bri": 3352,
      "Ci": 3353,
      "Celaka": 3354,
      "Data": 3355,
      "Fo": 3356,
      "Kere": 3357,
      "Mic": 3358,
      "Nanti": 3359,
      "Panggil": 3360,
      "Shi": 3361,
      "Sum": 3362,
      "Sim": 3363,
      "Sir": 3364,
      "Stock": 3365,
      "Ubah": 3366,
      "USA": 3367,
      "Wak": 3368,
      "che": 3369,
      "huru": 3370,
      "hutang": 3371,
      "ktop": 3372,
      "lus": 3373,
      "lurus": 3374,
      "rol": 3375,
      "sokong": 3376,
      "tran": 3377,
      "ucap": 3378,
      "wor": 3379,
      "zi": 3380,
      "anggan": 3381,
      "yam": 3382,
      "yarat": 3383,
      "arak": 3384,
      "arkib": 3385,
      "diakan": 3386,
      "dibuka": 3387,
      "semata": 3388,
      "sepenuh": 3389,
      "daf": 3390,
      "daan": 3391,
      "kasut": 3392,
      "menel": 3393,
      "mencuba": 3394,
      "berbu": 3395,
      "berhati": 3396,
      "tawa": 3397,
      "asing": 3398,
      "awasan": 3399,
      "olu": 3400,
      "terlepas": 3401,
      "muat": 3402,
      "ilmu": 3403,
      "menging": 3404,
      "siko": 3405,
      "dalaman": 3406,
      "Set": 3407,
      "Sedia": 3408,
      "dapati": 3409,
      "teg": 3410,
      "maksi": 3411,
      "bank": 3412,
      "kemam": 3413,
      "gala": 3414,
      "manakah": 3415,
      "menyakit": 3416,
      "peti": 3417,
      "Perlahan": 3418,
      "bangkit": 3419,
      "Buang": 3420,
      "lantai": 3421,
      "akiti": 3422,
      "namanya": 3423,
      "Tepat": 3424,
      "mencinta": 3425,
      "rangkaian": 3426,
      "Bijak": 3427,
      "ajak": 3428,
      "membuatkan": 3429,
      "Cetak": 3430,
      "kaumnya": 3431,
      "kurnia": 3432,
      "kulit": 3433,
      "tolonglah": 3434,
      "rendah": 3435,
      "konfigurasi": 3436,
      "minuman": 3437,
      "menentukan": 3438,
      "hormati": 3439,
      "lumba": 3440,
      "gantikan": 3441,
      "mengembalikan": 3442,
      "merekalah": 3443,
      "Halo": 3444,
      "menyukainya": 3445,
      "dasarkan": 3446,
      "Ibrahim": 3447,
      "kerjasama": 3448,
      "dikenali": 3449,
      "mengalahkan": 3450,
      "Yusuf": 3451,
      "Alamak": 3452,
      "AL": 3453,
      "Aus": 3454,
      "Bra": 3455,
      "Beg": 3456,
      "Baris": 3457,
      "CP": 3458,
      "DE": 3459,
      "Den": 3460,
      "Gar": 3461,
      "Lau": 3462,
      "Makan": 3463,
      "Pal": 3464,
      "Sara": 3465,
      "Seri": 3466,
      "Th": 3467,
      "Tom": 3468,
      "Tab": 3469,
      "Vic": 3470,
      "datuk": 3471,
      "ex": 3472,
      "gor": 3473,
      "garis": 3474,
      "ikatan": 3475,
      "jal": 3476,
      "klik": 3477,
      "piawai": 3478,
      "sombong": 3479,
      "tok": 3480,
      "yum": 3481,
      "ator": 3482,
      "diambil": 3483,
      "diterima": 3484,
      "dijanjikan": 3485,
      "menai": 3486,
      "menderita": 3487,
      "menakjubkan": 3488,
      "menakutkan": 3489,
      "perangan": 3490,
      "asanya": 3491,
      "arian": 3492,
      "memohon": 3493,
      "membac": 3494,
      "musim": 3495,
      "jualah": 3496,
      "dukac": 3497,
      "Sekali": 3498,
      "Secara": 3499,
      "bencana": 3500,
      "jiran": 3501,
      "jijik": 3502,
      "utara": 3503,
      "kemungkinan": 3504,
      "kemalangan": 3505,
      "sentuh": 3506,
      "ikon": 3507,
      "menyatakan": 3508,
      "dirimu": 3509,
      "pergilah": 3510,
      "raf": 3511,
      "sesama": 3512,
      "tingkat": 3513,
      "adilan": 3514,
      "pengawal": 3515,
      "lian": 3516,
      "Ketua": 3517,
      "Kepala": 3518,
      "kenalan": 3519,
      "Dimana": 3520,
      "anaknya": 3521,
      "berlawan": 3522,
      "Tugas": 3523,
      "hael": 3524,
      "Beberapa": 3525,
      "Tetapkan": 3526,
      "dow": 3527,
      "Suci": 3528,
      "pahala": 3529,
      "pindah": 3530,
      "nampaknya": 3531,
      "Masalah": 3532,
      "harapan": 3533,
      "kurniakan": 3534,
      "soal": 3535,
      "Sentiasa": 3536,
      "Belum": 3537,
      "selesaikan": 3538,
      "memukul": 3539,
      "pusat": 3540,
      "Syarikat": 3541,
      "Tengoklah": 3542,
      "laksanakan": 3543,
      "Turun": 3544,
      "pesanan": 3545,
      "khidmat": 3546,
      "Dapat": 3547,
      "keduanya": 3548,
      "wahy": 3549,
      "khianat": 3550,
      "Black": 3551,
      "daftar": 3552,
      ",...": 3553,
      "AP": 3554,
      "Bye": 3555,
      "Che": 3556,
      "Dar": 3557,
      "Guru": 3558,
      "Lapisan": 3559,
      "Mm": 3560,
      "Naik": 3561,
      "Pasi": 3562,
      "Ren": 3563,
      "Sun": 3564,
      "Sas": 3565,
      "Sini": 3566,
      "Ulang": 3567,
      "Yo": 3568,
      "basan": 3569,
      "cel": 3570,
      "cker": 3571,
      "ganda": 3572,
      "ginya": 3573,
      "jari": 3574,
      "mang": 3575,
      "malu": 3576,
      "not": 3577,
      "pinta": 3578,
      "run": 3579,
      "sta": 3580,
      "tt": 3581,
      "vo": 3582,
      "yuar": 3583,
      "zaman": 3584,
      "ake": 3585,
      "ahirkan": 3586,
      "arut": 3587,
      "ins": 3588,
      "didalam": 3589,
      "pautan": 3590,
      "berga": 3591,
      "bersabar": 3592,
      "berkaitan": 3593,
      "tiadalah": 3594,
      "kejam": 3595,
      "pergerakan": 3596,
      "perkahwinan": 3597,
      "peristiwa": 3598,
      "bum": 3599,
      "buta": 3600,
      "ayaran": 3601,
      "akutan": 3602,
      "memi": 3603,
      "memen": 3604,
      "memat": 3605,
      "memeriksa": 3606,
      "sub": 3607,
      "muzik": 3608,
      "bau": 3609,
      "mengur": 3610,
      "...\"": 3611,
      "sian": 3612,
      "dual": 3613,
      "duga": 3614,
      "est": 3615,
      "esar": 3616,
      "bekas": 3617,
      "pijat": 3618,
      "atif": 3619,
      "erit": 3620,
      "pandangan": 3621,
      "utar": 3622,
      "Perhati": 3623,
      "adis": 3624,
      "Kecuali": 3625,
      "lanet": 3626,
      "geris": 3627,
      "Terus": 3628,
      "agen": 3629,
      "Entah": 3630,
      "pertinya": 3631,
      "hilangkan": 3632,
      "status": 3633,
      "mulaan": 3634,
      "projek": 3635,
      "pulkan": 3636,
      "Peter": 3637,
      "Benda": 3638,
      "miliki": 3639,
      "Maksudnya": 3640,
      "sangka": 3641,
      "Carol": 3642,
      "saling": 3643,
      "talian": 3644,
      "Akhir": 3645,
      "Nick": 3646,
      "tarikh": 3647,
      "kedudukan": 3648,
      "Siapakah": 3649,
      "radio": 3650,
      "Ingatlah": 3651,
      "drpd": 3652,
      "Hampir": 3653,
      "bayangkan": 3654,
      "tembakan": 3655,
      "berkatalah": 3656,
      "lalai": 3657,
      "sekeliling": 3658,
      "Alex": 3659,
      "Pasifik": 3660,
      "yuarat": 3661,
      "\"#": 3662,
      "\"(": 3663,
      "13": 3664,
      "AM": 3665,
      "Agen": 3666,
      "Bin": 3667,
      "Bal": 3668,
      "Bapa": 3669,
      "Bur": 3670,
      "Bos": 3671,
      "Cam": 3672,
      "Cor": 3673,
      "Don": 3674,
      "Ex": 3675,
      "FBI": 3676,
      "Gen": 3677,
      "Gadis": 3678,
      "Huh": 3679,
      "Kal": 3680,
      "Kosong": 3681,
      "OP": 3682,
      "Pegang": 3683,
      "Rang": 3684,
      "Ric": 3685,
      "Sing": 3686,
      "War": 3687,
      "acara": 3688,
      "bro": 3689,
      "cem": 3690,
      "eter": 3691,
      "juru": 3692,
      "rus": 3693,
      "sihat": 3694,
      "tamat": 3695,
      "trak": 3696,
      "yet": 3697,
      "zak": 3698,
      "amakan": 3699,
      "disimpan": 3700,
      "und": 3701,
      "tubuh": 3702,
      "tuduhan": 3703,
      "sasi": 3704,
      "menan": 3705,
      "menambah": 3706,
      "berke": 3707,
      "bernama": 3708,
      "bersendirian": 3709,
      "berdasarkan": 3710,
      "kedatangan": 3711,
      "tad": 3712,
      "bulat": 3713,
      "olum": 3714,
      "lapi": 3715,
      "termasuk": 3716,
      "terkejut": 3717,
      "ony": 3718,
      "jaan": 3719,
      "taka": 3720,
      "pati": 3721,
      "autom": 3722,
      "mengganggu": 3723,
      "denganmu": 3724,
      "sional": 3725,
      "ribut": 3726,
      "bisik": 3727,
      "melaksanakan": 3728,
      "melanggar": 3729,
      "lewat": 3730,
      "nis": 3731,
      "Seseorang": 3732,
      "ister": 3733,
      "text": 3734,
      "peta": 3735,
      "pecah": 3736,
      "peperangan": 3737,
      "pepijat": 3738,
      "tangga": 3739,
      "Keutamaan": 3740,
      "reze": 3741,
      "bangga": 3742,
      "afik": 3743,
      "Budak": 3744,
      "meren": 3745,
      "Terlalu": 3746,
      "ganas": 3747,
      "selesa": 3748,
      "lampu": 3749,
      "mintaan": 3750,
      "gelap": 3751,
      "mengenal": 3752,
      "paruh": 3753,
      "melebih": 3754,
      "maksudnya": 3755,
      "raksasa": 3756,
      "Mary": 3757,
      "Cepatlah": 3758,
      "dendam": 3759,
      "Harus": 3760,
      "opsyen": 3761,
      "RasulNya": 3762,
      "ancis": 3763,
      "sakitnya": 3764,
      "jelaskan": 3765,
      "munafik": 3766,
      "pusing": 3767,
      "Inggeris": 3768,
      "Carl": 3769,
      "sungai": 3770,
      "AR_": 3771,
      "kacau": 3772,
      "weather": 3773,
      "onokkan": 3774,
      "bosan": 3775,
      "lengkap": 3776,
      "Hidupkan": 3777,
      "_BAR_": 3778,
      "memelihara": 3779,
      "menyangka": 3780,
      "Jahannam": 3781,
      "mencintai": 3782,
      "Bijaksana": 3783,
      "rezeki": 3784,
      "25": 3785,
      "40": 3786,
      "80": 3787,
      ":\"": 3788,
      "Aka": 3789,
      "Adam": 3790,
      "Cin": 3791,
      "Del": 3792,
      "Des": 3793,
      "Fu": 3794,
      "LE": 3795,
      "Lut": 3796,
      "MP": 3797,
      "Memu": 3798,
      "Ne": 3799,
      "Pap": 3800,
      "Pri": 3801,
      "Peri": 3802,
      "Pindah": 3803,
      "Ruang": 3804,
      "Sur": 3805,
      "Tanda": 3806,
      "barisan": 3807,
      "cil": 3808,
      "ceritakan": 3809,
      "contoh": 3810,
      "del": 3811,
      "gol": 3812,
      "hy": 3813,
      "ib": 3814,
      "itik": 3815,
      "kari": 3816,
      "kli": 3817,
      "ll": 3818,
      "nasihat": 3819,
      "potong": 3820,
      "teh": 3821,
      "aneh": 3822,
      "info": 3823,
      "sepadan": 3824,
      "seolah": 3825,
      "tuah": 3826,
      "emak": 3827,
      "menun": 3828,
      "berterima": 3829,
      "berbahaya": 3830,
      "enggan": 3831,
      "org": 3832,
      "askar": 3833,
      "asik": 3834,
      "kuk": 3835,
      "member": 3836,
      "memadam": 3837,
      "membina": 3838,
      "membinasakan": 3839,
      "membolehkan": 3840,
      "terkenal": 3841,
      "apun": 3842,
      "menghadapi": 3843,
      "jujur": 3844,
      "siang": 3845,
      "luka": 3846,
      "luas": 3847,
      "esen": 3848,
      "melimpah": 3849,
      "beku": 3850,
      "pital": 3851,
      "ist": 3852,
      "isyarat": 3853,
      "jizat": 3854,
      "erikan": 3855,
      "pantai": 3856,
      "itkan": 3857,
      "senyum": 3858,
      "menyek": 3859,
      "menyanyi": 3860,
      "pedang": 3861,
      "pasangan": 3862,
      "ompak": 3863,
      "robot": 3864,
      "tandatangan": 3865,
      "Bergerak": 3866,
      "Bertenang": 3867,
      "pelajar": 3868,
      "pelacur": 3869,
      "iru": 3870,
      "gumen": 3871,
      "merayu": 3872,
      "seminggu": 3873,
      "tempatnya": 3874,
      "kembalikan": 3875,
      "bakat": 3876,
      "Pengguna": 3877,
      "Pengurus": 3878,
      "pulau": 3879,
      "sebelumnya": 3880,
      "rupa": 3881,
      "syurga": 3882,
      "cho": 3883,
      "nyah": 3884,
      "rambut": 3885,
      "keadaannya": 3886,
      "saudar": 3887,
      "menjelas": 3888,
      "melepaskan": 3889,
      "maafkan": 3890,
      "tektif": 3891,
      "mengikuti": 3892,
      "menyertai": 3893,
      "rindu": 3894,
      "lyn": 3895,
      "Kembali": 3896,
      "silapan": 3897,
      "Serta": 3898,
      "faat": 3899,
      "dinyatakan": 3900,
      "ketakutan": 3901,
      "culik": 3902,
      "situasi": 3903,
      "pangkalan": 3904,
      "menemukan": 3905,
      "Tentulah": 3906,
      "haiwan": 3907,
      "Kira": 3908,
      "Jepun": 3909,
      "Kunci": 3910,
      "Whoa": 3911,
      "miskin": 3912,
      "elektrik": 3913,
      "jejak": 3914,
      "tralia": 3915,
      "kesudahan": 3916,
      "OME": 3917,
      "himpunkan": 3918,
      "mukjizat": 3919,
      "sokongan": 3920,
      "olution": 3921,
      "Australia": 3922,
      "dukacita": 3923,
      "tadbir": 3924,
      "automatik": 3925,
      "%.": 3926,
      "70": 3927,
      "Adalah": 3928,
      "Gan": 3929,
      "Gel": 3930,
      "Jon": 3931,
      "Jom": 3932,
      "Pr": 3933,
      "Ry": 3934,
      "TI": 3935,
      "Wan": 3936,
      "balah": 3937,
      "cen": 3938,
      "ft": 3939,
      "iel": 3940,
      "jlis": 3941,
      "kotor": 3942,
      "nologi": 3943,
      "sol": 3944,
      "ski": 3945,
      "ster": 3946,
      "upa": 3947,
      "uki": 3948,
      "wal": 3949,
      "antar": 3950,
      "arap": 3951,
      "inkan": 3952,
      "input": 3953,
      "sebanyak": 3954,
      "secepat": 3955,
      "sekiranya": 3956,
      "unsur": 3957,
      "kandung": 3958,
      "dasar": 3959,
      "menaw": 3960,
      "mendatangkan": 3961,
      "bersam": 3962,
      "beramal": 3963,
      "berdosa": 3964,
      "bersembunyi": 3965,
      "bertanggungjawab": 3966,
      "tic": 3967,
      "kehendaki": 3968,
      "perse": 3969,
      "permintaan": 3970,
      "ora": 3971,
      "danya": 3972,
      "kie": 3973,
      "memban": 3974,
      "memegang": 3975,
      "mempercayai": 3976,
      "eret": 3977,
      "terbunuh": 3978,
      "terperi": 3979,
      "onel": 3980,
      "ahudi": 3981,
      "dali": 3982,
      "badat": 3983,
      "baginya": 3984,
      "dengarkan": 3985,
      "patah": 3986,
      "mengg": 3987,
      "mengun": 3988,
      "mengali": 3989,
      "mengatas": 3990,
      "menghabiskan": 3991,
      "mengampunkan": 3992,
      "lubang": 3993,
      "lupakan": 3994,
      "kitab": 3995,
      "aliti": 3996,
      "bolehkah": 3997,
      "hijau": 3998,
      "Alat": 3999,
      "Alihkan": 4000,
      "panah": 4001,
      "unggung": 4002,
      "maknanya": 4003,
      "kemur": 4004,
      "tenaga": 4005,
      "menyaksi": 4006,
      "Perancis": 4007,
      "tahil": 4008,
      "bilan": 4009,
      "batas": 4010,
      "batalkan": 4011,
      "menjadilah": 4012,
      "waji": 4013,
      "atasnya": 4014,
      "Tetingkap": 4015,
      "bakaran": 4016,
      "sekalipun": 4017,
      "toran": 4018,
      "siapakah": 4019,
      "jamin": 4020,
      "tentukan": 4021,
      "sahabat": 4022,
      "sayangkan": 4023,
      "Bantuan": 4024,
      "Mudah": 4025,
      "latihan": 4026,
      "Jaga": 4027,
      "Semak": 4028,
      "Tentang": 4029,
      "pesta": 4030,
      "Helo": 4031,
      "anggota": 4032,
      "kawal": 4033,
      "menyam": 4034,
      "menyampa": 4035,
      "hakim": 4036,
      "Melihat": 4037,
      "menutup": 4038,
      "type": 4039,
      "syaitan": 4040,
      "cerob": 4041,
      "Bunyi": 4042,
      "bebaskan": 4043,
      "menghapuskan": 4044,
      "Ahli": 4045,
      "Mesti": 4046,
      "jemput": 4047,
      "menyentuh": 4048,
      "Angkat": 4049,
      "Format": 4050,
      "berikutnya": 4051,
      "Kolonel": 4052,
      "Tinggalkan": 4053,
      "normal": 4054,
      "tandingan": 4055,
      "keturunan": 4056,
      "tongkat": 4057,
      "GNOME": 4058,
      "mengenainya": 4059,
      "Kereta": 4060,
      "Waktu": 4061,
      "world": 4062,
      "menyakitkan": 4063,
      "Victor": 4064,
      "memikul": 4065,
      "menyeksa": 4066,
      "23": 4067,
      "AS": 4068,
      "Ab": 4069,
      "At": 4070,
      "Bay": 4071,
      "Bul": 4072,
      "Bodoh": 4073,
      "Ca": 4074,
      "Cas": 4075,
      "Chi": 4076,
      "Chan": 4077,
      "Cina": 4078,
      "Gra": 4079,
      "Hah": 4080,
      "Hol": 4081,
      "ML": 4082,
      "Mahu": 4083,
      "Nyah": 4084,
      "ON": 4085,
      "OR": 4086,
      "PN": 4087,
      "Pang": 4088,
      "Pin": 4089,
      "Seh": 4090,
      "Sungguh": 4091,
      "Star": 4092,
      "TV": 4093,
      "Tam": 4094,
      "Tahu": 4095,
      "Win": 4096,
      "Yahudi": 4097,
      "ach": 4098,
      "ddy": 4099,
      "ey": 4100,
      "eta": 4101,
      "galah": 4102,
      "hawa": 4103,
      "idi": 4104,
      "laki": 4105,
      "now": 4106,
      "ohan": 4107,
      "yinya": 4108,
      "yata": 4109,
      "anmu": 4110,
      "erta": 4111,
      "aruh": 4112,
      "argumen": 4113,
      "amo": 4114,
      "diperintahkan": 4115,
      "dada": 4116,
      "bertahun": 4117,
      "bernilai": 4118,
      "bermimpi": 4119,
      "bernafas": 4120,
      "berserah": 4121,
      "bersikap": 4122,
      "keperlu": 4123,
      "kece": 4124,
      "kepal": 4125,
      "ketiga": 4126,
      "kesilapan": 4127,
      "perju": 4128,
      "pertar": 4129,
      "permulaan": 4130,
      "..,..": 4131,
      "ais": 4132,
      "ihal": 4133,
      "ternak": 4134,
      "tertanya": 4135,
      "ilik": 4136,
      "patung": 4137,
      "mengum": 4138,
      "mengajar": 4139,
      "menghubungi": 4140,
      "mengerikan": 4141,
      "duanya": 4142,
      "melem": 4143,
      "katanya": 4144,
      "bebasan": 4145,
      "pit": 4146,
      "pisah": 4147,
      "istan": 4148,
      "tekanan": 4149,
      "tetamu": 4150,
      "atim": 4151,
      "jikan": 4152,
      "erim": 4153,
      "belih": 4154,
      "penjahat": 4155,
      "kema": 4156,
      "menyi": 4157,
      "menyokong": 4158,
      "selatan": 4159,
      "petang": 4160,
      "cium": 4161,
      "penges": 4162,
      "pertim": 4163,
      "rew": 4164,
      "darinya": 4165,
      "datangnya": 4166,
      "Bertahan": 4167,
      "Mac": 4168,
      "pemimpin": 4169,
      "anakku": 4170,
      "medan": 4171,
      "Selama": 4172,
      "palsu": 4173,
      "Teruk": 4174,
      "bakal": 4175,
      "lihatkan": 4176,
      "membuatnya": 4177,
      "rugi": 4178,
      "laman": 4179,
      "minyak": 4180,
      "masalahnya": 4181,
      "kecemasan": 4182,
      "katakanlah": 4183,
      "sedikitpun": 4184,
      "Master": 4185,
      "jayaan": 4186,
      "teknologi": 4187,
      "rasakan": 4188,
      "ico": 4189,
      "Semasa": 4190,
      "menyerah": 4191,
      "menyeronokkan": 4192,
      "mendengarnya": 4193,
      "Chris": 4194,
      "ancarkan": 4195,
      "tandas": 4196,
      "ghaib": 4197,
      "kalahkan": 4198,
      "Thea": 4199,
      "Lima": 4200,
      "file": 4201,
      "Jeneral": 4202,
      "Jumlah": 4203,
      "alihkan": 4204,
      "deraan": 4205,
      "hadir": 4206,
      "desktop": 4207,
      "izinan": 4208,
      "Que": 4209,
      "Batal": 4210,
      "Tajuk": 4211,
      "Lagipun": 4212,
      "Aplikasi": 4213,
      "Scot": 4214,
      "Negara": 4215,
      "korban": 4216,
      "jawapan": 4217,
      "Tangkap": 4218,
      "trans": 4219,
      "sepenuhnya": 4220,
      "berbual": 4221,
      "jijikkan": 4222,
      "mematuhi": 4223,
      "isterinya": 4224,
      "menjelaskan": 4225,
      "mengalir": 4226,
      "menyampaikan": 4227,
      "Aras": 4228,
      "Arab": 4229,
      "Bahkan": 4230,
      "Cat": 4231,
      "Dam": 4232,
      "Ditu": 4233,
      "FI": 4234,
      "Fel": 4235,
      "Gor": 4236,
      "HT": 4237,
      "Huraian": 4238,
      "Log": 4239,
      "Lupakan": 4240,
      "MS": 4241,
      "Mur": 4242,
      "Malah": 4243,
      "Mmm": 4244,
      "Pre": 4245,
      "Periksa": 4246,
      "RA": 4247,
      "Ron": 4248,
      "Raj": 4249,
      "Rob": 4250,
      "Sis": 4251,
      "TU": 4252,
      "Tali": 4253,
      "Wat": 4254,
      "You": 4255,
      "bayaran": 4256,
      "cy": 4257,
      "cok": 4258,
      "cinya": 4259,
      "ction": 4260,
      "ds": 4261,
      "dong": 4262,
      "dgn": 4263,
      "editor": 4264,
      "furan": 4265,
      "gg": 4266,
      "hmm": 4267,
      "jalah": 4268,
      "kakan": 4269,
      "king": 4270,
      "kung": 4271,
      "lorong": 4272,
      "nal": 4273,
      "otak": 4274,
      "pemu": 4275,
      "plat": 4276,
      "puhkan": 4277,
      "planet": 4278,
      "rail": 4279,
      "ubatan": 4280,
      "vir": 4281,
      "wakan": 4282,
      "yatim": 4283,
      "zz": 4284,
      "zil": 4285,
      "ancam": 4286,
      "dik": 4287,
      "dil": 4288,
      "diu": 4289,
      "dise": 4290,
      "ditambah": 4291,
      "sehari": 4292,
      "setahun": 4293,
      "sejauh": 4294,
      "separuh": 4295,
      "pad": 4296,
      "pasi": 4297,
      "daerah": 4298,
      "mence": 4299,
      "menerim": 4300,
      "bersiap": 4301,
      "berbanding": 4302,
      "berhala": 4303,
      "bertaubat": 4304,
      "bertuah": 4305,
      "titi": 4306,
      "kedalam": 4307,
      "kekasih": 4308,
      "kesus": 4309,
      "kejayaan": 4310,
      "perlahan": 4311,
      "awam": 4312,
      "awasi": 4313,
      "ingga": 4314,
      "tersembunyi": 4315,
      "terperangkap": 4316,
      "terminal": 4317,
      "orangnya": 4318,
      "sudut": 4319,
      "ill": 4320,
      "ilang": 4321,
      "aukan": 4322,
      "mengharapkan": 4323,
      "mengarut": 4324,
      "usan": 4325,
      "denganku": 4326,
      "sikan": 4327,
      "sisa": 4328,
      "sialan": 4329,
      "biji": 4330,
      "bisan": 4331,
      "biru": 4332,
      "putar": 4333,
      "Daniel": 4334,
      "lear": 4335,
      "bekerjasama": 4336,
      "telur": 4337,
      "teka": 4338,
      "tetapan": 4339,
      "kerusi": 4340,
      "penolong": 4341,
      "penjaga": 4342,
      "pencuri": 4343,
      "ith": 4344,
      "unggal": 4345,
      "maklum": 4346,
      "kelajuan": 4347,
      "tenter": 4348,
      "menyakiti": 4349,
      "omi": 4350,
      "dewa": 4351,
      "pengen": 4352,
      "pengurus": 4353,
      "ular": 4354,
      "bangsa": 4355,
      "pelanggan": 4356,
      "lanjut": 4357,
      "guam": 4358,
      "meranc": 4359,
      "semes": 4360,
      "sempadan": 4361,
      "cks": 4362,
      "hubung": 4363,
      "abaikan": 4364,
      "bunga": 4365,
      "Lebar": 4366,
      "Penge": 4367,
      "Amaran": 4368,
      "topi": 4369,
      "Sesiapa": 4370,
      "Kalaulah": 4371,
      "minat": 4372,
      "Tuanku": 4373,
      "keretapi": 4374,
      "gelin": 4375,
      "kopi": 4376,
      "demikianlah": 4377,
      "Benarkan": 4378,
      "Saat": 4379,
      "lindungi": 4380,
      "fikasi": 4381,
      "menyeru": 4382,
      "Detektif": 4383,
      "Hijau": 4384,
      "leher": 4385,
      "menyelesai": 4386,
      "Tengah": 4387,
      "jarak": 4388,
      "sembahan": 4389,
      "Profes": 4390,
      "kekufuran": 4391,
      "Mike": 4392,
      "off": 4393,
      "putuskan": 4394,
      "Kiri": 4395,
      "hatinya": 4396,
      "tunduk": 4397,
      "Tandatangan": 4398,
      "Jerman": 4399,
      "menyukai": 4400,
      "units": 4401,
      "hormatan": 4402,
      "menyenangkan": 4403,
      "pemberian": 4404,
      "sengaja": 4405,
      "haramkan": 4406,
      "menikmati": 4407,
      "Skrin": 4408,
      "URI": 4409,
      "maksimum": 4410,
      "kemampuan": 4411,
      "bangkitkan": 4412,
      "Akaun": 4413,
      "menyaksikan": 4414,
      "amount": 4415,
      "kesusahan": 4416,
      "Bak": 4417,
      "Besar": 4418,
      "CJ": 4419,
      "Chu": 4420,
      "DN": 4421,
      "DU": 4422,
      "Garis": 4423,
      "GIM": 4424,
      "It": 4425,
      "Ide": 4426,
      "Kak": 4427,
      "Kini": 4428,
      "Lon": 4429,
      "Lord": 4430,
      "Mata": 4431,
      "PE": 4432,
      "Pau": 4433,
      "Peg": 4434,
      "Rus": 4435,
      "Rusia": 4436,
      "SL": 4437,
      "Sol": 4438,
      "Sarah": 4439,
      "TA": 4440,
      "Tn": 4441,
      "Tai": 4442,
      "Tau": 4443,
      "Um": 4444,
      "Whi": 4445,
      "\\\\": 4446,
      "bor": 4447,
      "bjek": 4448,
      "capai": 4449,
      "dingin": 4450,
      "etik": 4451,
      "gara": 4452,
      "hina": 4453,
      "ikuti": 4454,
      "jahan": 4455,
      "khas": 4456,
      "mai": 4457,
      "map": 4458,
      "nel": 4459,
      "oke": 4460,
      "py": 4461,
      "pohon": 4462,
      "slot": 4463,
      "tle": 4464,
      "than": 4465,
      "umum": 4466,
      "vil": 4467,
      "walah": 4468,
      "xico": 4469,
      "yn": 4470,
      "akunya": 4471,
      "atuhkan": 4472,
      "arti": 4473,
      "amkan": 4474,
      "dire": 4475,
      "dihantar": 4476,
      "ditembak": 4477,
      "ditutup": 4478,
      "sepu": 4479,
      "seluar": 4480,
      "sepuluh": 4481,
      "payah": 4482,
      "tupan": 4483,
      "day": 4484,
      "sap": 4485,
      "elit": 4486,
      "mendarat": 4487,
      "berasa": 4488,
      "bersel": 4489,
      "bertambah": 4490,
      "berpikir": 4491,
      "bergantung": 4492,
      "kesini": 4493,
      "kebun": 4494,
      "keses": 4495,
      "keberani": 4496,
      "keadilan": 4497,
      "peringkat": 4498,
      "pertandingan": 4499,
      "dakwa": 4500,
      "awar": 4501,
      "gik": 4502,
      "bualan": 4503,
      "lahir": 4504,
      "memus": 4505,
      "membah": 4506,
      "memindah": 4507,
      "membersihkan": 4508,
      "terse": 4509,
      "terlebih": 4510,
      "terfikir": 4511,
      "terangkan": 4512,
      "tertarik": 4513,
      "terbakar": 4514,
      "babi": 4515,
      "menghentikan": 4516,
      "menganggap": 4517,
      "mengadakan": 4518,
      "untuknya": 4519,
      "majlis": 4520,
      "...,": 4521,
      "sip": 4522,
      "lucu": 4523,
      "tahuinya": 4524,
      "bidang": 4525,
      "birakan": 4526,
      "melapor": 4527,
      "niat": 4528,
      "besi": 4529,
      "Segala": 4530,
      "teger": 4531,
      "masak": 4532,
      "penu": 4533,
      "penapis": 4534,
      "seni": 4535,
      "ombang": 4536,
      "rac": 4537,
      "tahap": 4538,
      "lidah": 4539,
      "Kepada": 4540,
      "Keselamatan": 4541,
      "seru": 4542,
      "cakapkan": 4543,
      "lancar": 4544,
      "pemer": 4545,
      "hey": 4546,
      "jalannya": 4547,
      "meros": 4548,
      "meja": 4549,
      "derakan": 4550,
      "mendapati": 4551,
      "mendapatkannya": 4552,
      "Tetap": 4553,
      "menca": 4554,
      "Mendengar": 4555,
      "Menteri": 4556,
      "Supaya": 4557,
      "Lepas": 4558,
      "age": 4559,
      "agama": 4560,
      "bala": 4561,
      "ejek": 4562,
      "akaun": 4563,
      "ganang": 4564,
      "cubaan": 4565,
      "mesyuarat": 4566,
      "belakangan": 4567,
      "gerakkan": 4568,
      "sampaikan": 4569,
      "Mula": 4570,
      "menjerit": 4571,
      "Mark": 4572,
      "basah": 4573,
      "kenalkan": 4574,
      "box": 4575,
      "penuhi": 4576,
      "mulia": 4577,
      "Mexico": 4578,
      "dekati": 4579,
      "Baguslah": 4580,
      "lembu": 4581,
      "Sher": 4582,
      "pusingan": 4583,
      "penyem": 4584,
      "menyembunyikan": 4585,
      "saluran": 4586,
      "siapkan": 4587,
      "Aksara": 4588,
      "Manusia": 4589,
      "Johnny": 4590,
      "menganiaya": 4591,
      "Gunakan": 4592,
      "pangkat": 4593,
      "kacang": 4594,
      "memandang": 4595,
      "Lokasi": 4596,
      "fokus": 4597,
      "mengerti": 4598,
      "laporkan": 4599,
      "izinkan": 4600,
      "Kadang": 4601,
      "Steve": 4602,
      "sinar": 4603,
      "wira": 4604,
      "orea": 4605,
      "bulkan": 4606,
      "Green": 4607,
      "mengesan": 4608,
      "rahmatNya": 4609,
      "hospital": 4610,
      "Evolution": 4611,
      "Tindakan": 4612,
      "mengakui": 4613,
      "rapat": 4614,
      "ketahuilah": 4615,
      "sempatan": 4616,
      "Ciri": 4617,
      "Michael": 4618,
      "mengingati": 4619,
      "wahyukan": 4620,
      "Akhirnya": 4621,
      "Kalendar": 4622,
      "lapisan": 4623,
      "iblis": 4624,
      "menawarkan": 4625,
      "keperluan": 4626,
      "Sistem": 4627,
      "menerimanya": 4628,
      "menyelesaikan": 4629,
      "GIMP": 4630,
      "',": 4631,
      ")?\"": 4632,
      "500": 4633,
      "60": 4634,
      "Amat": 4635,
      "Bia": 4636,
      "Blu": 4637,
      "But": 4638,
      "Baha": 4639,
      "Blok": 4640,
      "Cen": 4641,
      "Cara": 4642,
      "Dad": 4643,
      "Gam": 4644,
      "Gab": 4645,
      "Goo": 4646,
      "Halaman": 4647,
      "II": 4648,
      "Iz": 4649,
      "Isa": 4650,
      "Jor": 4651,
      "Jelas": 4652,
      "Jarak": 4653,
      "Jake": 4654,
      "Kong": 4655,
      "Lang": 4656,
      "Len": 4657,
      "Lar": 4658,
      "Lad": 4659,
      "My": 4660,
      "Minta": 4661,
      "Ooh": 4662,
      "Rah": 4663,
      "TP": 4664,
      "Utara": 4665,
      "Yakah": 4666,
      "aaf": 4667,
      "cor": 4668,
      "dl": 4669,
      "gum": 4670,
      "gasan": 4671,
      "gasi": 4672,
      "guru": 4673,
      "huh": 4674,
      "iti": 4675,
      "isasi": 4676,
      "jun": 4677,
      "jis": 4678,
      "kre": 4679,
      "llah": 4680,
      "mara": 4681,
      "ng": 4682,
      "oi": 4683,
      "pri": 4684,
      "pre": 4685,
      "punggung": 4686,
      "rem": 4687,
      "raya": 4688,
      "spek": 4689,
      "tra": 4690,
      "ulu": 4691,
      "upaya": 4692,
      "via": 4693,
      "yo": 4694,
      "yle": 4695,
      "anan": 4696,
      "angku": 4697,
      "inter": 4698,
      "dibawa": 4699,
      "diubah": 4700,
      "dijang": 4701,
      "seburuk": 4702,
      "kandungan": 4703,
      "kain": 4704,
      "kagum": 4705,
      "menjauh": 4706,
      "menjijikkan": 4707,
      "beram": 4708,
      "berhi": 4709,
      "berlalu": 4710,
      "beruang": 4711,
      "berhasil": 4712,
      "berkesan": 4713,
      "berbicara": 4714,
      "bertukar": 4715,
      "berkongsi": 4716,
      "bernasib": 4717,
      "berhutang": 4718,
      "kese": 4719,
      "keuntung": 4720,
      "ketawa": 4721,
      "kebebasan": 4722,
      "taga": 4723,
      "perut": 4724,
      "organ": 4725,
      "awas": 4726,
      "awalan": 4727,
      "buran": 4728,
      "kamah": 4729,
      "kisan": 4730,
      "lapar": 4731,
      "lapangan": 4732,
      "terbesar": 4733,
      "terlihat": 4734,
      "jay": 4735,
      "dalikan": 4736,
      "menghar": 4737,
      "menghidupkan": 4738,
      "menghancurkan": 4739,
      "dul": 4740,
      "risiko": 4741,
      "biu": 4742,
      "puji": 4743,
      "melahirkan": 4744,
      "nikal": 4745,
      "kera": 4746,
      "kertas": 4747,
      "penipu": 4748,
      "baring": 4749,
      "kele": 4750,
      "manis": 4751,
      "mander": 4752,
      "uklear": 4753,
      "dirikan": 4754,
      "peguam": 4755,
      "pakar": 4756,
      "Perlu": 4757,
      "Perempuan": 4758,
      "liam": 4759,
      "kenderaan": 4760,
      "rey": 4761,
      "gunanya": 4762,
      "darjah": 4763,
      "lainnya": 4764,
      "Max": 4765,
      "pemain": 4766,
      "pemandu": 4767,
      "gua": 4768,
      "eko": 4769,
      "ekst": 4770,
      "mera": 4771,
      "merasakan": 4772,
      "hidupnya": 4773,
      "naga": 4774,
      "husus": 4775,
      "masuklah": 4776,
      "Selatan": 4777,
      "binasaan": 4778,
      "lock": 4779,
      "ajarkan": 4780,
      "Sialan": 4781,
      "pintar": 4782,
      "pinjam": 4783,
      "cher": 4784,
      "percayalah": 4785,
      "keredaan": 4786,
      "Pemain": 4787,
      "mengetahuinya": 4788,
      "mengenali": 4789,
      "carian": 4790,
      "Barat": 4791,
      "kumpul": 4792,
      "viti": 4793,
      "latih": 4794,
      "rakaman": 4795,
      "Marty": 4796,
      "that": 4797,
      "mengira": 4798,
      "Israil": 4799,
      "menyebut": 4800,
      "menyediakan": 4801,
      "option": 4802,
      "Robert": 4803,
      "marilah": 4804,
      "memerintah": 4805,
      "indahan": 4806,
      "bimbit": 4807,
      "mampat": 4808,
      "impian": 4809,
      "cincin": 4810,
      "menukar": 4811,
      "pengepala": 4812,
      "salin": 4813,
      "sarang": 4814,
      "hero": 4815,
      "caranya": 4816,
      "Turunkan": 4817,
      "Katalaluan": 4818,
      "lash": 4819,
      "nota": 4820,
      "kolam": 4821,
      "ward": 4822,
      "memasuki": 4823,
      "lenyap": 4824,
      "bijaksana": 4825,
      "desak": 4826,
      "Kanan": 4827,
      "usahakan": 4828,
      "Eddie": 4829,
      "Jerry": 4830,
      "Will": 4831,
      "William": 4832,
      "Cakera": 4833,
      "gigit": 4834,
      "Versi": 4835,
      "membawanya": 4836,
      "ahiran": 4837,
      "Esok": 4838,
      "Sumber": 4839,
      "menelefon": 4840,
      "menaiki": 4841,
      "pintasan": 4842,
      "Memuatkan": 4843,
      "Wanita": 4844,
      "London": 4845,
      "Pegawai": 4846,
      "kesesatan": 4847,
      "\";": 4848,
      "\"...": 4849,
      "/%": 4850,
      "Az": 4851,
      "Arah": 4852,
      "Gaya": 4853,
      "HE": 4854,
      "Kas": 4855,
      "Kawasan": 4856,
      "KDE": 4857,
      "Korea": 4858,
      "Lak": 4859,
      "Lin": 4860,
      "MA": 4861,
      "Mis": 4862,
      "Mul": 4863,
      "Nas": 4864,
      "Nuh": 4865,
      "Om": 4866,
      "Pes": 4867,
      "Phil": 4868,
      "Putar": 4869,
      "Ru": 4870,
      "Rakan": 4871,
      "Radi": 4872,
      "Sah": 4873,
      "Sin": 4874,
      "Spi": 4875,
      "Ty": 4876,
      "Tanya": 4877,
      "Temu": 4878,
      "UN": 4879,
      "US": 4880,
      "Vide": 4881,
      "Wi": 4882,
      "bong": 4883,
      "ceng": 4884,
      "cut": 4885,
      "cita": 4886,
      "foto": 4887,
      "jol": 4888,
      "lni": 4889,
      "mail": 4890,
      "nat": 4891,
      "nuklear": 4892,
      "plu": 4893,
      "pos": 4894,
      "pres": 4895,
      "ril": 4896,
      "syak": 4897,
      "tunjuk": 4898,
      "trek": 4899,
      "tolak": 4900,
      "wanya": 4901,
      "wood": 4902,
      "erti": 4903,
      "aru": 4904,
      "ameter": 4905,
      "intip": 4906,
      "integer": 4907,
      "diminta": 4908,
      "diluar": 4909,
      "disebut": 4910,
      "diserang": 4911,
      "dimatikan": 4912,
      "dikurniakan": 4913,
      "sememang": 4914,
      "sekumpulan": 4915,
      "sedap": 4916,
      "unting": 4917,
      "sajalah": 4918,
      "eld": 4919,
      "meni": 4920,
      "mencu": 4921,
      "mende": 4922,
      "meningkat": 4923,
      "beralih": 4924,
      "berdusta": 4925,
      "berseronok": 4926,
      "berbohong": 4927,
      "berdukacita": 4928,
      "kee": 4929,
      "keji": 4930,
      "kesana": 4931,
      "keingin": 4932,
      "kejar": 4933,
      "keping": 4934,
      "kesempatan": 4935,
      "kebinasaan": 4936,
      "tawan": 4937,
      "perak": 4938,
      "percuma": 4939,
      "permohon": 4940,
      "aiban": 4941,
      "asy": 4942,
      "asatan": 4943,
      "kucing": 4944,
      "busan": 4945,
      "lahirkan": 4946,
      "kambing": 4947,
      "lapan": 4948,
      "memori": 4949,
      "memburu": 4950,
      "memalukan": 4951,
      "terselamat": 4952,
      "terputus": 4953,
      "uhid": 4954,
      "susu": 4955,
      "suri": 4956,
      "apang": 4957,
      "sijil": 4958,
      "ric": 4959,
      "bicar": 4960,
      "puk": 4961,
      "puannya": 4962,
      "meli": 4963,
      "lebar": 4964,
      "letupan": 4965,
      "piri": 4966,
      "pisau": 4967,
      "uman": 4968,
      "umpang": 4969,
      "Sekurang": 4970,
      "Sepertinya": 4971,
      "tetikus": 4972,
      "uth": 4973,
      "itz": 4974,
      "Kamilah": 4975,
      "barkan": 4976,
      "menyus": 4977,
      "diriku": 4978,
      "buntu": 4979,
      "harganya": 4980,
      "Perang": 4981,
      "import": 4982,
      "liar": 4983,
      "kenyata": 4984,
      "reak": 4985,
      "real": 4986,
      "tanaman": 4987,
      "datangi": 4988,
      "ataupun": 4989,
      "Bersedia": 4990,
      "cakera": 4991,
      "rani": 4992,
      "cederakan": 4993,
      "pembawa": 4994,
      "oth": 4995,
      "lalui": 4996,
      "Makkah": 4997,
      "nabi": 4998,
      "berlari": 4999,
      "ingatkanlah": 5000,
      "hiraukan": 5001,
      "besaran": 5002,
      "salahkan": 5003,
      "mencer": 5004,
      "Menye": 5005,
      "ajaiban": 5006,
      "begitulah": 5007,
      "hampiri": 5008,
      "rupanya": 5009,
      "tampak": 5010,
      "Membunuh": 5011,
      "arahkan": 5012,
      "stesen": 5013,
      "percayaan": 5014,
      "nyanyi": 5015,
      "rampas": 5016,
      "disitu": 5017,
      "sediaan": 5018,
      "seks": 5019,
      "seksi": 5020,
      "temuan": 5021,
      "gelapan": 5022,
      "gemuk": 5023,
      "Rasulu": 5024,
      "Muat": 5025,
      "tahankan": 5026,
      "menanggung": 5027,
      "hotel": 5028,
      "jaket": 5029,
      "mengirim": 5030,
      "amalnya": 5031,
      "Puteri": 5032,
      "memperbaiki": 5033,
      "Roy": 5034,
      "rindukan": 5035,
      "kasar": 5036,
      "memerhati": 5037,
      "perisian": 5038,
      "Shh": 5039,
      "Shaw": 5040,
      "kebenarannya": 5041,
      "andakan": 5042,
      "Dave": 5043,
      "Kotak": 5044,
      "Juga": 5045,
      "kolum": 5046,
      "warga": 5047,
      "memasuk": 5048,
      "larangan": 5049,
      "sembunyikan": 5050,
      "Bahasa": 5051,
      "mahal": 5052,
      "mahkamah": 5053,
      "nafsu": 5054,
      "setengahnya": 5055,
      "Jesus": 5056,
      "Canon": 5057,
      "Canada": 5058,
      "Stefan": 5059,
      "ponen": 5060,
      "Gerak": 5061,
      "Gerakkan": 5062,
      "Pusat": 5063,
      "Minum": 5064,
      "ringkas": 5065,
      "tembok": 5066,
      "kelakar": 5067,
      "membela": 5068,
      "kejutan": 5069,
      "bertaruh": 5070,
      "bertarung": 5071,
      "melukis": 5072,
      "akibatnya": 5073,
      "melampaui": 5074,
      "penerbangan": 5075,
      "membacanya": 5076,
      "Perhatian": 5077,
      "Kosongkan": 5078,
      "melebihi": 5079,
      "mengatasi": 5080,
      "kecewa": 5081,
      "kepalanya": 5082,
      "pertarungan": 5083,
      "pertimbangkan": 5084,
      "Queen": 5085,
      "virus": 5086,
      "ancaman": 5087,
      "paderi": 5088,
      "gelintar": 5089,
      "keberanian": 5090,
      "Biasa": 5091,
      "keuntungan": 5092,
      "Video": 5093,
      "sememangnya": 5094,
      "Rasulullah": 5095,
      "Aw": 5096,
      "Bis": 5097,
      "Cur": 5098,
      "Cali": 5099,
      "Cis": 5100,
      "Corak": 5101,
      "DI": 5102,
      "Dy": 5103,
      "Doktor": 5104,
      "Datuk": 5105,
      "Eh": 5106,
      "Eks": 5107,
      "Fungsi": 5108,
      "Fred": 5109,
      "Flash": 5110,
      "Gi": 5111,
      "Gol": 5112,
      "Got": 5113,
      "Ganti": 5114,
      "Jem": 5115,
      "Jas": 5116,
      "Jaw": 5117,
      "Kris": 5118,
      "Klik": 5119,
      "Luar": 5120,
      "Lori": 5121,
      "Mulakan": 5122,
      "Nat": 5123,
      "OT": 5124,
      "Ow": 5125,
      "Operasi": 5126,
      "Por": 5127,
      "Papa": 5128,
      "Para": 5129,
      "Pihak": 5130,
      "Rak": 5131,
      "Res": 5132,
      "Son": 5133,
      "Stan": 5134,
      "Sha": 5135,
      "Spar": 5136,
      "TS": 5137,
      "TER": 5138,
      "VPN": 5139,
      "Ze": 5140,
      "[-": 5141,
      "`%": 5142,
      "acu": 5143,
      "aca": 5144,
      "cit": 5145,
      "ctor": 5146,
      "ese": 5147,
      "fasik": 5148,
      "gra": 5149,
      "god": 5150,
      "hapuskan": 5151,
      "ilah": 5152,
      "ion": 5153,
      "ikat": 5154,
      "kont": 5155,
      "meri": 5156,
      "parkan": 5157,
      "spa": 5158,
      "stan": 5159,
      "syi": 5160,
      "taku": 5161,
      "tradi": 5162,
      "tunggal": 5163,
      "uah": 5164,
      "uja": 5165,
      "utusan": 5166,
      "wini": 5167,
      "zo": 5168,
      "anjang": 5169,
      "entah": 5170,
      "arinya": 5171,
      "alk": 5172,
      "alatan": 5173,
      "divi": 5174,
      "dicipta": 5175,
      "disembah": 5176,
      "dimulakan": 5177,
      "dimasukkan": 5178,
      "dijangka": 5179,
      "dijumpai": 5180,
      "dilaksanakan": 5181,
      "dikembalikan": 5182,
      "dipenuhi": 5183,
      "sekadar": 5184,
      "pagar": 5185,
      "pasir": 5186,
      "kabur": 5187,
      "saf": 5188,
      "saan": 5189,
      "berundur": 5190,
      "berharga": 5191,
      "berbincang": 5192,
      "beredar": 5193,
      "berehat": 5194,
      "tianak": 5195,
      "tiket": 5196,
      "kewaji": 5197,
      "keajaiban": 5198,
      "kepercayaan": 5199,
      "kegelapan": 5200,
      "tapak": 5201,
      "perasan": 5202,
      "persembahan": 5203,
      "aiman": 5204,
      "asli": 5205,
      "awati": 5206,
      "ola": 5207,
      "ole": 5208,
      "olusi": 5209,
      "ayam": 5210,
      "lau": 5211,
      "memapar": 5212,
      "memimpin": 5213,
      "terpilih": 5214,
      "tertinggi": 5215,
      "terbit": 5216,
      "terletak": 5217,
      "terluka": 5218,
      "ona": 5219,
      "ons": 5220,
      "suju": 5221,
      "jadual": 5222,
      "tidakkah": 5223,
      "bad": 5224,
      "dengaran": 5225,
      "adaan": 5226,
      "menghi": 5227,
      "menggantikan": 5228,
      "ust": 5229,
      "juara": 5230,
      "sitif": 5231,
      "lukisan": 5232,
      "Akulah": 5233,
      "gaji": 5234,
      "alik": 5235,
      "melarang": 5236,
      "melancarkan": 5237,
      "piala": 5238,
      "berilah": 5239,
      "tebusan": 5240,
      "kering": 5241,
      "bela": 5242,
      "belan": 5243,
      "pendek": 5244,
      "pencerob": 5245,
      "karan": 5246,
      "ikop": 5247,
      "ayo": 5248,
      "And": 5249,
      "Perkara": 5250,
      "seorangan": 5251,
      "pengu": 5252,
      "penggera": 5253,
      "Kedua": 5254,
      "Kecer": 5255,
      "Keadaan": 5256,
      "kencing": 5257,
      "batang": 5258,
      "Direktori": 5259,
      "Bukannya": 5260,
      "pember": 5261,
      "kapkan": 5262,
      "gerun": 5263,
      "meru": 5264,
      "merompak": 5265,
      "media": 5266,
      "hujah": 5267,
      "besok": 5268,
      "Seluruh": 5269,
      "sambung": 5270,
      "hajat": 5271,
      "habisan": 5272,
      "low": 5273,
      "Kenalan": 5274,
      "ajah": 5275,
      "sertai": 5276,
      "kuncinya": 5277,
      "ejen": 5278,
      "Penu": 5279,
      "cadangkan": 5280,
      "pertanya": 5281,
      "Sijil": 5282,
      "topeng": 5283,
      "chel": 5284,
      "taman": 5285,
      "kenaan": 5286,
      "Kelajuan": 5287,
      "sesiapapun": 5288,
      "seksyen": 5289,
      "temujanji": 5290,
      "rahsi": 5291,
      "gelang": 5292,
      "gelombang": 5293,
      "Namun": 5294,
      "purnakan": 5295,
      "Berita": 5296,
      "hantaran": 5297,
      "mengambilnya": 5298,
      "teknikal": 5299,
      "takutkan": 5300,
      "malang": 5301,
      "politik": 5302,
      "ther": 5303,
      "line": 5304,
      "fizik": 5305,
      "Dewa": 5306,
      "Pukul": 5307,
      "Roman": 5308,
      "Keluarga": 5309,
      "ciptaan": 5310,
      "ancar": 5311,
      "Maksudku": 5312,
      "penjel": 5313,
      "Shel": 5314,
      "hasut": 5315,
      "menyala": 5316,
      "menguji": 5317,
      "hambaKu": 5318,
      "salji": 5319,
      "sarapan": 5320,
      "ney": 5321,
      "posisi": 5322,
      "ingkaran": 5323,
      "laknat": 5324,
      "Kate": 5325,
      "buhkan": 5326,
      "hairan": 5327,
      "Selesai": 5328,
      "binaan": 5329,
      "iputi": 5330,
      "Status": 5331,
      "Telah": 5332,
      "Astaga": 5333,
      "Tahun": 5334,
      "lengan": 5335,
      "derhana": 5336,
      "Begitulah": 5337,
      "pengikutnya": 5338,
      "Hotel": 5339,
      "aktifkan": 5340,
      "sulit": 5341,
      "bacakan": 5342,
      "Empat": 5343,
      "menegakkan": 5344,
      "Karena": 5345,
      "Auto": 5346,
      "Bawah": 5347,
      "tokol": 5348,
      "stabil": 5349,
      "bergabung": 5350,
      "Boss": 5351,
      "Rangkaian": 5352,
      "membantah": 5353,
      "Sehingga": 5354,
      "perjuangan": 5355,
      "Scott": 5356,
      "merancang": 5357,
      "Profesor": 5358,
      "jahanam": 5359,
      "maisuri": 5360,
      "Bahagian": 5361,
      "Izinkan": 5362,
      "ekodan": 5363,
      "bicarakan": 5364,
      "sujud": 5365,
      "ikopter": 5366,
      ",\"": 5367,
      "17": 5368,
      "22": 5369,
      "75": 5370,
      "90": 5371,
      "Ad": 5372,
      "Cap": 5373,
      "Cantik": 5374,
      "Das": 5375,
      "ES": 5376,
      "Enam": 5377,
      "Emil": 5378,
      "Editor": 5379,
      "Ethan": 5380,
      "Fe": 5381,
      "Fal": 5382,
      "Franc": 5383,
      "GP": 5384,
      "Gran": 5385,
      "Hit": 5386,
      "Hapuskan": 5387,
      "IP": 5388,
      "IX": 5389,
      "Ikon": 5390,
      "Korang": 5391,
      "Kad": 5392,
      "Lem": 5393,
      "MB": 5394,
      "Mum": 5395,
      "Minggu": 5396,
      "Na": 5397,
      "Ner": 5398,
      "Pul": 5399,
      "Potong": 5400,
      "Rasa": 5401,
      "S_": 5402,
      "Sau": 5403,
      "Sus": 5404,
      "Spe": 5405,
      "Shan": 5406,
      "She": 5407,
      "Sch": 5408,
      "Tun": 5409,
      "Tro": 5410,
      "Tulis": 5411,
      "Vin": 5412,
      "Val": 5413,
      "Vir": 5414,
      "Veg": 5415,
      "Wa": 5416,
      "Wah": 5417,
      "Wang": 5418,
      "Was": 5419,
      "adanya": 5420,
      "bs": 5421,
      "bakan": 5422,
      "ces": 5423,
      "dra": 5424,
      "ever": 5425,
      "fuk": 5426,
      "gakan": 5427,
      "gaku": 5428,
      "ima": 5429,
      "iden": 5430,
      "jel": 5431,
      "krip": 5432,
      "khusus": 5433,
      "malah": 5434,
      "misteri": 5435,
      "ns": 5436,
      "okan": 5437,
      "psi": 5438,
      "pok": 5439,
      "pra": 5440,
      "presiden": 5441,
      "rk": 5442,
      "ray": 5443,
      "ss": 5444,
      "shi": 5445,
      "ud": 5446,
      "ual": 5447,
      "upah": 5448,
      "utuskan": 5449,
      "volum": 5450,
      "walau": 5451,
      "akar": 5452,
      "akhi": 5453,
      "ero": 5454,
      "yarak": 5455,
      "alihat": 5456,
      "dibawah": 5457,
      "dibiarkan": 5458,
      "dipadam": 5459,
      "dijadikan": 5460,
      "dibuang": 5461,
      "dibinasakan": 5462,
      "dikeluarkan": 5463,
      "dipasang": 5464,
      "dihormati": 5465,
      "ditentukan": 5466,
      "diharamkan": 5467,
      "dibangkitkan": 5468,
      "sed": 5469,
      "seting": 5470,
      "sekatan": 5471,
      "padang": 5472,
      "say": 5473,
      "mendalam": 5474,
      "menjumpai": 5475,
      "mendekati": 5476,
      "bers": 5477,
      "berjaga": 5478,
      "bersungguh": 5479,
      "bersenang": 5480,
      "berhadapan": 5481,
      "bersetuju": 5482,
      "berbilang": 5483,
      "tian": 5484,
      "timur": 5485,
      "kek": 5486,
      "keber": 5487,
      "kehendak": 5488,
      "kesayang": 5489,
      "kegem": 5490,
      "kekaya": 5491,
      "keizinan": 5492,
      "tajuk": 5493,
      "tajam": 5494,
      "perihal": 5495,
      "perubatan": 5496,
      "ory": 5497,
      "orban": 5498,
      "aster": 5499,
      "kuran": 5500,
      "gir": 5501,
      "gili": 5502,
      "butan": 5503,
      "oli": 5504,
      "akulah": 5505,
      "memin": 5506,
      "memotong": 5507,
      "ereja": 5508,
      "terasa": 5509,
      "tertinggal": 5510,
      "tertulis": 5511,
      "teruja": 5512,
      "uhu": 5513,
      "tukang": 5514,
      "tukaran": 5515,
      "aplet": 5516,
      "auto": 5517,
      "audio": 5518,
      "menggem": 5519,
      "menghendaki": 5520,
      "mengajak": 5521,
      "menghilangkan": 5522,
      "usir": 5523,
      "urah": 5524,
      "urai": 5525,
      "urut": 5526,
      "uruhan": 5527,
      "...!": 5528,
      "jutan": 5529,
      "sifikasi": 5530,
      "lutut": 5531,
      "tahulah": 5532,
      "dahsy": 5533,
      "rick": 5534,
      "melupakan": 5535,
      "meliputi": 5536,
      "katalaluan": 5537,
      "hidung": 5538,
      "pis": 5539,
      "umb": 5540,
      "Sej": 5541,
      "beribadat": 5542,
      "isihan": 5543,
      "benih": 5544,
      "sinilah": 5545,
      "penyang": 5546,
      "penye": 5547,
      "itor": 5548,
      "barangan": 5549,
      "makmal": 5550,
      "banduan": 5551,
      "oksi": 5552,
      "baikinya": 5553,
      "kemew": 5554,
      "kemulia": 5555,
      "senyap": 5556,
      "senapang": 5557,
      "manapun": 5558,
      "Tidaklah": 5559,
      "menyuruh": 5560,
      "seluruhan": 5561,
      "pakcik": 5562,
      "omatik": 5563,
      "Perkataan": 5564,
      "pengsan": 5565,
      "pengalaman": 5566,
      "pengganas": 5567,
      "Key": 5568,
      "batkan": 5569,
      "daratan": 5570,
      "serahkan": 5571,
      "keluarganya": 5572,
      "cek": 5573,
      "pelajaran": 5574,
      "pelindung": 5575,
      "Buangkan": 5576,
      "lantik": 5577,
      "pemilik": 5578,
      "want": 5579,
      "kapten": 5580,
      "merta": 5581,
      "Makcik": 5582,
      "met": 5583,
      "tempatan": 5584,
      "najis": 5585,
      "berlatih": 5586,
      "berlakunya": 5587,
      "hubungkan": 5588,
      "hatiku": 5589,
      "egak": 5590,
      "ayahku": 5591,
      "betulkan": 5592,
      "sambungkan": 5593,
      "love": 5594,
      "mencarinya": 5595,
      "tahunya": 5596,
      "Menu": 5597,
      "ajal": 5598,
      "ajari": 5599,
      "lihatan": 5600,
      "Lee": 5601,
      "Leon": 5602,
      "Lekas": 5603,
      "hentikannya": 5604,
      "kuning": 5605,
      "Penapis": 5606,
      "Penges": 5607,
      "pertun": 5608,
      "jambatan": 5609,
      "Inter": 5610,
      "str": 5611,
      "ston": 5612,
      "nyatakan": 5613,
      "sahkan": 5614,
      "kayu": 5615,
      "uruskannya": 5616,
      "Sambung": 5617,
      "Kerajaan": 5618,
      "gelar": 5619,
      "Pembunuh": 5620,
      "mengejut": 5621,
      "Bani": 5622,
      "Bank": 5623,
      "teknik": 5624,
      "Pasang": 5625,
      "Pesuruh": 5626,
      "how": 5627,
      "pesakit": 5628,
      "owong": 5629,
      "menyerahkan": 5630,
      "Default": 5631,
      "memperoleh": 5632,
      "forec": 5633,
      "Pelihat": 5634,
      "menyalin": 5635,
      "taip": 5636,
      "memutuskan": 5637,
      "gesa": 5638,
      "satelit": 5639,
      "bisnes": 5640,
      "genda": 5641,
      "pustaka": 5642,
      "rekod": 5643,
      "Masuklah": 5644,
      "jarang": 5645,
      "pinggang": 5646,
      "Aksi": 5647,
      "ulangi": 5648,
      "Katanya": 5649,
      "Panjang": 5650,
      "lasik": 5651,
      "maut": 5652,
      "Daripada": 5653,
      "meneruskan": 5654,
      "penggunaan": 5655,
      "sekutukan": 5656,
      "ject": 5657,
      "mendustakannya": 5658,
      "memaksa": 5659,
      "menyesatkan": 5660,
      "Edward": 5661,
      "Merlyn": 5662,
      "dihkan": 5663,
      "bertaqwalah": 5664,
      "mengesahkan": 5665,
      "Iblis": 5666,
      "bingung": 5667,
      "mengejek": 5668,
      "kemaskini": 5669,
      "Sarjan": 5670,
      "angkasa": 5671,
      "Geor": 5672,
      "Konfigurasi": 5673,
      "Web": 5674,
      "Jane": 5675,
      "takdirkan": 5676,
      "Bobby": 5677,
      "rompakan": 5678,
      "Latar": 5679,
      "Sulaiman": 5680,
      "Guy": 5681,
      "berkelakuan": 5682,
      "output": 5683,
      "rumit": 5684,
      "fucking": 5685,
      "teguh": 5686,
      "Sasaran": 5687,
      "mangsa": 5688,
      "Paparan": 5689,
      "kemurkaan": 5690,
      "Pangkalan": 5691,
      "HTML": 5692,
      "Murph": 5693,
      "DUA": 5694,
      "Kakak": 5695,
      "Pautan": 5696,
      "Taurat": 5697,
      "ville": 5698,
      "melaporkan": 5699,
      "merosakkan": 5700,
      "Daddy": 5701,
      "dlm": 5702,
      "keesaan": 5703,
      "keinginan": 5704,
      "asyik": 5705,
      "syirik": 5706,
      "dividu": 5707,
      "pemberon": 5708,
      "yarakat": 5709,
      "kemewahan": 5710,
      "forecast": 5711,
      "\":": 5712,
      "()": 5713,
      "02": 5714,
      "800": 5715,
      "Abaikan": 5716,
      "Awas": 5717,
      "BE": 5718,
      "Bere": 5719,
      "Bing": 5720,
      "Batu": 5721,
      "Bom": 5722,
      "Bran": 5723,
      "Cha": 5724,
      "DV": 5725,
      "Dom": 5726,
      "Dra": 5727,
      "Ele": 5728,
      "Fon": 5729,
      "Fre": 5730,
      "Fikirkan": 5731,
      "GB": 5732,
      "Gal": 5733,
      "God": 5734,
      "Grid": 5735,
      "H00": 5736,
      "Habi": 5737,
      "Had": 5738,
      "How": 5739,
      "IA": 5740,
      "Item": 5741,
      "Itali": 5742,
      "Jatuhkan": 5743,
      "KE": 5744,
      "Kim": 5745,
      "Krab": 5746,
      "Lil": 5747,
      "Mun": 5748,
      "Mil": 5749,
      "Mama": 5750,
      "May": 5751,
      "Not": 5752,
      "Objek": 5753,
      "Pot": 5754,
      "PAT": 5755,
      "Rap": 5756,
      "Rom": 5757,
      "Sta": 5758,
      "Sain": 5759,
      "Tangan": 5760,
      "Tho": 5761,
      "Van": 5762,
      "Won": 5763,
      "bon": 5764,
      "baki": 5765,
      "cal": 5766,
      "cawan": 5767,
      "capan": 5768,
      "crip": 5769,
      "corak": 5770,
      "cH00": 5771,
      "dor": 5772,
      "dom": 5773,
      "gat": 5774,
      "garisan": 5775,
      "gereja": 5776,
      "hara": 5777,
      "ius": 5778,
      "ice": 5779,
      "ipuan": 5780,
      "kang": 5781,
      "kri": 5782,
      "know": 5783,
      "lakan": 5784,
      "lai": 5785,
      "lim": 5786,
      "lori": 5787,
      "mor": 5788,
      "pari": 5789,
      "pahan": 5790,
      "ror": 5791,
      "rai": 5792,
      "shal": 5793,
      "skema": 5794,
      "this": 5795,
      "val": 5796,
      "vor": 5797,
      "who": 5798,
      "wayar": 5799,
      "word": 5800,
      "yen": 5801,
      "yung": 5802,
      "{\\": 5803,
      "anu": 5804,
      "akti": 5805,
      "akon": 5806,
      "erasi": 5807,
      "atribut": 5808,
      "are": 5809,
      "aras": 5810,
      "inat": 5811,
      "almari": 5812,
      "disa": 5813,
      "dimu": 5814,
      "ditempat": 5815,
      "diberitahu": 5816,
      "diatas": 5817,
      "dimakan": 5818,
      "diaman": 5819,
      "dihidupkan": 5820,
      "sesi": 5821,
      "sebulan": 5822,
      "sederhana": 5823,
      "kanya": 5824,
      "tugasan": 5825,
      "embak": 5826,
      "menderhaka": 5827,
      "mentadbir": 5828,
      "berg": 5829,
      "berang": 5830,
      "beras": 5831,
      "berham": 5832,
      "bertujuan": 5833,
      "berenang": 5834,
      "berminat": 5835,
      "berkumpul": 5836,
      "berkenaan": 5837,
      "kegan": 5838,
      "keaman": 5839,
      "kehabisan": 5840,
      "keseluruhan": 5841,
      "tain": 5842,
      "tauhid": 5843,
      "peratus": 5844,
      "perbualan": 5845,
      "persediaan": 5846,
      "kulan": 5847,
      "kubur": 5848,
      "git": 5849,
      "butuh": 5850,
      "old": 5851,
      "kipun": 5852,
      "kitan": 5853,
      "lap": 5854,
      "membesar": 5855,
      "membakar": 5856,
      "memaaf": 5857,
      "terbaru": 5858,
      "ternyata": 5859,
      "terkini": 5860,
      "terlupa": 5861,
      "sual": 5862,
      "takat": 5863,
      "apung": 5864,
      "ilangan": 5865,
      "patuh": 5866,
      "mengah": 5867,
      "mengada": 5868,
      "mengurus": 5869,
      "menghilang": 5870,
      "menghukum": 5871,
      "menghormati": 5872,
      "mengawasi": 5873,
      "madu": 5874,
      "dupan": 5875,
      "lulus": 5876,
      "melup": 5877,
      "melawat": 5878,
      "melompat": 5879,
      "bez": 5880,
      "bekalan": 5881,
      "hie": 5882,
      "umkan": 5883,
      "Apapun": 5884,
      "Sek": 5885,
      "Sebelah": 5886,
      "Sepatutnya": 5887,
      "Sekatan": 5888,
      "Sepuluh": 5889,
      "Seterusnya": 5890,
      "Sekiranya": 5891,
      "Sebentar": 5892,
      "teling": 5893,
      "teliti": 5894,
      "ish": 5895,
      "isahkan": 5896,
      "Allen": 5897,
      "tegas": 5898,
      "teori": 5899,
      "atikan": 5900,
      "pandu": 5901,
      "penderita": 5902,
      "penjenayah": 5903,
      "penawar": 5904,
      "karena": 5905,
      "barat": 5906,
      "kemari": 5907,
      "galkan": 5908,
      "amatlah": 5909,
      "pakkan": 5910,
      "Anjing": 5911,
      "Peranti": 5912,
      "detik": 5913,
      "pengem": 5914,
      "Kekal": 5915,
      "Kebanyakan": 5916,
      "roh": 5917,
      "Baca": 5918,
      "Berhati": 5919,
      "rantai": 5920,
      "cewakan": 5921,
      "bagimu": 5922,
      "pelihara": 5923,
      "peman": 5924,
      "akikat": 5925,
      "ost": 5926,
      "jalani": 5927,
      "eksi": 5928,
      "ody": 5929,
      "langgar": 5930,
      "besarkan": 5931,
      "ayahnya": 5932,
      "Selalu": 5933,
      "sampel": 5934,
      "samping": 5935,
      "binc": 5936,
      "diantara": 5937,
      "asiat": 5938,
      "Suatu": 5939,
      "mainkan": 5940,
      "gunaan": 5941,
      "tenggel": 5942,
      "halal": 5943,
      "pahlawan": 5944,
      "Semula": 5945,
      "cacat": 5946,
      "pindahkan": 5947,
      "Mempunyai": 5948,
      "sahabatan": 5949,
      "balikkan": 5950,
      "gelas": 5951,
      "Pemilihan": 5952,
      "Namanya": 5953,
      "simpati": 5954,
      "profe": 5955,
      "melepasi": 5956,
      "mustahil": 5957,
      "buruknya": 5958,
      "Peti": 5959,
      "hour": 5960,
      "Bentuk": 5961,
      "Kuat": 5962,
      "mengim": 5963,
      "Duit": 5964,
      "field": 5965,
      "Isteri": 5966,
      "yahpepijat": 5967,
      "Yesus": 5968,
      "kirkan": 5969,
      "Dean": 5970,
      "Tema": 5971,
      "Putih": 5972,
      "mempertahankan": 5973,
      "Mesir": 5974,
      "Chat": 5975,
      "tengoklah": 5976,
      "Kemari": 5977,
      "Kemana": 5978,
      "gedit": 5979,
      "Mele": 5980,
      "mudahan": 5981,
      "suspek": 5982,
      "ratus": 5983,
      "kiraan": 5984,
      "Serangan": 5985,
      "penyokong": 5986,
      "menyembelih": 5987,
      "jatuhkan": 5988,
      "dinding": 5989,
      "list": 5990,
      "pentingan": 5991,
      "idget": 5992,
      "jingan": 5993,
      "Doc": 5994,
      "Hendak": 5995,
      "pinggir": 5996,
      "Aktif": 5997,
      "memilik": 5998,
      "Luke": 5999,
      "Pakcik": 6000,
      "lass": 6001,
      "milikku": 6002,
      "milikmu": 6003,
      "memasang": 6004,
      "memerlukannya": 6005,
      "Saluran": 6006,
      "larang": 6007,
      "web": 6008,
      "mode": 6009,
      "sukakannya": 6010,
      "hasilkan": 6011,
      "State": 6012,
      "Malangnya": 6013,
      "Tambahan": 6014,
      "Jean": 6015,
      "pria": 6016,
      "rown": 6017,
      "dihapuskan": 6018,
      "Monyet": 6019,
      "Wells": 6020,
      "Pusing": 6021,
      "Rick": 6022,
      "penyelamat": 6023,
      "penyelesai": 6024,
      "Model": 6025,
      "menikah": 6026,
      "URL": 6027,
      "McC": 6028,
      "Matikan": 6029,
      "silakan": 6030,
      "tawarkan": 6031,
      "tawaran": 6032,
      "huruf": 6033,
      "ucapkan": 6034,
      "Paling": 6035,
      "Serius": 6036,
      "jalang": 6037,
      "khidmatan": 6038,
      "Caroline": 6039,
      "cemburu": 6040,
      "Fuck": 6041,
      "klip": 6042,
      "istana": 6043,
      "saudaranya": 6044,
      "bersamanya": 6045,
      "menyentuhnya": 6046,
      "Grace": 6047,
      "Pintu": 6048,
      "menyiasat": 6049,
      "semestinya": 6050,
      "sepupu": 6051,
      "memusnahkan": 6052,
      "membahayakan": 6053,
      "Jordan": 6054,
      "ekstrak": 6055,
      "Spider": 6056,
      "kenyataan": 6057,
      "kewajipan": 6058,
      "pertanyaan": 6059,
      "Dasar": 6060,
      "kekayaan": 6061,
      "penyangak": 6062,
      "Berehat": 6063,
      "Habis": 6064,
      "cH00FFFF": 6065,
      "mentadbirkan": 6066,
      "berhampiran": 6067,
      "keamanan": 6068,
      "profesional": 6069,
      ".)": 6070,
      "16": 6071,
      "AC": 6072,
      "AI": 6073,
      "AK": 6074,
      "Api": 6075,
      "Buk": 6076,
      "Bru": 6077,
      "Bren": 6078,
      "Balik": 6079,
      "CE": 6080,
      "DO": 6081,
      "Dal": 6082,
      "Dil": 6083,
      "Dit": 6084,
      "Erik": 6085,
      "Fikir": 6086,
      "GI": 6087,
      "Gas": 6088,
      "Gru": 6089,
      "Hat": 6090,
      "Hung": 6091,
      "Isi": 6092,
      "Jal": 6093,
      "Jai": 6094,
      "Jag": 6095,
      "Juru": 6096,
      "Kod": 6097,
      "Kawalan": 6098,
      "LO": 6099,
      "Ly": 6100,
      "Lor": 6101,
      "Law": 6102,
      "Lama": 6103,
      "Long": 6104,
      "Mulia": 6105,
      "Naz": 6106,
      "Naga": 6107,
      "Py": 6108,
      "Pah": 6109,
      "Pulang": 6110,
      "Paul": 6111,
      "RO": 6112,
      "Rek": 6113,
      "SU": 6114,
      "Sp": 6115,
      "Sten": 6116,
      "Sambil": 6117,
      "Sab": 6118,
      "Sop": 6119,
      "Suruh": 6120,
      "SSL": 6121,
      "TK": 6122,
      "Ton": 6123,
      "Tham": 6124,
      "Trek": 6125,
      "Tony": 6126,
      "Volum": 6127,
      "Wes": 6128,
      "What": 6129,
      "Wood": 6130,
      "West": 6131,
      "cus": 6132,
      "chan": 6133,
      "cair": 6134,
      "cket": 6135,
      "ev": 6136,
      "ez": 6137,
      "ecah": 6138,
      "ejaan": 6139,
      "gt": 6140,
      "ggi": 6141,
      "got": 6142,
      "gne": 6143,
      "grid": 6144,
      "graf": 6145,
      "hakikat": 6146,
      "ian": 6147,
      "idupan": 6148,
      "jana": 6149,
      "jrah": 6150,
      "korang": 6151,
      "kok": 6152,
      "kmat": 6153,
      "kot": 6154,
      "krim": 6155,
      "kpd": 6156,
      "ls": 6157,
      "lel": 6158,
      "lon": 6159,
      "lompat": 6160,
      "mba": 6161,
      "mont": 6162,
      "ois": 6163,
      "ple": 6164,
      "puran": 6165,
      "ria": 6166,
      "ringan": 6167,
      "sti": 6168,
      "sanya": 6169,
      "salam": 6170,
      "saham": 6171,
      "tarian": 6172,
      "♪♪": 6173,
      "akh": 6174,
      "enjin": 6175,
      "ary": 6176,
      "aruhi": 6177,
      "amin": 6178,
      "ampas": 6179,
      "int": 6180,
      "insaf": 6181,
      "individu": 6182,
      "didi": 6183,
      "disi": 6184,
      "dili": 6185,
      "dition": 6186,
      "dibaca": 6187,
      "dihentikan": 6188,
      "dibina": 6189,
      "dijalankan": 6190,
      "ditulis": 6191,
      "dianggap": 6192,
      "dikalahkan": 6193,
      "dilahirkan": 6194,
      "didatangi": 6195,
      "sey": 6196,
      "selagi": 6197,
      "sesekali": 6198,
      "sewaktu": 6199,
      "seberat": 6200,
      "sebegini": 6201,
      "seumur": 6202,
      "kanmu": 6203,
      "papar": 6204,
      "dapur": 6205,
      "kabin": 6206,
      "sain": 6207,
      "eluar": 6208,
      "menja": 6209,
      "menempat": 6210,
      "berse": 6211,
      "berpu": 6212,
      "bersatu": 6213,
      "berkawan": 6214,
      "berterus": 6215,
      "bertin": 6216,
      "berputus": 6217,
      "berpesan": 6218,
      "berakal": 6219,
      "berasal": 6220,
      "berangi": 6221,
      "berpegang": 6222,
      "beruntung": 6223,
      "berlumba": 6224,
      "berlian": 6225,
      "berbisik": 6226,
      "berbakat": 6227,
      "berniat": 6228,
      "bersinar": 6229,
      "kesak": 6230,
      "kekur": 6231,
      "keyakin": 6232,
      "kekalah": 6233,
      "kezali": 6234,
      "kegunaan": 6235,
      "kepentingan": 6236,
      "tag": 6237,
      "perkem": 6238,
      "perlawan": 6239,
      "pertemuan": 6240,
      "persahabatan": 6241,
      "engkel": 6242,
      "enggu": 6243,
      "engkapan": 6244,
      "daki": 6245,
      "ait": 6246,
      "kualiti": 6247,
      "sayap": 6248,
      "budi": 6249,
      "kiti": 6250,
      "lautan": 6251,
      "lazat": 6252,
      "memakan": 6253,
      "memikir": 6254,
      "memainkan": 6255,
      "membenci": 6256,
      "membebaskan": 6257,
      "ihar": 6258,
      "ingini": 6259,
      "ters": 6260,
      "terkunci": 6261,
      "terkena": 6262,
      "tertidur": 6263,
      "tersimpan": 6264,
      "tersenyum": 6265,
      "suar": 6266,
      "super": 6267,
      "suaikan": 6268,
      "sukatan": 6269,
      "ungkapkan": 6270,
      "tidaknya": 6271,
      "kamulah": 6272,
      "muti": 6273,
      "takri": 6274,
      "baga": 6275,
      "bajikan": 6276,
      "aparkan": 6277,
      "mengingatkan": 6278,
      "mengajarkan": 6279,
      "menghampiri": 6280,
      "user": 6281,
      "usnah": 6282,
      "urkan": 6283,
      "siaran": 6284,
      "siasat": 6285,
      "dahnya": 6286,
      "riat": 6287,
      "rist": 6288,
      "gaun": 6289,
      "bie": 6290,
      "araja": 6291,
      "pukan": 6292,
      "puteri": 6293,
      "meleng": 6294,
      "melinta": 6295,
      "melangkah": 6296,
      "Danny": 6297,
      "hio": 6298,
      "pik": 6299,
      "pian": 6300,
      "baharu": 6301,
      "Sebaik": 6302,
      "tele": 6303,
      "isy": 6304,
      "masyarakat": 6305,
      "waktunya": 6306,
      "pany": 6307,
      "penat": 6308,
      "penam": 6309,
      "penyi": 6310,
      "penipuan": 6311,
      "karut": 6312,
      "utamakan": 6313,
      "Tim": 6314,
      "Timur": 6315,
      "kembang": 6316,
      "ikh": 6317,
      "cup": 6318,
      "cuci": 6319,
      "mani": 6320,
      "manfaat": 6321,
      "perlumba": 6322,
      "pecat": 6323,
      "pejuang": 6324,
      "omet": 6325,
      "Ander": 6326,
      "Angel": 6327,
      "Andy": 6328,
      "cian": 6329,
      "tingkah": 6330,
      "pengaruh": 6331,
      "penghormatan": 6332,
      "penglihatan": 6333,
      "lic": 6334,
      "satuan": 6335,
      "Kevin": 6336,
      "matanya": 6337,
      "repu": 6338,
      "reet": 6339,
      "root": 6340,
      "mahukannya": 6341,
      "Badan": 6342,
      "afikan": 6343,
      "sering": 6344,
      "keluargaku": 6345,
      "pelanc": 6346,
      "pelajari": 6347,
      "ohol": 6348,
      "gugur": 6349,
      "sesuatupun": 6350,
      "megah": 6351,
      "derma": 6352,
      "semoga": 6353,
      "sembilan": 6354,
      "egori": 6355,
      "burkan": 6356,
      "betulan": 6357,
      "Tujuh": 6358,
      "Ted": 6359,
      "Terminal": 6360,
      "dianiaya": 6361,
      "Menakjubkan": 6362,
      "Menurut": 6363,
      "Sub": 6364,
      "ajaib": 6365,
      "Pengen": 6366,
      "cadangan": 6367,
      "tool": 6368,
      "ubahsuai": 6369,
      "siapapun": 6370,
      "rujuk": 6371,
      "Meman": 6372,
      "bawakan": 6373,
      "lampiran": 6374,
      "sejen": 6375,
      "tanganmu": 6376,
      "kalendar": 6377,
      "gelisah": 6378,
      "kemudahan": 6379,
      "Pemurah": 6380,
      "angkanlah": 6381,
      "profil": 6382,
      "Selamatkan": 6383,
      "bumian": 6384,
      "musnah": 6385,
      "rakam": 6386,
      "teksi": 6387,
      "----": 6388,
      "kurung": 6389,
      "Marino": 6390,
      "sopan": 6391,
      "Jabatan": 6392,
      "saatnya": 6393,
      "Sembunyikan": 6394,
      "Harap": 6395,
      "animasi": 6396,
      "Senang": 6397,
      "peserta": 6398,
      "book": 6399,
      "board": 6400,
      "ower": 6401,
      "ugh": 6402,
      "Pulau": 6403,
      "memperkatakan": 6404,
      "Robin": 6405,
      "perintahNya": 6406,
      "memerangi": 6407,
      "form": 6408,
      "Kematian": 6409,
      "vey": 6410,
      "menyalah": 6411,
      "memuat": 6412,
      "yakinkan": 6413,
      "Melainkan": 6414,
      "mengutus": 6415,
      "mengucap": 6416,
      "rate": 6417,
      "Syariat": 6418,
      "simpanan": 6419,
      "tugasnya": 6420,
      "menyempurnakan": 6421,
      "komponen": 6422,
      "tron": 6423,
      "comel": 6424,
      "card": 6425,
      "syarat": 6426,
      "poket": 6427,
      "Doug": 6428,
      "Henti": 6429,
      "Billy": 6430,
      "colm": 6431,
      "Panel": 6432,
      "Pakai": 6433,
      "Pakistan": 6434,
      "menemuinya": 6435,
      "Komander": 6436,
      "tumbuh": 6437,
      "tambahan": 6438,
      "menerus": 6439,
      "Jubin": 6440,
      "hadiran": 6441,
      "menetap": 6442,
      "memasak": 6443,
      "memastikan": 6444,
      "Bunyinya": 6445,
      "sekutuan": 6446,
      "Charles": 6447,
      "mengembirakan": 6448,
      "ruangkerja": 6449,
      "Malcolm": 6450,
      "condition": 6451,
      "menyimpannya": 6452,
      "Soalan": 6453,
      "South": 6454,
      "sempurnakan": 6455,
      "quer": 6456,
      "menghina": 6457,
      "perhatikan": 6458,
      "biarlah": 6459,
      "kekuasaanNya": 6460,
      "faedahnya": 6461,
      "abuhan": 6462,
      "eloknya": 6463,
      "Label": 6464,
      "tribut": 6465,
      "monitor": 6466,
      "timbul": 6467,
      "Sky": 6468,
      "memeluk": 6469,
      "khianati": 6470,
      "bahagiaan": 6471,
      "Whoo": 6472,
      "Patrick": 6473,
      "Ramai": 6474,
      "simbolik": 6475,
      "Kehidupan": 6476,
      "Audio": 6477,
      "petir": 6478,
      "kurniaNya": 6479,
      "Brazil": 6480,
      "Laurel": 6481,
      "Tommy": 6482,
      "bumbung": 6483,
      "Entahlah": 6484,
      "merendah": 6485,
      "kacauan": 6486,
      "Cincin": 6487,
      "melimpahkan": 6488,
      "Jones": 6489,
      "Ryan": 6490,
      "upacara": 6491,
      "mengunci": 6492,
      "memikulnya": 6493,
      "mengumpulkan": 6494,
      "pengesahan": 6495,
      "Prebiu": 6496,
      "Talian": 6497,
      "coklat": 6498,
      "Sherman": 6499,
      "Rahsia": 6500,
      "berhijrah": 6501,
      "menghargai": 6502,
      "kelebih": 6503,
      "meragu": 6504,
      "Mulai": 6505,
      "Nasrani": 6506,
      "Radio": 6507,
      "plugin": 6508,
      "permohonan": 6509,
      "menyusahkan": 6510,
      "memerhatikan": 6511,
      "Cisco": 6512,
      "Dylan": 6513,
      "Eksport": 6514,
      "penjelasan": 6515,
      "Neraka": 6516,
      "identiti": 6517,
      "kegemaran": 6518,
      "giliran": 6519,
      "Pesuruhjaya": 6520,
      "George": 6521,
      "DVD": 6522,
      "Thomas": 6523,
      "cription": 6524,
      "keganasan": 6525,
      "melupakannya": 6526,
      "penderitaan": 6527,
      "menyembelihnya": 6528,
      "Hendaklah": 6529,
      "kesakitan": 6530,
      "kekurangan": 6531,
      "kezaliman": 6532,
      "perlawanan": 6533,
      "perlumbaan": 6534,
      "\"!": 6535,
      "'?": 6536,
      "**": 6537,
      "//": 6538,
      "0x": 6539,
      "29": 6540,
      "250": 6541,
      "32": 6542,
      "300": 6543,
      "600": 6544,
      "==": 6545,
      "Aah": 6546,
      "Ani": 6547,
      "Atribut": 6548,
      "Butang": 6549,
      "Brown": 6550,
      "CA": 6551,
      "CO": 6552,
      "Cy": 6553,
      "Cah": 6554,
      "Chen": 6555,
      "Cho": 6556,
      "Contoh": 6557,
      "Darah": 6558,
      "Ek": 6559,
      "Ejen": 6560,
      "Fin": 6561,
      "Fil": 6562,
      "Fir": 6563,
      "Fitz": 6564,
      "Flori": 6565,
      "GTK": 6566,
      "Hak": 6567,
      "Hor": 6568,
      "Has": 6569,
      "Hilang": 6570,
      "Il": 6571,
      "Ikat": 6572,
      "Iris": 6573,
      "Jun": 6574,
      "Jing": 6575,
      "Jay": 6576,
      "Jos": 6577,
      "King": 6578,
      "Kuh": 6579,
      "Kil": 6580,
      "Kli": 6581,
      "Kont": 6582,
      "Mia": 6583,
      "Mau": 6584,
      "Mit": 6585,
      "Mundur": 6586,
      "Mys": 6587,
      "Nyatakan": 6588,
      "Of": 6589,
      "Open": 6590,
      "Out": 6591,
      "P_": 6592,
      "Pur": 6593,
      "Plat": 6594,
      "Paman": 6595,
      "Paris": 6596,
      "Papan": 6597,
      "RE": 6598,
      "Ran": 6599,
      "Run": 6600,
      "Ratu": 6601,
      "Sang": 6602,
      "Song": 6603,
      "Shar": 6604,
      "Salam": 6605,
      "Sand": 6606,
      "Tok": 6607,
      "Tadi": 6608,
      "Tre": 6609,
      "Tahan": 6610,
      "Tunjuk": 6611,
      "Tandakan": 6612,
      "Wol": 6613,
      "Way": 6614,
      "Walau": 6615,
      "XX": 6616,
      "Yalah": 6617,
      "Zo": 6618,
      "_n": 6619,
      "_Simpan": 6620,
      "bri": 6621,
      "bod": 6622,
      "dro": 6623,
      "dorong": 6624,
      "ee": 6625,
      "ece": 6626,
      "fak": 6627,
      "ften": 6628,
      "fre": 6629,
      "flik": 6630,
      "gari": 6631,
      "gradi": 6632,
      "hang": 6633,
      "hem": 6634,
      "hodoh": 6635,
      "iCal": 6636,
      "jer": 6637,
      "jom": 6638,
      "jinya": 6639,
      "jaran": 6640,
      "ky": 6641,
      "klasik": 6642,
      "ln": 6643,
      "lor": 6644,
      "long": 6645,
      "ms": 6646,
      "mia": 6647,
      "mpin": 6648,
      "mrk": 6649,
      "ning": 6650,
      "ov": 6651,
      "osa": 6652,
      "pha": 6653,
      "pamu": 6654,
      "rawak": 6655,
      "rama": 6656,
      "rokok": 6657,
      "rehat": 6658,
      "sun": 6659,
      "star": 6660,
      "ukuran": 6661,
      "vel": 6662,
      "vit": 6663,
      "wasa": 6664,
      "wit": 6665,
      "well": 6666,
      "what": 6667,
      "wasiat": 6668,
      "zon": 6669,
      "zuri": 6670,
      "aknya": 6671,
      "angsa": 6672,
      "encik": 6673,
      "entin": 6674,
      "yar": 6675,
      "arm": 6676,
      "arus": 6677,
      "inap": 6678,
      "alnya": 6679,
      "ditan": 6680,
      "ditugas": 6681,
      "ditinggalkan": 6682,
      "diduga": 6683,
      "diseru": 6684,
      "disampaikan": 6685,
      "ditakdirkan": 6686,
      "dipecat": 6687,
      "sesa": 6688,
      "setempat": 6689,
      "semenj": 6690,
      "sesetengah": 6691,
      "sepertinya": 6692,
      "unik": 6693,
      "undo": 6694,
      "pain": 6695,
      "tuai": 6696,
      "daun": 6697,
      "kaji": 6698,
      "kabel": 6699,
      "kait": 6700,
      "emo": 6701,
      "emon": 6702,
      "emahan": 6703,
      "emput": 6704,
      "saing": 6705,
      "yangi": 6706,
      "menjang": 6707,
      "mencium": 6708,
      "mendirikan": 6709,
      "berlain": 6710,
      "berusia": 6711,
      "bersenjata": 6712,
      "bergembira": 6713,
      "bertugas": 6714,
      "berulang": 6715,
      "berdarah": 6716,
      "berlangsung": 6717,
      "berumur": 6718,
      "bercuti": 6719,
      "bercampur": 6720,
      "berbaring": 6721,
      "tie": 6722,
      "time": 6723,
      "kepunya": 6724,
      "kebal": 6725,
      "ketam": 6726,
      "kebiasa": 6727,
      "kecedera": 6728,
      "kebakaran": 6729,
      "kebijaksana": 6730,
      "kebesaran": 6731,
      "kediaman": 6732,
      "kehadiran": 6733,
      "pertemp": 6734,
      "perinci": 6735,
      "perkenalkan": 6736,
      "peralatan": 6737,
      "permaisuri": 6738,
      "ordin": 6739,
      "asakannya": 6740,
      "kuku": 6741,
      "kura": 6742,
      "kulakukan": 6743,
      "gil": 6744,
      "buhan": 6745,
      "buahan": 6746,
      "bukit": 6747,
      "dana": 6748,
      "kamar": 6749,
      "kil": 6750,
      "kilang": 6751,
      "kimia": 6752,
      "labah": 6753,
      "lainya": 6754,
      "memul": 6755,
      "membangun": 6756,
      "membenarkan": 6757,
      "memecah": 6758,
      "memaparkan": 6759,
      "terben": 6760,
      "terpulang": 6761,
      "tertutup": 6762,
      "terhormat": 6763,
      "tertawa": 6764,
      "onokan": 6765,
      "Sayalah": 6766,
      "suku": 6767,
      "subur": 6768,
      "suaian": 6769,
      "jad": 6770,
      "ungkapan": 6771,
      "mutan": 6772,
      "murid": 6773,
      "takbur": 6774,
      "ausaha": 6775,
      "mengek": 6776,
      "mengag": 6777,
      "menggel": 6778,
      "mengasih": 6779,
      "menginginkan": 6780,
      "mengakses": 6781,
      "menghitung": 6782,
      "untukku": 6783,
      "untukmu": 6784,
      "maju": 6785,
      "magik": 6786,
      "judi": 6787,
      "jualan": 6788,
      "esh": 6789,
      "bik": 6790,
      "putan": 6791,
      "pukulan": 6792,
      "legenda": 6793,
      "beban": 6794,
      "hiasan": 6795,
      "pimpin": 6796,
      "ump": 6797,
      "umpuhkan": 6798,
      "Setuju": 6799,
      "Sesetengah": 6800,
      "Sekejap": 6801,
      "Alfa": 6802,
      "Alangkah": 6803,
      "masakan": 6804,
      "kerjaya": 6805,
      "belikan": 6806,
      "belenggu": 6807,
      "panduan": 6808,
      "penya": 6809,
      "penumpang": 6810,
      "unggang": 6811,
      "Time": 6812,
      "Titik": 6813,
      "makcik": 6814,
      "kembal": 6815,
      "kemarahan": 6816,
      "cucu": 6817,
      "kelabu": 6818,
      "tendang": 6819,
      "perlukannya": 6820,
      "pec": 6821,
      "Peraturan": 6822,
      "Perubahan": 6823,
      "tahi": 6824,
      "debu": 6825,
      "dewasa": 6826,
      "seorangpun": 6827,
      "pengan": 6828,
      "penghujung": 6829,
      "pengkhianat": 6830,
      "penghantaran": 6831,
      "pengaruhi": 6832,
      "bukankah": 6833,
      "Kec": 6834,
      "Kebenar": 6835,
      "matinya": 6836,
      "harimau": 6837,
      "bateri": 6838,
      "ulurkan": 6839,
      "ross": 6840,
      "Dialah": 6841,
      "Bab": 6842,
      "Bayang": 6843,
      "darjat": 6844,
      "Berjaya": 6845,
      "Bermakna": 6846,
      "cetakan": 6847,
      "Main": 6848,
      "Maggi": 6849,
      "bagiku": 6850,
      "Buck": 6851,
      "Buzz": 6852,
      "pembalasan": 6853,
      "pemindahan": 6854,
      "peminat": 6855,
      "osok": 6856,
      "guys": 6857,
      "gerbang": 6858,
      "campuran": 6859,
      "merem": 6860,
      "merbahaya": 6861,
      "Jadikan": 6862,
      "mewujud": 6863,
      "ayahmu": 6864,
      "Mengen": 6865,
      "Betapa": 6866,
      "Adapun": 6867,
      "bakhil": 6868,
      "kasihan": 6869,
      "Mendapatkan": 6870,
      "Super": 6871,
      "Suara": 6872,
      "Sukar": 6873,
      "Sudut": 6874,
      "lihatlah": 6875,
      "Letak": 6876,
      "agam": 6877,
      "halus": 6878,
      "keyboard": 6879,
      "hampa": 6880,
      "sukai": 6881,
      "Penuh": 6882,
      "cabaran": 6883,
      "Amy": 6884,
      "Sif": 6885,
      "Tiap": 6886,
      "Ayahku": 6887,
      "agih": 6888,
      "jahtera": 6889,
      "Inspek": 6890,
      "stat": 6891,
      "tangannya": 6892,
      "temukan": 6893,
      "kodan": 6894,
      "purna": 6895,
      "paru": 6896,
      "Berikut": 6897,
      "ujud": 6898,
      "bawahnya": 6899,
      "ryan": 6900,
      "upahan": 6901,
      "menjel": 6902,
      "menjej": 6903,
      "menjemput": 6904,
      "pulak": 6905,
      "pulasi": 6906,
      "pulihkan": 6907,
      "melew": 6908,
      "Peta": 6909,
      "Pedang": 6910,
      "menurun": 6911,
      "mestilah": 6912,
      "Martin": 6913,
      "Marshal": 6914,
      "Jadual": 6915,
      "Sudahlah": 6916,
      "Sempurna": 6917,
      "Tentera": 6918,
      "thon": 6919,
      "cukuplah": 6920,
      "Dulu": 6921,
      "bour": 6922,
      "Bella": 6923,
      "rence": 6924,
      "Dev": 6925,
      "tasbih": 6926,
      "Mei": 6927,
      "Medan": 6928,
      "High": 6929,
      "dekatan": 6930,
      "ford": 6931,
      "Pelindung": 6932,
      "Kemungkinan": 6933,
      "lembaran": 6934,
      "Arrow": 6935,
      "konflik": 6936,
      "menyayangi": 6937,
      "memujuk": 6938,
      "menurutmu": 6939,
      "mukaan": 6940,
      "rancang": 6941,
      "apart": 6942,
      "muntah": 6943,
      "balasannya": 6944,
      "tinggian": 6945,
      "mampus": 6946,
      "watak": 6947,
      "hambaNya": 6948,
      "Serang": 6949,
      "Serahkan": 6950,
      "Light": 6951,
      "syafaat": 6952,
      "lumpuhkan": 6953,
      "ampunan": 6954,
      "Bilik": 6955,
      "laksana": 6956,
      "buruan": 6957,
      "tish": 6958,
      "restoran": 6959,
      "resolusi": 6960,
      "kolej": 6961,
      "koleksi": 6962,
      "mark": 6963,
      "skrip": 6964,
      "gangguan": 6965,
      "merebak": 6966,
      "botol": 6967,
      "sekian": 6968,
      "conf": 6969,
      "Tambahkan": 6970,
      "helikopter": 6971,
      "England": 6972,
      "Kandungan": 6973,
      "aturkan": 6974,
      "pikirkan": 6975,
      "Count": 6976,
      "usahanya": 6977,
      "Step": 6978,
      "sekitaran": 6979,
      "jemputan": 6980,
      "Walter": 6981,
      "dagangan": 6982,
      "Duduklah": 6983,
      ")!\"": 6984,
      "alls": 6985,
      "bertolak": 6986,
      "memahaminya": 6987,
      "Penyunting": 6988,
      "Kuning": 6989,
      "Rachel": 6990,
      "monyet": 6991,
      "Color": 6992,
      "Disini": 6993,
      "Parameter": 6994,
      "shell": 6995,
      "hitungan": 6996,
      "Tukarnama": 6997,
      "pilan": 6998,
      "menegak": 6999,
      "menegaskan": 7000,
      "Padahal": 7001,
      "membelinya": 7002,
      "199": 7003,
      "ING": 7004,
      "Mustahil": 7005,
      "singa": 7006,
      "Latin": 7007,
      "Alice": 7008,
      "Brook": 7009,
      "unikasi": 7010,
      "wajahnya": 7011,
      "Kehilangan": 7012,
      "British": 7013,
      "Shit": 7014,
      "check": 7015,
      "mengingkari": 7016,
      "Setkan": 7017,
      "Begini": 7018,
      "Beginilah": 7019,
      "CPU": 7020,
      "Makanlah": 7021,
      "menaip": 7022,
      "Masalahnya": 7023,
      "ttp": 7024,
      "bergaduh": 7025,
      "memenuhi": 7026,
      "menanyakan": 7027,
      "bosankan": 7028,
      "Priya": 7029,
      "klien": 7030,
      "menuntut": 7031,
      "TIFF": 7032,
      "cender": 7033,
      "menyambung": 7034,
      "Victoria": 7035,
      "Ditulis": 7036,
      "FILE": 7037,
      "Gordon": 7038,
      "Robot": 7039,
      "diutus": 7040,
      "Russia": 7041,
      "capaian": 7042,
      "pemerin": 7043,
      "Central": 7044,
      "Gambar": 7045,
      "Lady": 7046,
      "dijangkiti": 7047,
      "organisasi": 7048,
      "kerabat": 7049,
      "salinan": 7050,
      "bongkar": 7051,
      "melibatkan": 7052,
      "Jason": 7053,
      "tradisi": 7054,
      "alkohol": 7055,
      "Kecerunan": 7056,
      "Emily": 7057,
      "Hitam": 7058,
      "Troy": 7059,
      "Vegas": 7060,
      "kripsi": 7061,
      "keberatan": 7062,
      "orbanan": 7063,
      "Sejarah": 7064,
      "pertunjukan": 7065,
      "Internet": 7066,
      "Chase": 7067,
      "Potter": 7068,
      "dimuatkan": 7069,
      "mengahwini": 7070,
      "telinga": 7071,
      "memilikinya": 7072,
      "penyelesaian": 7073,
      "Bruce": 7074,
      "menempatkan": 7075,
      "perkembangan": 7076,
      "ikhlas": 7077,
      "Memandangkan": 7078,
      "rategi": 7079,
      "SyariatNya": 7080,
      "Cahaya": 7081,
      "Florida": 7082,
      "Kuharap": 7083,
      "Trevor": 7084,
      "ftenan": 7085,
      "zuriat": 7086,
      "ditugaskan": 7087,
      "semenjak": 7088,
      "berlainan": 7089,
      "kepunyaan": 7090,
      "kebijaksanaan": 7091,
      "pertempuran": 7092,
      "mengasihi": 7093,
      "kembalinya": 7094,
      "Maggie": 7095,
      "!)": 7096,
      "\")": 7097,
      "\"{": 7098,
      "(.": 7099,
      ".?": 7100,
      "150": 7101,
      "21": 7102,
      "2000": 7103,
      "35": 7104,
      "36": 7105,
      "45": 7106,
      "46": 7107,
      "47": 7108,
      "64": 7109,
      "85": 7110,
      "AD": 7111,
      "Agak": 7112,
      "Aduh": 7113,
      "BM": 7114,
      "Bor": 7115,
      "Bung": 7116,
      "Bit": 7117,
      "Boo": 7118,
      "BCJ": 7119,
      "CK": 7120,
      "Coo": 7121,
      "CIA": 7122,
      "Dol": 7123,
      "Dim": 7124,
      "Daf": 7125,
      "Ear": 7126,
      "Esa": 7127,
      "Eric": 7128,
      "FS": 7129,
      "Fa": 7130,
      "Falls": 7131,
      "GD": 7132,
      "Gn": 7133,
      "Gy": 7134,
      "Gus": 7135,
      "GCon": 7136,
      "Hong": 7137,
      "Hadi": 7138,
      "Hos": 7139,
      "Id": 7140,
      "Jah": 7141,
      "Jin": 7142,
      "Jet": 7143,
      "Jej": 7144,
      "Kr": 7145,
      "Kai": 7146,
      "Kaki": 7147,
      "Kanak": 7148,
      "Los": 7149,
      "MO": 7150,
      "Mol": 7151,
      "Mini": 7152,
      "Maya": 7153,
      "Mere": 7154,
      "Meg": 7155,
      "Nar": 7156,
      "Nenek": 7157,
      "Oz": 7158,
      "Pun": 7159,
      "Put": 7160,
      "Pit": 7161,
      "Pod": 7162,
      "Pad": 7163,
      "Prin": 7164,
      "Poo": 7165,
      "PER": 7166,
      "Piawai": 7167,
      "POP": 7168,
      "PIX": 7169,
      "Ring": 7170,
      "Ril": 7171,
      "Ros": 7172,
      "Sm": 7173,
      "Sung": 7174,
      "Sana": 7175,
      "Skala": 7176,
      "Tat": 7177,
      "Tar": 7178,
      "Tor": 7179,
      "Tum": 7180,
      "Tamat": 7181,
      "Than": 7182,
      "Tran": 7183,
      "Tag": 7184,
      "Tangg": 7185,
      "UT": 7186,
      "Ur": 7187,
      "Wor": 7188,
      "Wujud": 7189,
      "Zum": 7190,
      "Zul": 7191,
      "[=": 7192,
      "_r": 7193,
      "_Semua": 7194,
      "bra": 7195,
      "bble": 7196,
      "curan": 7197,
      "dok": 7198,
      "eb": 7199,
      "ef": 7200,
      "edit": 7201,
      "fini": 7202,
      "ful": 7203,
      "gre": 7204,
      "hah": 7205,
      "hap": 7206,
      "heh": 7207,
      "hali": 7208,
      "huraian": 7209,
      "http": 7210,
      "if": 7211,
      "iya": 7212,
      "ium": 7213,
      "ick": 7214,
      "ibadat": 7215,
      "jeri": 7216,
      "km": 7217,
      "laku": 7218,
      "lawak": 7219,
      "lit": 7220,
      "mp": 7221,
      "maya": 7222,
      "mit": 7223,
      "nin": 7224,
      "nod": 7225,
      "pingat": 7226,
      "paham": 7227,
      "pson": 7228,
      "skala": 7229,
      "storan": 7230,
      "tz": 7231,
      "tes": 7232,
      "tatu": 7233,
      "talah": 7234,
      "uz": 7235,
      "uji": 7236,
      "ucapan": 7237,
      "when": 7238,
      "work": 7239,
      "zuran": 7240,
      "zip": 7241,
      "zahirkan": 7242,
      "atap": 7243,
      "aling": 7244,
      "alunya": 7245,
      "dialah": 7246,
      "dist": 7247,
      "dihukum": 7248,
      "diselamatkan": 7249,
      "diciptakan": 7250,
      "dibanding": 7251,
      "dihitung": 7252,
      "dipercayai": 7253,
      "didapati": 7254,
      "digantikan": 7255,
      "dihimpunkan": 7256,
      "dilupakan": 7257,
      "dibatalkan": 7258,
      "dikawal": 7259,
      "diterangkan": 7260,
      "diizinkan": 7261,
      "dibacakan": 7262,
      "disambungkan": 7263,
      "diingini": 7264,
      "dilumpuhkan": 7265,
      "segi": 7266,
      "sepak": 7267,
      "sekerja": 7268,
      "semacam": 7269,
      "sekurang": 7270,
      "ungi": 7271,
      "uncur": 7272,
      "unding": 7273,
      "papa": 7274,
      "ture": 7275,
      "tuduh": 7276,
      "emel": 7277,
      "mensi": 7278,
      "menculik": 7279,
      "mendengarkan": 7280,
      "menaruh": 7281,
      "berc": 7282,
      "bertem": 7283,
      "berbal": 7284,
      "berkeadaan": 7285,
      "berbunyi": 7286,
      "bertiga": 7287,
      "bersara": 7288,
      "beraksi": 7289,
      "berurusan": 7290,
      "berhubungan": 7291,
      "berpakaian": 7292,
      "beroperasi": 7293,
      "berpindah": 7294,
      "berarti": 7295,
      "berpandu": 7296,
      "bertasbih": 7297,
      "tir": 7298,
      "tihar": 7299,
      "title": 7300,
      "kede": 7301,
      "kebang": 7302,
      "kebenci": 7303,
      "keseorangan": 7304,
      "kebajikan": 7305,
      "kebahagiaan": 7306,
      "kekacauan": 7307,
      "ketinggian": 7308,
      "tabi": 7309,
      "peran": 7310,
      "peroleh": 7311,
      "pertahanan": 7312,
      "pertukaran": 7313,
      "persekutuan": 7314,
      "perhiasan": 7315,
      "..\"": 7316,
      "askini": 7317,
      "kutan": 7318,
      "kukatakan": 7319,
      "sayalah": 7320,
      "awatan": 7321,
      "gilan": 7322,
      "bulu": 7323,
      "akuti": 7324,
      "laci": 7325,
      "layah": 7326,
      "lajur": 7327,
      "membentuk": 7328,
      "mempengaruhi": 7329,
      "membosankan": 7330,
      "tern": 7331,
      "tersendiri": 7332,
      "terjatuh": 7333,
      "terburu": 7334,
      "terowong": 7335,
      "oni": 7336,
      "surah": 7337,
      "kamus": 7338,
      "musa": 7339,
      "ahul": 7340,
      "base": 7341,
      "ape": 7342,
      "apkan": 7343,
      "apalah": 7344,
      "diabaikan": 7345,
      "mengingat": 7346,
      "mengha": 7347,
      "menghadap": 7348,
      "menguruskan": 7349,
      "mengangkat": 7350,
      "menghasut": 7351,
      "menghentikannya": 7352,
      "mengutamakan": 7353,
      "mengkhianati": 7354,
      "ura": 7355,
      "side": 7356,
      "siasatan": 7357,
      "dariku": 7358,
      "luman": 7359,
      "lukis": 7360,
      "rie": 7361,
      "right": 7362,
      "gagah": 7363,
      "puti": 7364,
      "bolehan": 7365,
      "melang": 7366,
      "melayan": 7367,
      "katil": 7368,
      "lekap": 7369,
      "lekas": 7370,
      "bet": 7371,
      "hisap": 7372,
      "hikmat": 7373,
      "pic": 7374,
      "aikkan": 7375,
      "Seti": 7376,
      "Seting": 7377,
      "Sebahagian": 7378,
      "Seolah": 7379,
      "Segalanya": 7380,
      "Setidaknya": 7381,
      "Sepany": 7382,
      "dapatkannya": 7383,
      "asap": 7384,
      "tewas": 7385,
      "bendera": 7386,
      "puntianak": 7387,
      "kerangka": 7388,
      "keranjang": 7389,
      "eric": 7390,
      "wakili": 7391,
      "buatlah": 7392,
      "penanda": 7393,
      "penyam": 7394,
      "penagih": 7395,
      "Tiba": 7396,
      "tema": 7397,
      "kemer": 7398,
      "kemahiran": 7399,
      "sensitif": 7400,
      "kelab": 7401,
      "keledar": 7402,
      "tentangan": 7403,
      "tentunya": 7404,
      "manual": 7405,
      "nakal": 7406,
      "perlulah": 7407,
      "pasar": 7408,
      "pasaran": 7409,
      "pastinya": 7410,
      "pakatan": 7411,
      "hard": 7412,
      "date": 7413,
      "Perkahwinan": 7414,
      "ded": 7415,
      "imbas": 7416,
      "cikut": 7417,
      "pengganti": 7418,
      "pengajaran": 7419,
      "pengekodan": 7420,
      "bilion": 7421,
      "bukanya": 7422,
      "licin": 7423,
      "Kejadian": 7424,
      "Kebelakangan": 7425,
      "lebihan": 7426,
      "kins": 7427,
      "batasan": 7428,
      "uld": 7429,
      "ulangan": 7430,
      "ulatih": 7431,
      "Takkanlah": 7432,
      "roti": 7433,
      "menjadikannya": 7434,
      "Baby": 7435,
      "bangsat": 7436,
      "Berus": 7437,
      "Berdiri": 7438,
      "Berjalan": 7439,
      "Berani": 7440,
      "seram": 7441,
      "seruan": 7442,
      "pele": 7443,
      "pelukan": 7444,
      "pelabuhan": 7445,
      "Ohh": 7446,
      "pembe": 7447,
      "pemalam": 7448,
      "pembeli": 7449,
      "pemproses": 7450,
      "otot": 7451,
      "gergasi": 7452,
      "campakkan": 7453,
      "merawat": 7454,
      "Maklum": 7455,
      "mew": 7456,
      "hidupmu": 7457,
      "dermakan": 7458,
      "navi": 7459,
      "tentangnya": 7460,
      "namamu": 7461,
      "Mengu": 7462,
      "Bee": 7463,
      "Bebas": 7464,
      "mendapatnya": 7465,
      "Kena": 7466,
      "Tekan": 7467,
      "Tekanan": 7468,
      "mencur": 7469,
      "menceritakan": 7470,
      "Terbang": 7471,
      "Terpulang": 7472,
      "Terdahulu": 7473,
      "Terjem": 7474,
      "doalah": 7475,
      "domain": 7476,
      "Menya": 7477,
      "Menunggu": 7478,
      "Menarik": 7479,
      "Menuju": 7480,
      "Menegak": 7481,
      "Suami": 7482,
      "teriak": 7483,
      "eto": 7484,
      "bungkus": 7485,
      "damping": 7486,
      "Leftenan": 7487,
      "halangan": 7488,
      "kuno": 7489,
      "membuatku": 7490,
      "Penerima": 7491,
      "Penjaga": 7492,
      "Pengeluar": 7493,
      "pastian": 7494,
      "ganja": 7495,
      "gandakan": 7496,
      "ganjil": 7497,
      "memberitahunya": 7498,
      "gunakannya": 7499,
      "rumahnya": 7500,
      "ruangan": 7501,
      "anggih": 7502,
      "tetaplah": 7503,
      "sejati": 7504,
      "paip": 7505,
      "membunuhku": 7506,
      "fahami": 7507,
      "kalinya": 7508,
      "Kelas": 7509,
      "Kelihatan": 7510,
      "keretanya": 7511,
      "Sampah": 7512,
      "kokain": 7513,
      "sayangi": 7514,
      "Pemisah": 7515,
      "Pemacu": 7516,
      "mengenakan": 7517,
      "mengendalikan": 7518,
      "jenaka": 7519,
      "parat": 7520,
      "tinasi": 7521,
      "kuasai": 7522,
      "protokol": 7523,
      "puluhan": 7524,
      "kaumku": 7525,
      "raktal": 7526,
      "Pasangan": 7527,
      "rasuah": 7528,
      "duduklah": 7529,
      "Pete": 7530,
      "Maria": 7531,
      "Maryam": 7532,
      "Jac": 7533,
      "Jauh": 7534,
      "icity": 7535,
      "polisi": 7536,
      "thur": 7537,
      "Senjata": 7538,
      "Isnin": 7539,
      "boo": 7540,
      "boy": 7541,
      "menyedihkan": 7542,
      "mulanya": 7543,
      "mengatakannya": 7544,
      "Templat": 7545,
      "memperlihatkan": 7546,
      "kasino": 7547,
      "Christ": 7548,
      "minimum": 7549,
      "Peluru": 7550,
      "lembut": 7551,
      "ditolak": 7552,
      "Arthur": 7553,
      "hasutan": 7554,
      "memudahkan": 7555,
      "Street": 7556,
      "thew": 7557,
      "genius": 7558,
      "susunan": 7559,
      "andangan": 7560,
      "pengecut": 7561,
      "ketat": 7562,
      "wujudan": 7563,
      "menggunakannya": 7564,
      "larikan": 7565,
      "sarjan": 7566,
      "cules": 7567,
      "Liu": 7568,
      "sifik": 7569,
      "Reed": 7570,
      "Reese": 7571,
      "pinggan": 7572,
      "lumpur": 7573,
      "Bill": 7574,
      "gagalan": 7575,
      "Lukis": 7576,
      "kosongkan": 7577,
      "Misi": 7578,
      "Miim": 7579,
      "Turki": 7580,
      "terbangkan": 7581,
      "Pandang": 7582,
      "Paksa": 7583,
      "Pakej": 7584,
      "kologi": 7585,
      "kirim": 7586,
      "bersihan": 7587,
      "Diamlah": 7588,
      "Joy": 7589,
      "Anakku": 7590,
      "ANG": 7591,
      "moyang": 7592,
      "goda": 7593,
      "mengembara": 7594,
      "Jackson": 7595,
      "menimpakan": 7596,
      "Hubungi": 7597,
      "help": 7598,
      "helah": 7599,
      "mengubahnya": 7600,
      "Ash": 7601,
      "Kadar": 7602,
      "memanggilnya": 7603,
      "adiknya": 7604,
      "Kapal": 7605,
      "pring": 7606,
      "menolongnya": 7607,
      "kepadaNyalah": 7608,
      "usahakannya": 7609,
      "Batalkan": 7610,
      "Mesin": 7611,
      "Meskipun": 7612,
      "ditim": 7613,
      "hargainya": 7614,
      "Matt": 7615,
      "Matthew": 7616,
      "less": 7617,
      "Great": 7618,
      "Good": 7619,
      "model": 7620,
      "Cukuplah": 7621,
      "Pustaka": 7622,
      "kemasukan": 7623,
      "‎.‎.": 7624,
      "timbangan": 7625,
      "Force": 7626,
      "Jimmy": 7627,
      "Kurang": 7628,
      "ISO": 7629,
      "Patty": 7630,
      "khaya": 7631,
      "rompak": 7632,
      "menjualnya": 7633,
      "Joey": 7634,
      "jawatan": 7635,
      "elektron": 7636,
      "spesifikasi": 7637,
      "belasah": 7638,
      "rumput": 7639,
      "Bonnie": 7640,
      "Hercules": 7641,
      "bled": 7642,
      "jantungnya": 7643,
      "kemampuannya": 7644,
      "Denmark": 7645,
      "Laut": 7646,
      "goreng": 7647,
      "membacakan": 7648,
      "down": 7649,
      "dows": 7650,
      "wahyu": 7651,
      "Rentetan": 7652,
      "mengurniakan": 7653,
      "Perhatikan": 7654,
      "OPTS": 7655,
      "juruterbang": 7656,
      "menandatangan": 7657,
      "merenung": 7658,
      "mengenalinya": 7659,
      "Paparkan": 7660,
      "Peribadi": 7661,
      "Surat": 7662,
      "cils": 7663,
      "bekukan": 7664,
      "Pralihat": 7665,
      "antaranya": 7666,
      "persegi": 7667,
      "Tampal": 7668,
      "Wind": 7669,
      "Felicity": 7670,
      "Watch": 7671,
      "dongeng": 7672,
      "ggle": 7673,
      "tenteranya": 7674,
      "Pengepala": 7675,
      "CJK": 7676,
      "Idea": 7677,
      "hinaan": 7678,
      "racun": 7679,
      "Goose": 7680,
      "kredit": 7681,
      "your": 7682,
      "angkuh": 7683,
      "Perlukah": 7684,
      "mendedahkan": 7685,
      "mencerob": 7686,
      "memasukkan": 7687,
      "Jawapan": 7688,
      "Port": 7689,
      "kontrak": 7690,
      "space": 7691,
      "belanja": 7692,
      "Francis": 7693,
      "sayur": 7694,
      "bersorak": 7695,
      "kesayangan": 7696,
      "dahsyat": 7697,
      "kemuliaan": 7698,
      "Keymap": 7699,
      "mengejutkan": 7700,
      "Bingkai": 7701,
      "KEDUA": 7702,
      "Saint": 7703,
      "memaafkan": 7704,
      "mengadap": 7705,
      "bezakan": 7706,
      "Sekolah": 7707,
      "tenggelam": 7708,
      "Lawrence": 7709,
      "Python": 7710,
      "Pahlawan": 7711,
      "Rekod": 7712,
      "Stencils": 7713,
      "Thamud": 7714,
      "month": 7715,
      "akhbar": 7716,
      "kekalahan": 7717,
      "memikirkannya": 7718,
      "piksel": 7719,
      "isytihar": 7720,
      "reputasi": 7721,
      "sejenis": 7722,
      "Cyril": 7723,
      "Filem": 7724,
      "Output": 7725,
      "Wayne": 7726,
      "kebiasaan": 7727,
      "kecederaan": 7728,
      "ordinat": 7729,
      "terbenam": 7730,
      "mengagumkan": 7731,
      "Kecemasan": 7732,
      "Kebenaran": 7733,
      "mewujudkan": 7734,
      "melewati": 7735,
      "Stephen": 7736,
      "Brooklyn": 7737,
      "cenderung": 7738,
      "pemerintahan": 7739,
      "Cooper": 7740,
      "Daftar": 7741,
      "GConf": 7742,
      "PIXMA": 7743,
      "berbaloi": 7744,
      "kebencian": 7745,
      "Sepanyol": 7746,
      "\"..": 7747,
      "'...": 7748,
      "+.": 7749,
      ".%": 7750,
      ".*": 7751,
      "2C": 7752,
      "911": 7753,
      "Ahad": 7754,
      "Action": 7755,
      "Bai": 7756,
      "Bas": 7757,
      "Bre": 7758,
      "Baki": 7759,
      "Bot": 7760,
      "Biru": 7761,
      "CC": 7762,
      "CR": 7763,
      "Cut": 7764,
      "Cre": 7765,
      "Cinta": 7766,
      "Cerita": 7767,
      "Ctr": 7768,
      "Clar": 7769,
      "Crow": 7770,
      "Cage": 7771,
      "Cait": 7772,
      "Din": 7773,
      "Dau": 7774,
      "Dus": 7775,
      "Dag": 7776,
      "DAP": 7777,
      "Dory": 7778,
      "Ef": 7779,
      "Emel": 7780,
      "Eli": 7781,
      "East": 7782,
      "Fak": 7783,
      "Feng": 7784,
      "Fur": 7785,
      "Fis": 7786,
      "GA": 7787,
      "GU": 7788,
      "Gul": 7789,
      "HP": 7790,
      "Hy": 7791,
      "If": 7792,
      "Io": 7793,
      "Ir": 7794,
      "Ikan": 7795,
      "Ist": 7796,
      "Jil": 7797,
      "Jana": 7798,
      "Jus": 7799,
      "Jami": 7800,
      "KA": 7801,
      "Kaku": 7802,
      "Kra": 7803,
      "Khabar": 7804,
      "Kisah": 7805,
      "Lab": 7806,
      "Liz": 7807,
      "Lindungi": 7808,
      "Lapor": 7809,
      "Mam": 7810,
      "MIM": 7811,
      "NC": 7812,
      "NE": 7813,
      "Nik": 7814,
      "Net": 7815,
      "Nag": 7816,
      "Nasib": 7817,
      "Os": 7818,
      "Ori": 7819,
      "One": 7820,
      "PD": 7821,
      "PO": 7822,
      "PS": 7823,
      "Pop": 7824,
      "Pokok": 7825,
      "Rab": 7826,
      "Rup": 7827,
      "Rip": 7828,
      "RGB": 7829,
      "SH": 7830,
      "SI": 7831,
      "ST": 7832,
      "Sat": 7833,
      "Soleh": 7834,
      "Stor": 7835,
      "Sad": 7836,
      "Swe": 7837,
      "Susah": 7838,
      "Seret": 7839,
      "Skema": 7840,
      "TL": 7841,
      "Tal": 7842,
      "Tes": 7843,
      "Teri": 7844,
      "Tra": 7845,
      "Tek": 7846,
      "Takut": 7847,
      "Tog": 7848,
      "Thor": 7849,
      "Tolak": 7850,
      "Tingkat": 7851,
      "Tasik": 7852,
      "Ujian": 7853,
      "Utama": 7854,
      "Vo": 7855,
      "Ven": 7856,
      "Vol": 7857,
      "Widget": 7858,
      "Xi": 7859,
      "\\.": 7860,
      "_L": 7861,
      "_Buka": 7862,
      "_Cari": 7863,
      "_Salin": 7864,
      "_Tarikh": 7865,
      "_Buang": 7866,
      "blah": 7867,
      "balan": 7868,
      "cung": 7869,
      "clu": 7870,
      "cle": 7871,
      "char": 7872,
      "carkan": 7873,
      "cone": 7874,
      "cela": 7875,
      "catur": 7876,
      "dos": 7877,
      "dela": 7878,
      "eka": 7879,
      "fran": 7880,
      "frasa": 7881,
      "fred": 7882,
      "geng": 7883,
      "gul": 7884,
      "hin": 7885,
      "ix": 7886,
      "imu": 7887,
      "ira": 7888,
      "iaran": 7889,
      "ipar": 7890,
      "knot": 7891,
      "ltu": 7892,
      "lalat": 7893,
      "layar": 7894,
      "lingkaran": 7895,
      "more": 7896,
      "motor": 7897,
      "nan": 7898,
      "nail": 7899,
      "oba": 7900,
      "oyak": 7901,
      "pam": 7902,
      "paku": 7903,
      "prat": 7904,
      "rapi": 7905,
      "rata": 7906,
      "s_": 7907,
      "stu": 7908,
      "sinya": 7909,
      "stor": 7910,
      "sakiti": 7911,
      "tat": 7912,
      "tro": 7913,
      "tonton": 7914,
      "upan": 7915,
      "ugian": 7916,
      "vat": 7917,
      "ving": 7918,
      "veri": 7919,
      "wn": 7920,
      "wo": 7921,
      "wangan": 7922,
      "wis": 7923,
      "xon": 7924,
      "yutan": 7925,
      "zen": 7926,
      "zam": 7927,
      "zawa": 7928,
      "‎,": 7929,
      "any": 7930,
      "anali": 7931,
      "ansur": 7932,
      "akang": 7933,
      "erlang": 7934,
      "ahir": 7935,
      "ahihan": 7936,
      "angkak": 7937,
      "ene": 7938,
      "enak": 7939,
      "entar": 7940,
      "attr": 7941,
      "ated": 7942,
      "aro": 7943,
      "ardo": 7944,
      "arch": 7945,
      "araikan": 7946,
      "artis": 7947,
      "amah": 7948,
      "ambulan": 7949,
      "ambus": 7950,
      "inn": 7951,
      "ald": 7952,
      "alfa": 7953,
      "dija": 7954,
      "dium": 7955,
      "dihan": 7956,
      "dice": 7957,
      "diguna": 7958,
      "dikit": 7959,
      "dikunci": 7960,
      "ditangan": 7961,
      "dikenal": 7962,
      "dibalas": 7963,
      "dipenjara": 7964,
      "diganggu": 7965,
      "dipukul": 7966,
      "dicuri": 7967,
      "dimusnahkan": 7968,
      "diculik": 7969,
      "dijemput": 7970,
      "diwahyukan": 7971,
      "dilatih": 7972,
      "diaktifkan": 7973,
      "disahkan": 7974,
      "dibesarkan": 7975,
      "dilarang": 7976,
      "sep": 7977,
      "sex": 7978,
      "seakan": 7979,
      "selebih": 7980,
      "sewa": 7981,
      "sebegitu": 7982,
      "sedur": 7983,
      "sehing": 7984,
      "sedemikian": 7985,
      "segar": 7986,
      "segolongan": 7987,
      "seph": 7988,
      "sedaya": 7989,
      "sekeping": 7990,
      "secawan": 7991,
      "setakat": 7992,
      "kaca": 7993,
      "kaedah": 7994,
      "kaitkan": 7995,
      "emah": 7996,
      "email": 7997,
      "empuannya": 7998,
      "menam": 7999,
      "mendi": 8000,
      "menangan": 8001,
      "menit": 8002,
      "menawan": 8003,
      "mendahulu": 8004,
      "mental": 8005,
      "mencetak": 8006,
      "mendaftar": 8007,
      "menamakan": 8008,
      "mendesak": 8009,
      "menafikan": 8010,
      "berde": 8011,
      "beringat": 8012,
      "berkec": 8013,
      "bercerita": 8014,
      "bersifat": 8015,
      "berangkat": 8016,
      "berturut": 8017,
      "bertanding": 8018,
      "bersedih": 8019,
      "berpura": 8020,
      "berkhidmat": 8021,
      "berpecah": 8022,
      "berpisah": 8023,
      "bersimpati": 8024,
      "berkembang": 8025,
      "berteriak": 8026,
      "tikal": 8027,
      "tiup": 8028,
      "timewa": 8029,
      "ked": 8030,
      "keta": 8031,
      "ketidak": 8032,
      "keser": 8033,
      "ketinggal": 8034,
      "kesedi": 8035,
      "kebawah": 8036,
      "kesemuanya": 8037,
      "kekuat": 8038,
      "kesal": 8039,
      "keempat": 8040,
      "kebelakangan": 8041,
      "kebetulan": 8042,
      "keparat": 8043,
      "kewujudan": 8044,
      "taf": 8045,
      "taq": 8046,
      "tasik": 8047,
      "perben": 8048,
      "persel": 8049,
      "persama": 8050,
      "peros": 8051,
      "perjumpa": 8052,
      "perteng": 8053,
      "perusaha": 8054,
      "perlihatkan": 8055,
      "peranan": 8056,
      "perempuannya": 8057,
      "engguna": 8058,
      "orkan": 8059,
      "orot": 8060,
      "airan": 8061,
      "asang": 8062,
      "asnya": 8063,
      "asangan": 8064,
      "asalah": 8065,
      "kupi": 8066,
      "awaran": 8067,
      "awannya": 8068,
      "awasanya": 8069,
      "nyawanya": 8070,
      "busi": 8071,
      "akub": 8072,
      "kitar": 8073,
      "kilo": 8074,
      "layang": 8075,
      "lade": 8076,
      "memanc": 8077,
      "memutar": 8078,
      "membatalkan": 8079,
      "mempertimbangkan": 8080,
      "membaikinya": 8081,
      "memisahkan": 8082,
      "mematikan": 8083,
      "ihir": 8084,
      "tersedia": 8085,
      "terhebat": 8086,
      "terbiasa": 8087,
      "terganggu": 8088,
      "tergantung": 8089,
      "tersesat": 8090,
      "tercedera": 8091,
      "tersilap": 8092,
      "terserah": 8093,
      "terpisah": 8094,
      "terjun": 8095,
      "terdesak": 8096,
      "sup": 8097,
      "subah": 8098,
      "jabatan": 8099,
      "ungut": 8100,
      "ungsur": 8101,
      "mudarat": 8102,
      "taks": 8103,
      "taklah": 8104,
      "takde": 8105,
      "ahut": 8106,
      "tukah": 8107,
      "tukarkan": 8108,
      "dalf": 8109,
      "badut": 8110,
      "bapanya": 8111,
      "apanya": 8112,
      "aparan": 8113,
      "apannya": 8114,
      "apengguna": 8115,
      "ilin": 8116,
      "aus": 8117,
      "mengosong": 8118,
      "mengarahkan": 8119,
      "max": 8120,
      "may": 8121,
      "kauan": 8122,
      "julang": 8123,
      "rius": 8124,
      "gajah": 8125,
      "bian": 8126,
      "biasanya": 8127,
      "putera": 8128,
      "aliran": 8129,
      "melen": 8130,
      "melatih": 8131,
      "kategori": 8132,
      "letup": 8133,
      "nilainya": 8134,
      "bec": 8135,
      "hit": 8136,
      "pita": 8137,
      "Sean": 8138,
      "Segi": 8139,
      "Sedang": 8140,
      "Sebarang": 8141,
      "Segera": 8142,
      "Seekor": 8143,
      "Sedikit": 8144,
      "berikannya": 8145,
      "isih": 8146,
      "istik": 8147,
      "Alvin": 8148,
      "Alpha": 8149,
      "tepuan": 8150,
      "puncak": 8151,
      "kepadaKu": 8152,
      "jadikanlah": 8153,
      "masukan": 8154,
      "kerdil": 8155,
      "jir": 8156,
      "ongan": 8157,
      "buatnya": 8158,
      "penunjuk": 8159,
      "pentas": 8160,
      "penonton": 8161,
      "pendengaran": 8162,
      "pendidi": 8163,
      "Tidur": 8164,
      "Awaklah": 8165,
      "band": 8166,
      "bantahan": 8167,
      "banjir": 8168,
      "keman": 8169,
      "kembar": 8170,
      "cubalah": 8171,
      "kelemahan": 8172,
      "tensi": 8173,
      "mand": 8174,
      "menyah": 8175,
      "Yaakub": 8176,
      "bunya": 8177,
      "hartanya": 8178,
      "omo": 8179,
      "omong": 8180,
      "rain": 8181,
      "radar": 8182,
      "tangki": 8183,
      "Anna": 8184,
      "Anjuta": 8185,
      "Perjalanan": 8186,
      "Peringkat": 8187,
      "Perniagaan": 8188,
      "Pertahanan": 8189,
      "Perkhidmatan": 8190,
      "dey": 8191,
      "debah": 8192,
      "dekah": 8193,
      "deks": 8194,
      "imbang": 8195,
      "pengorbanan": 8196,
      "lif": 8197,
      "lips": 8198,
      "satupun": 8199,
      "Kekasih": 8200,
      "Kepula": 8201,
      "Ketepi": 8202,
      "Kecelaka": 8203,
      "Kecil": 8204,
      "Keizinan": 8205,
      "matang": 8206,
      "alaminya": 8207,
      "yaki": 8208,
      "ulitan": 8209,
      "Takkan": 8210,
      "roman": 8211,
      "rock": 8212,
      "hentam": 8213,
      "kalimah": 8214,
      "Digunakan": 8215,
      "Diungkapkan": 8216,
      "Bac": 8217,
      "Baahu": 8218,
      "tani": 8219,
      "tanam": 8220,
      "tanpamu": 8221,
      "datanglah": 8222,
      "Bersama": 8223,
      "Bertar": 8224,
      "Bercakap": 8225,
      "Bersih": 8226,
      "Berambus": 8227,
      "keluargam": 8228,
      "taruhkan": 8229,
      "emuan": 8230,
      "Madin": 8231,
      "peluk": 8232,
      "pelatih": 8233,
      "Buah": 8234,
      "pemak": 8235,
      "pembantu": 8236,
      "pemburu": 8237,
      "pemasangan": 8238,
      "heus": 8239,
      "irukan": 8240,
      "gupan": 8241,
      "gudang": 8242,
      "gugup": 8243,
      "matilah": 8244,
      "ekon": 8245,
      "gers": 8246,
      "gerah": 8247,
      "merata": 8248,
      "merokok": 8249,
      "Maknanya": 8250,
      "mewah": 8251,
      "meyakinkan": 8252,
      "Jiran": 8253,
      "hidupku": 8254,
      "sembuh": 8255,
      "sempit": 8256,
      "ambilnya": 8257,
      "wabak": 8258,
      "sandar": 8259,
      "berlindung": 8260,
      "egapan": 8261,
      "melihatmu": 8262,
      "beritahuan": 8263,
      "antikan": 8264,
      "able": 8265,
      "samada": 8266,
      "sambutan": 8267,
      "Tuju": 8268,
      "binasa": 8269,
      "bawaan": 8270,
      "palet": 8271,
      "haba": 8272,
      "Mengikut": 8273,
      "Beth": 8274,
      "lokas": 8275,
      "loceng": 8276,
      "Terbaik": 8277,
      "Termasuk": 8278,
      "Terakhir": 8279,
      "Terutama": 8280,
      "does": 8281,
      "gusti": 8282,
      "terikat": 8283,
      "etro": 8284,
      "tuanku": 8285,
      "Big": 8286,
      "Leah": 8287,
      "pahit": 8288,
      "balai": 8289,
      "Dengarkan": 8290,
      "taraf": 8291,
      "Pener": 8292,
      "Penye": 8293,
      "Pencetak": 8294,
      "Penyahpepijat": 8295,
      "Amanda": 8296,
      "hendakkan": 8297,
      "pertunjukkan": 8298,
      "Sier": 8299,
      "Siapapun": 8300,
      "pintunya": 8301,
      "mie": 8302,
      "dukkan": 8303,
      "jamu": 8304,
      "rupe": 8305,
      "rujukan": 8306,
      "chess": 8307,
      "Memadam": 8308,
      "Membolehkan": 8309,
      "bawanya": 8310,
      "state": 8311,
      "strategi": 8312,
      "minda": 8313,
      "minator": 8314,
      "kecelaka": 8315,
      "hington": 8316,
      "buahnya": 8317,
      "Sammy": 8318,
      "Kertas": 8319,
      "Pemimpin": 8320,
      "Cubalah": 8321,
      "mengecewakan": 8322,
      "turunnya": 8323,
      "jendela": 8324,
      "jauhi": 8325,
      "jauhkan": 8326,
      "cepatlah": 8327,
      "Barney": 8328,
      "tina": 8329,
      "Rasalah": 8330,
      "hantarkan": 8331,
      "Betulkah": 8332,
      "viet": 8333,
      "visual": 8334,
      "Muda": 8335,
      "late": 8336,
      "provin": 8337,
      "belakangnya": 8338,
      "ady": 8339,
      "meletak": 8340,
      "amanah": 8341,
      "rasmi": 8342,
      "ibuku": 8343,
      "Pear": 8344,
      "Pejabat": 8345,
      "ombia": 8346,
      "malas": 8347,
      "pulangkan": 8348,
      "Jauhi": 8349,
      "Sembilan": 8350,
      "biarkannya": 8351,
      "biarkanlah": 8352,
      "thumb": 8353,
      "meninggalkannya": 8354,
      "Harta": 8355,
      "Harper": 8356,
      "Sabar": 8357,
      "lindung": 8358,
      "terhadapku": 8359,
      "America": 8360,
      "Istimewa": 8361,
      "ogle": 8362,
      "pesona": 8363,
      "bocor": 8364,
      "menyeberangi": 8365,
      "menyesuaikan": 8366,
      "Belok": 8367,
      "pirasi": 8368,
      "Temp": 8369,
      "ugut": 8370,
      "kurangkan": 8371,
      "Rock": 8372,
      "putri": 8373,
      "formasi": 8374,
      "act": 8375,
      "acun": 8376,
      "Kembalikan": 8377,
      "Kemaskini": 8378,
      "ditarik": 8379,
      "perisai": 8380,
      "perisik": 8381,
      "eweng": 8382,
      "they": 8383,
      "bising": 8384,
      "menguatkan": 8385,
      "munan": 8386,
      "mudahkan": 8387,
      "tuhanku": 8388,
      "bimbangan": 8389,
      "sangkaan": 8390,
      "Ingatkan": 8391,
      "izard": 8392,
      "menyemak": 8393,
      "impikan": 8394,
      "menuduh": 8395,
      "pengedar": 8396,
      "pengebumian": 8397,
      "Carter": 8398,
      "dinam": 8399,
      "komunikasi": 8400,
      "sembahkan": 8401,
      "Profil": 8402,
      "code": 8403,
      "cocok": 8404,
      "Harimau": 8405,
      "syar": 8406,
      "Henry": 8407,
      "temanku": 8408,
      "lakon": 8409,
      "lakunya": 8410,
      "saraf": 8411,
      "nesota": 8412,
      "Lux": 8413,
      "Lucy": 8414,
      "mengandung": 8415,
      "ugamaNya": 8416,
      "Miami": 8417,
      "Turutan": 8418,
      "Katnis": 8419,
      "Panama": 8420,
      "sabaran": 8421,
      "sukarela": 8422,
      "ARAN": 8423,
      "Julian": 8424,
      "menepati": 8425,
      "bezaan": 8426,
      "Night": 8427,
      "Nicky": 8428,
      "Poland": 8429,
      "jurulatih": 8430,
      "lena": 8431,
      "sekutif": 8432,
      "oney": 8433,
      "Joseph": 8434,
      "Lock": 8435,
      "Logan": 8436,
      "serigala": 8437,
      "mobil": 8438,
      "ingankan": 8439,
      "gambarkan": 8440,
      "gambarnya": 8441,
      "merebut": 8442,
      "fucker": 8443,
      "Malaikat": 8444,
      "entri": 8445,
      "bait": 8446,
      "ript": 8447,
      "kerasul": 8448,
      "Askar": 8449,
      "Kaedah": 8450,
      "Tahap": 8451,
      "bencikan": 8452,
      "tulisan": 8453,
      "que": 8454,
      "Jalankan": 8455,
      "kesalahannya": 8456,
      "Quinn": 8457,
      "bicaraan": 8458,
      "Merah": 8459,
      "sinaran": 8460,
      "Batman": 8461,
      "Mesyuarat": 8462,
      "menulisnya": 8463,
      "lesen": 8464,
      "Frankie": 8465,
      "Walker": 8466,
      "Wally": 8467,
      "Google": 8468,
      "dollar": 8469,
      "moden": 8470,
      "gigitan": 8471,
      "bingkai": 8472,
      "menembaknya": 8473,
      "Penyel": 8474,
      "Emma": 8475,
      "Minnesota": 8476,
      "mond": 8477,
      "penyelidi": 8478,
      "Lambung": 8479,
      "Posisi": 8480,
      "dikenakan": 8481,
      "kiblat": 8482,
      "Kurasa": 8483,
      "Menyimpan": 8484,
      "version": 8485,
      "Salinan": 8486,
      "Script": 8487,
      "Negeri": 8488,
      "taatlah": 8489,
      "rosakkan": 8490,
      "logmasuk": 8491,
      "ways": 8492,
      "menghalangi": 8493,
      "Lanjutan": 8494,
      "Musuh": 8495,
      "singgah": 8496,
      "kejutkan": 8497,
      "setiaan": 8498,
      "Automatik": 8499,
      "berkeliaran": 8500,
      "kesudahannya": 8501,
      "keturunannya": 8502,
      "programkan": 8503,
      "Komputer": 8504,
      "Maharaja": 8505,
      "baraan": 8506,
      "diedit": 8507,
      "Pernahkah": 8508,
      "Brian": 8509,
      "zie": 8510,
      "maksiat": 8511,
      "Serizawa": 8512,
      "jalur": 8513,
      "Cheers": 8514,
      "bersabarlah": 8515,
      "sekelilingnya": 8516,
      "Bintang": 8517,
      "Burung": 8518,
      "Richard": 8519,
      "zakat": 8520,
      "bisikkan": 8521,
      "textattr": 8522,
      "memberinya": 8523,
      "Penggunaan": 8524,
      "chool": 8525,
      "saudaraku": 8526,
      "Gandalf": 8527,
      "Gelap": 8528,
      "secepatnya": 8529,
      "persetujuan": 8530,
      "jaminan": 8531,
      "Semakin": 8532,
      "Atlantik": 8533,
      "Baymax": 8534,
      "Holly": 8535,
      "Mahukah": 8536,
      "melemparkan": 8537,
      "Bertahanlah": 8538,
      "Damon": 8539,
      "MSN": 8540,
      "naluri": 8541,
      "maklumkan": 8542,
      "tenteram": 8543,
      "pengenalan": 8544,
      "Baker": 8545,
      "DNA": 8546,
      "White": 8547,
      "memindahkan": 8548,
      "tersekat": 8549,
      "penyembahan": 8550,
      "Blue": 8551,
      "Blueto": 8552,
      "Larry": 8553,
      "upayaan": 8554,
      "internet": 8555,
      "dijangkakan": 8556,
      "menjauhi": 8557,
      "berambut": 8558,
      "optional": 8559,
      "Williams": 8560,
      "Laksana": 8561,
      "meniup": 8562,
      "mencukupi": 8563,
      "Curtis": 8564,
      "Krismas": 8565,
      "Raksasa": 8566,
      "TERN": 8567,
      "Zeus": 8568,
      "grafik": 8569,
      "penceroboh": 8570,
      "pencerobohan": 8571,
      "Andre": 8572,
      "merujuk": 8573,
      "rahsiakan": 8574,
      "gelanggang": 8575,
      "teknikalnya": 8576,
      "fizikal": 8577,
      "Falcone": 8578,
      "Grand": 8579,
      "Mumbai": 8580,
      "Suspek": 8581,
      "Washington": 8582,
      "psikologi": 8583,
      "akhiri": 8584,
      "Pengesahan": 8585,
      "Murphy": 8586,
      "pemberontak": 8587,
      "02d": 8588,
      "Hades": 8589,
      "PATTERN": 8590,
      "aktiviti": 8591,
      "disabled": 8592,
      "Aktifkan": 8593,
      "GIF": 8594,
      "Soph": 8595,
      "saintis": 8596,
      "keyakinan": 8597,
      "usnahan": 8598,
      "melintasi": 8599,
      "Angeles": 8600,
      "mengucapkan": 8601,
      "Skynet": 8602,
      "kelebihan": 8603,
      "Animasi": 8604,
      "Choi": 8605,
      "Hakim": 8606,
      "Josh": 8607,
      "Klien": 8608,
      "Kontras": 8609,
      "Mystic": 8610,
      "iCalendar": 8611,
      "menjangkakan": 8612,
      "kukuh": 8613,
      "membangunkan": 8614,
      "hampagne": 8615,
      "Inspektor": 8616,
      "Pooja": 8617,
      "Smith": 8618,
      "Sungai": 8619,
      "Wujudkan": 8620,
      "halimunan": 8621,
      "musafir": 8622,
      "Setiausaha": 8623,
      "pembedahan": 8624,
      "elektronik": 8625,
      "menceroboh": 8626,
      "Caitlin": 8627,
      "Jamie": 8628,
      "MIME": 8629,
      "clude": 8630,
      "france": 8631,
      "selebihnya": 8632,
      "mendahului": 8633,
      "ketinggalan": 8634,
      "kesedihan": 8635,
      "kekuatannya": 8636,
      "persamaan": 8637,
      "perjumpaan": 8638,
      "memancing": 8639,
      "subahat": 8640,
      "mengosongkan": 8641,
      "pendidikan": 8642,
      "Kepulauan": 8643,
      "Kecelakaan": 8644,
      "keluargamu": 8645,
      "Madinah": 8646,
      "kecelakaan": 8647,
      "Katniss": 8648,
      "%%": 8649,
      "%(": 8650,
      ")}": 8651,
      "-%": 8652,
      ".!": 8653,
      "04": 8654,
      "27": 8655,
      "28": 8656,
      "42": 8657,
      "48": 8658,
      "49": 8659,
      "710": 8660,
      "86": 8661,
      "Ac": 8662,
      "Abi": 8663,
      "Ais": 8664,
      "Apr": 8665,
      "Asas": 8666,
      "Adik": 8667,
      "B_": 8668,
      "Bau": 8669,
      "Bus": 8670,
      "Blo": 8671,
      "Bina": 8672,
      "BER": 8673,
      "Brun": 8674,
      "Block": 8675,
      "Bryan": 8676,
      "CV": 8677,
      "Cereka": 8678,
      "Cli": 8679,
      "Cet": 8680,
      "Clai": 8681,
      "Cross": 8682,
      "Dak": 8683,
      "Dih": 8684,
      "Dok": 8685,
      "Dup": 8686,
      "Dog": 8687,
      "Dent": 8688,
      "EL": 8689,
      "Elena": 8690,
      "Far": 8691,
      "Flar": 8692,
      "Fraktal": 8693,
      "Gh": 8694,
      "Gur": 8695,
      "Gri": 8696,
      "Gro": 8697,
      "Gray": 8698,
      "Haw": 8699,
      "Hon": 8700,
      "Hap": 8701,
      "Hum": 8702,
      "Hag": 8703,
      "Haz": 8704,
      "Hob": 8705,
      "Huru": 8706,
      "Hac": 8707,
      "Hill": 8708,
      "Hulurkan": 8709,
      "IT": 8710,
      "IV": 8711,
      "Isih": 8712,
      "Jab": 8713,
      "Jawab": 8714,
      "Jed": 8715,
      "Just": 8716,
      "K_": 8717,
      "Kang": 8718,
      "Kit": 8719,
      "Kul": 8720,
      "Kac": 8721,
      "Kwang": 8722,
      "Kid": 8723,
      "KAN": 8724,
      "Kilang": 8725,
      "Kyle": 8726,
      "Las": 8727,
      "Les": 8728,
      "Lit": 8729,
      "Laj": 8730,
      "Lawan": 8731,
      "Laman": 8732,
      "Lapan": 8733,
      "Lapar": 8734,
      "Lou": 8735,
      "Laksanakan": 8736,
      "Lyn": 8737,
      "LDAP": 8738,
      "MM": 8739,
      "Mang": 8740,
      "Mimpi": 8741,
      "NG": 8742,
      "NU": 8743,
      "Nau": 8744,
      "Nis": 8745,
      "Naf": 8746,
      "Nob": 8747,
      "Ox": 8748,
      "PA": 8749,
      "PP": 8750,
      "Pam": 8751,
      "Pari": 8752,
      "Pon": 8753,
      "Plu": 8754,
      "Pos": 8755,
      "Pir": 8756,
      "Pagi": 8757,
      "Pinggi": 8758,
      "PIN": 8759,
      "Planet": 8760,
      "Power": 8761,
      "Rs": 8762,
      "Rem": 8763,
      "Risi": 8764,
      "Rahul": 8765,
      "Sari": 8766,
      "Som": 8767,
      "Shen": 8768,
      "Slo": 8769,
      "Soo": 8770,
      "Sco": 8771,
      "Smur": 8772,
      "Sakit": 8773,
      "Spring": 8774,
      "Tr": 8775,
      "Tri": 8776,
      "Tong": 8777,
      "Taman": 8778,
      "Titan": 8779,
      "Tarian": 8780,
      "Ul": 8781,
      "Up": 8782,
      "Ubat": 8783,
      "Udara": 8784,
      "Umur": 8785,
      "Urus": 8786,
      "Ubuntu": 8787,
      "Vil": 8788,
      "Vik": 8789,
      "VNC": 8790,
      "WA": 8791,
      "Wong": 8792,
      "Ward": 8793,
      "Wajah": 8794,
      "YA": 8795,
      "Yes": 8796,
      "Yong": 8797,
      "Za": 8798,
      "Zach": 8799,
      "Zakar": 8800,
      "Zhang": 8801,
      "_Dokumen": 8802,
      "_Edit": 8803,
      "_Tukarnama": 8804,
      "_Daftar": 8805,
      "ade": 8806,
      "abuk": 8807,
      "bla": 8808,
      "borang": 8809,
      "banya": 8810,
      "bama": 8811,
      "cas": 8812,
      "cag": 8813,
      "catan": 8814,
      "cop": 8815,
      "cent": 8816,
      "cemas": 8817,
      "class": 8818,
      "canggih": 8819,
      "drey": 8820,
      "fs": 8821,
      "fer": 8822,
      "g_": 8823,
      "gs": 8824,
      "guh": 8825,
      "gali": 8826,
      "gle": 8827,
      "gut": 8828,
      "ghan": 8829,
      "garan": 8830,
      "glo": 8831,
      "here": 8832,
      "halau": 8833,
      "hangat": 8834,
      "hurai": 8835,
      "haus": 8836,
      "isu": 8837,
      "iri": 8838,
      "ire": 8839,
      "ikannya": 8840,
      "ikutan": 8841,
      "ibunya": 8842,
      "jor": 8843,
      "jus": 8844,
      "jara": 8845,
      "jet": 8846,
      "job": 8847,
      "jungan": 8848,
      "jerit": 8849,
      "just": 8850,
      "lamat": 8851,
      "lation": 8852,
      "mung": 8853,
      "mbol": 8854,
      "nai": 8855,
      "non": 8856,
      "nasi": 8857,
      "oka": 8858,
      "pper": 8859,
      "pla": 8860,
      "puh": 8861,
      "paran": 8862,
      "psy": 8863,
      "parah": 8864,
      "plas": 8865,
      "play": 8866,
      "plic": 8867,
      "rn": 8868,
      "ratu": 8869,
      "rasi": 8870,
      "rela": 8871,
      "sni": 8872,
      "song": 8873,
      "sunya": 8874,
      "suhu": 8875,
      "sword": 8876,
      "tha": 8877,
      "thing": 8878,
      "ua": 8879,
      "ui": 8880,
      "udah": 8881,
      "uid": 8882,
      "uaib": 8883,
      "vy": 8884,
      "vak": 8885,
      "vem": 8886,
      "ves": 8887,
      "wap": 8888,
      "wiki": 8889,
      "waf": 8890,
      "xi": 8891,
      "yon": 8892,
      "zina": 8893,
      "zza": 8894,
      "}\".": 8895,
      "شه": 8896,
      "ane": 8897,
      "ankan": 8898,
      "antakan": 8899,
      "anjut": 8900,
      "akalah": 8901,
      "eru": 8902,
      "eran": 8903,
      "erator": 8904,
      "error": 8905,
      "ange": 8906,
      "anghai": 8907,
      "ens": 8908,
      "entara": 8909,
      "ater": 8910,
      "art": 8911,
      "araskan": 8912,
      "inal": 8913,
      "indu": 8914,
      "alin": 8915,
      "alti": 8916,
      "digi": 8917,
      "dite": 8918,
      "dialu": 8919,
      "dicari": 8920,
      "dibayar": 8921,
      "dihalang": 8922,
      "diff": 8923,
      "dilimpah": 8924,
      "diharapkan": 8925,
      "dipandang": 8926,
      "dicetak": 8927,
      "dibebaskan": 8928,
      "dilaporkan": 8929,
      "dilaknat": 8930,
      "dikemaskini": 8931,
      "dipapar": 8932,
      "seb": 8933,
      "sepi": 8934,
      "sejam": 8935,
      "seketika": 8936,
      "seid": 8937,
      "sebaiknya": 8938,
      "sepasang": 8939,
      "sepuak": 8940,
      "seberang": 8941,
      "sejahtera": 8942,
      "unta": 8943,
      "unter": 8944,
      "under": 8945,
      "untik": 8946,
      "unjung": 8947,
      "untut": 8948,
      "uncian": 8949,
      "paun": 8950,
      "pasu": 8951,
      "paus": 8952,
      "pacar": 8953,
      "tutan": 8954,
      "daemon": 8955,
      "kacak": 8956,
      "kasus": 8957,
      "embar": 8958,
      "embour": 8959,
      "sadar": 8960,
      "sains": 8961,
      "elah": 8962,
      "ella": 8963,
      "menum": 8964,
      "menunjuk": 8965,
      "menilai": 8966,
      "menamatkan": 8967,
      "meninggi": 8968,
      "mensuci": 8969,
      "menandakan": 8970,
      "menjalani": 8971,
      "mendorong": 8972,
      "menunggang": 8973,
      "mencampakkan": 8974,
      "mendermakan": 8975,
      "berj": 8976,
      "berla": 8977,
      "bergan": 8978,
      "berbalik": 8979,
      "berminggu": 8980,
      "berwarna": 8981,
      "berfikiran": 8982,
      "berdiam": 8983,
      "berbentuk": 8984,
      "berpengetahuan": 8985,
      "bergaya": 8986,
      "berasas": 8987,
      "berpusing": 8988,
      "berhubung": 8989,
      "berdekatan": 8990,
      "beracun": 8991,
      "tib": 8992,
      "kejadi": 8993,
      "kepan": 8994,
      "kehan": 8995,
      "keselamat": 8996,
      "ketara": 8997,
      "ketuhan": 8998,
      "keutamaan": 8999,
      "kebohong": 9000,
      "kehormatan": 9001,
      "keingkaran": 9002,
      "kesatuan": 9003,
      "keampunan": 9004,
      "kepastian": 9005,
      "kegagalan": 9006,
      "kewangan": 9007,
      "kebimbangan": 9008,
      "keupayaan": 9009,
      "taburan": 9010,
      "perbuat": 9011,
      "perken": 9012,
      "perantara": 9013,
      "pertum": 9014,
      "perkak": 9015,
      "perompak": 9016,
      "percubaan": 9017,
      "permukaan": 9018,
      "perunding": 9019,
      "engah": 9020,
      "ort": 9021,
      "aid": 9022,
      "aikannya": 9023,
      "ash": 9024,
      "kutuk": 9025,
      "kurasa": 9026,
      "iadalah": 9027,
      "ario": 9028,
      "arisi": 9029,
      "gion": 9030,
      "gihan": 9031,
      "buan": 9032,
      "buli": 9033,
      "danan": 9034,
      "ayau": 9035,
      "akui": 9036,
      "kik": 9037,
      "kilat": 9038,
      "lac": 9039,
      "lauan": 9040,
      "memaka": 9041,
      "membukti": 9042,
      "membaiki": 9043,
      "membisikkan": 9044,
      "inger": 9045,
      "tero": 9046,
      "terut": 9047,
      "terapi": 9048,
      "teringin": 9049,
      "terje": 9050,
      "terdaya": 9051,
      "tertaw": 9052,
      "terkorban": 9053,
      "tersisa": 9054,
      "tergesa": 9055,
      "terhem": 9056,
      "terperinci": 9057,
      "sudi": 9058,
      "suran": 9059,
      "sutera": 9060,
      "subuh": 9061,
      "jagung": 9062,
      "itur": 9063,
      "musi": 9064,
      "murah": 9065,
      "mutasi": 9066,
      "mukanya": 9067,
      "taksub": 9068,
      "back": 9069,
      "bajingan": 9070,
      "dengki": 9071,
      "dengus": 9072,
      "adai": 9073,
      "apak": 9074,
      "patan": 9075,
      "patch": 9076,
      "patuhi": 9077,
      "aut": 9078,
      "mengalu": 9079,
      "mengarah": 9080,
      "mengac": 9081,
      "mengundang": 9082,
      "mengatur": 9083,
      "mengabaikan": 9084,
      "menggerakkan": 9085,
      "mengawas": 9086,
      "menggigit": 9087,
      "menghiraukan": 9088,
      "mengusir": 9089,
      "menghasilkan": 9090,
      "menghargainya": 9091,
      "awaklah": 9092,
      "untukkan": 9093,
      "uston": 9094,
      "usunan": 9095,
      "maat": 9096,
      "uro": 9097,
      "urt": 9098,
      "olehnya": 9099,
      "jubin": 9100,
      "julat": 9101,
      "siar": 9102,
      "siri": 9103,
      "simum": 9104,
      "size": 9105,
      "dualkan": 9106,
      "darimu": 9107,
      "esan": 9108,
      "esia": 9109,
      "dahara": 9110,
      "riti": 9111,
      "gay": 9112,
      "gabat": 9113,
      "bisak": 9114,
      "pujian": 9115,
      "bolehlah": 9116,
      "andasan": 9117,
      "led": 9118,
      "lega": 9119,
      "lejang": 9120,
      "lebuh": 9121,
      "atuan": 9122,
      "nit": 9123,
      "beth": 9124,
      "pie": 9125,
      "bahawasanya": 9126,
      "Sejuk": 9127,
      "Sejauh": 9128,
      "Sebas": 9129,
      "Sepanjang": 9130,
      "Sediakan": 9131,
      "berisi": 9132,
      "telanjang": 9133,
      "Alban": 9134,
      "Alatan": 9135,
      "Album": 9136,
      "teki": 9137,
      "tetangga": 9138,
      "Diagram": 9139,
      "benang": 9140,
      "benor": 9141,
      "punc": 9142,
      "punah": 9143,
      "punca": 9144,
      "master": 9145,
      "kerap": 9146,
      "kerasan": 9147,
      "kerugian": 9148,
      "jimat": 9149,
      "onge": 9150,
      "ongkan": 9151,
      "wakil": 9152,
      "belayar": 9153,
      "semut": 9154,
      "panik": 9155,
      "pantat": 9156,
      "pendiri": 9157,
      "penilai": 9158,
      "pencetak": 9159,
      "pentadbir": 9160,
      "pencen": 9161,
      "pendaratan": 9162,
      "penemuan": 9163,
      "itma": 9164,
      "kamilah": 9165,
      "Tiket": 9166,
      "ihatannya": 9167,
      "makin": 9168,
      "oko": 9169,
      "okkan": 9170,
      "senjat": 9171,
      "ikti": 9172,
      "cuaca": 9173,
      "kelayakan": 9174,
      "keldai": 9175,
      "keliru": 9176,
      "kelahiran": 9177,
      "kelaparan": 9178,
      "ayanya": 9179,
      "ayakannya": 9180,
      "menyeks": 9181,
      "amata": 9182,
      "amatkannya": 9183,
      "selalunya": 9184,
      "peter": 9185,
      "petugas": 9186,
      "petani": 9187,
      "bunan": 9188,
      "bunyinya": 9189,
      "hargai": 9190,
      "raine": 9191,
      "tangkapan": 9192,
      "Ann": 9193,
      "Ant": 9194,
      "Angin": 9195,
      "Perintah": 9196,
      "Pergerakan": 9197,
      "Perihal": 9198,
      "deta": 9199,
      "dedahkan": 9200,
      "dekaan": 9201,
      "degupan": 9202,
      "ime": 9203,
      "sesak": 9204,
      "sessi": 9205,
      "tinggalah": 9206,
      "pengas": 9207,
      "pengakuan": 9208,
      "pengawasan": 9209,
      "pengawas": 9210,
      "pengintip": 9211,
      "lib": 9212,
      "liang": 9213,
      "Kebang": 9214,
      "Ketahui": 9215,
      "kenangan": 9216,
      "kendali": 9217,
      "match": 9218,
      "matair": 9219,
      "reda": 9220,
      "reka": 9221,
      "batal": 9222,
      "ulihan": 9223,
      "Dipilih": 9224,
      "Babi": 9225,
      "dard": 9226,
      "darahan": 9227,
      "tanduk": 9228,
      "tanyakan": 9229,
      "Bermain": 9230,
      "Berbalik": 9231,
      "Bersiap": 9232,
      "Bergantung": 9233,
      "bagaimanapun": 9234,
      "sert": 9235,
      "seratus": 9236,
      "seragam": 9237,
      "keluarlah": 9238,
      "taruhan": 9239,
      "cecikut": 9240,
      "Mad": 9241,
      "Maju": 9242,
      "Mady": 9243,
      "ahaja": 9244,
      "pelan": 9245,
      "peluh": 9246,
      "pelakon": 9247,
      "Hector": 9248,
      "pemboleh": 9249,
      "pemben": 9250,
      "pembel": 9251,
      "pemeriksa": 9252,
      "pemenang": 9253,
      "pembela": 9254,
      "pemancar": 9255,
      "pemberitahuan": 9256,
      "het": 9257,
      "heim": 9258,
      "osla": 9259,
      "other": 9260,
      "ektif": 9261,
      "eksekutif": 9262,
      "merubah": 9263,
      "merampas": 9264,
      "merangkak": 9265,
      "mekan": 9266,
      "mewakili": 9267,
      "Jidar": 9268,
      "sembelih": 9269,
      "langkau": 9270,
      "nazak": 9271,
      "babak": 9272,
      "wain": 9273,
      "santai": 9274,
      "hud": 9275,
      "hulu": 9276,
      "ego": 9277,
      "dengarlah": 9278,
      "namun": 9279,
      "sedangkan": 9280,
      "ablo": 9281,
      "samana": 9282,
      "atasusunan": 9283,
      "have": 9284,
      "Mengambil": 9285,
      "Menghantar": 9286,
      "Mengimport": 9287,
      "Bet": 9288,
      "Bekerja": 9289,
      "Teka": 9290,
      "Teddy": 9291,
      "mencela": 9292,
      "mencoba": 9293,
      "Terpuji": 9294,
      "Terminator": 9295,
      "kembalilah": 9296,
      "Menang": 9297,
      "Menara": 9298,
      "Bagaimanakah": 9299,
      "Subjek": 9300,
      "Suzuran": 9301,
      "terian": 9302,
      "Bip": 9303,
      "Biro": 9304,
      "damn": 9305,
      "damaian": 9306,
      "jumpainya": 9307,
      "sedialah": 9308,
      "ball": 9309,
      "ejar": 9310,
      "membuatmu": 9311,
      "Penolong": 9312,
      "Pencipta": 9313,
      "Penjara": 9314,
      "Pengu": 9315,
      "Pengawal": 9316,
      "Pengkhianat": 9317,
      "Pengekodan": 9318,
      "cabut": 9319,
      "ganisasi": 9320,
      "padanan": 9321,
      "Ayahmu": 9322,
      "tou": 9323,
      "tober": 9324,
      "totaip": 9325,
      "mirip": 9326,
      "jamuan": 9327,
      "sebelummu": 9328,
      "Indian": 9329,
      "syiling": 9330,
      "symbol": 9331,
      "Membuat": 9332,
      "arahnya": 9333,
      "stres": 9334,
      "jangkauan": 9335,
      "membunuhmu": 9336,
      "kecer": 9337,
      "kecoh": 9338,
      "disalin": 9339,
      "Undang": 9340,
      "Undur": 9341,
      "Kelabu": 9342,
      "temuduga": 9343,
      "gelita": 9344,
      "gelaran": 9345,
      "kemudi": 9346,
      "komen": 9347,
      "koordinat": 9348,
      "sayangku": 9349,
      "Pemilih": 9350,
      "mengedit": 9351,
      "antarabangsa": 9352,
      "paras": 9353,
      "parameter": 9354,
      "gempa": 9355,
      "gementar": 9356,
      "kumpulkan": 9357,
[...]
