{
  "version": "1.0",
  "truncation": null,
  "padding": null,
  "added_tokens": [
    {
      "id": 0,
      "content": "[PAD]",
      "single_word": false,
      "lstrip": false,
      "rstrip": false,
      "normalized": false,
      "special": true
    },
    {
      "id": 1,
      "content": "[UNK]",
      "single_word": false,
      "lstrip": false,
      "rstrip": false,
      "normalized": false,
      "special": true
    },
    {
      "id": 2,
      "content": "[CLS]",
      "single_word": false,
      "lstrip": false,
      "rstrip": false,
      "normalized": false,
      "special": true
    },
    {
      "id": 3,
      "content": "[SEP]",
      "single_word": false,
      "lstrip": false,
      "rstrip": false,
      "normalized": false,
      "special": true
    },
    {
      "id": 4,
      "content": "[MASK]",
      "single_word": false,
      "lstrip": false,
      "rstrip": false,
      "normalized": false,
      "special": true
    }
  ],
  "normalizer": null,
  "pre_tokenizer": {
    "type": "Whitespace"
  },
  "post_processor": null,
  "decoder": null,
  "model": {
    "type": "BPE",
    "dropout": null,
    "unk_token": "[UNK]",
    "continuing_subword_prefix": null,
    "end_of_word_suffix": null,
    "fuse_unk": false,
    "vocab": {
      "[PAD]": 0,
      "[UNK]": 1,
      "[CLS]": 2,
      "[SEP]": 3,
      "[MASK]": 4,
      "!": 5,
      "\"": 6,
      "#": 7,
      "$": 8,
      "%": 9,
      "&": 10,
      "'": 11,
      "(": 12,
      ")": 13,
      "*": 14,
      "+": 15,
      ",": 16,
      "-": 17,
      ".": 18,
      "/": 19,
      "0": 20,
      "1": 21,
      "2": 22,
      "3": 23,
      "4": 24,
      "5": 25,
      "6": 26,
      "7": 27,
      "8": 28,
      "9": 29,
      ":": 30,
      ";": 31,
      "<": 32,
      "=": 33,
      ">": 34,
      "?": 35,
      "@": 36,
      "A": 37,
      "B": 38,
      "C": 39,
      "D": 40,
      "E": 41,
      "F": 42,
      "G": 43,
      "H": 44,
      "I": 45,
      "J": 46,
      "K": 47,
      "L": 48,
      "M": 49,
      "N": 50,
      "O": 51,
      "P": 52,
      "Q": 53,
      "R": 54,
      "S": 55,
      "T": 56,
      "U": 57,
      "V": 58,
      "W": 59,
      "X": 60,
      "Y": 61,
      "Z": 62,
      "[": 63,
      "\\": 64,
      "]": 65,
      "^": 66,
      "_": 67,
      "`": 68,
      "a": 69,
      "b": 70,
      "c": 71,
      "d": 72,
      "e": 73,
      "f": 74,
      "g": 75,
      "h": 76,
      "i": 77,
      "j": 78,
      "k": 79,
      "l": 80,
      "m": 81,
      "n": 82,
      "o": 83,
      "p": 84,
      "q": 85,
      "r": 86,
      "s": 87,
      "t": 88,
      "u": 89,
      "v": 90,
      "w": 91,
      "x": 92,
      "y": 93,
      "z": 94,
      "{": 95,
      "}": 96,
      "~": 97,
      "¡": 98,
      "°": 99,
      "³": 100,
      "´": 101,
      "µ": 102,
      "º": 103,
      "»": 104,
      "¿": 105,
      "É": 106,
      "×": 107,
      "à": 108,
      "á": 109,
      "ä": 110,
      "æ": 111,
      "é": 112,
      "í": 113,
      "ï": 114,
      "ð": 115,
      "ñ": 116,
      "ó": 117,
      "ô": 118,
      "ö": 119,
      "ø": 120,
      "ú": 121,
      "ü": 122,
      "Ā": 123,
      "ā": 124,
      "ń": 125,
      "Š": 126,
      "š": 127,
      "ū": 128,
      "ŭ": 129,
      "ˊ": 130,
      "Η": 131,
      "Μ": 132,
      "Ν": 133,
      "Υ": 134,
      "ν": 135,
      "ỳ": 136,
      "​": 137,
      "–": 138,
      "—": 139,
      "―": 140,
      "‘": 141,
      "’": 142,
      "“": 143,
      "”": 144,
      "•": 145,
      "…": 146,
      "→": 147,
      "−": 148,
      "∶": 149,
      "♪": 150,
      "♫": 151,
      "眉": 152,
      "ﬂ": 153,
      "＃": 154,
      "th": 155,
      "ou": 156,
      "in": 157,
      "er": 158,
      "an": 159,
      "on": 160,
      "the": 161,
      "re": 162,
      "at": 163,
      "you": 164,
      "is": 165,
      "to": 166,
      "ll": 167,
      "me": 168,
      "ing": 169,
      "or": 170,
      "en": 171,
      "it": 172,
      "st": 173,
      "ed": 174,
      "ar": 175,
      "le": 176,
      "he": 177,
      "ve": 178,
      "se": 179,
      "no": 180,
      "..": 181,
      "be": 182,
      "and": 183,
      "of": 184,
      "as": 185,
      "ay": 186,
      "wh": 187,
      "ere": 188,
      "es": 189,
      "ha": 190,
      "al": 191,
      "ow": 192,
      "id": 193,
      "ac": 194,
      "go": 195,
      "gh": 196,
      "ic": 197,
      "that": 198,
      "ro": 199,
      "wi": 200,
      "You": 201,
      "et": 202,
      "ld": 203,
      "for": 204,
      "ver": 205,
      "ke": 206,
      "li": 207,
      "Wh": 208,
      "ome": 209,
      "all": 210,
      "ut": 211,
      "ad": 212,
      "Th": 213,
      "ght": 214,
      "ion": 215,
      "do": 216,
      "ri": 217,
      "nd": 218,
      "...": 219,
      "are": 220,
      "not": 221,
      "we": 222,
      "lo": 223,
      "ch": 224,
      "now": 225,
      "one": 226,
      "your": 227,
      "out": 228,
      "We": 229,
      "ir": 230,
      "ne": 231,
      "od": 232,
      "He": 233,
      "this": 234,
      "ly": 235,
      "The": 236,
      "ab": 237,
      "im": 238,
      "have": 239,
      "us": 240,
      "ur": 241,
      "my": 242,
      "ust": 243,
      "am": 244,
      "with": 245,
      "ould": 246,
      "up": 247,
      "un": 248,
      "om": 249,
      "ag": 250,
      "know": 251,
      "It": 252,
      "was": 253,
      "thing": 254,
      "What": 255,
      "pe": 256,
      "ent": 257,
      "can": 258,
      "ther": 259,
      "de": 260,
      "sh": 261,
      "ant": 262,
      "ok": 263,
      "No": 264,
      "ter": 265,
      "ah": 266,
      "what": 267,
      "if": 268,
      "ry": 269,
      "ce": 270,
      "And": 271,
      "will": 272,
      "ct": 273,
      "mo": 274,
      "te": 275,
      "ck": 276,
      "they": 277,
      "ill": 278,
      "nt": 279,
      "op": 280,
      "get": 281,
      "na": 282,
      "ack": 283,
      "fe": 284,
      "ake": 285,
      "ain": 286,
      "here": 287,
      "so": 288,
      "il": 289,
      "him": 290,
      "them": 291,
      "don": 292,
      "wor": 293,
      "rom": 294,
      "right": 295,
      "our": 296,
      "sa": 297,
      "pl": 298,
      "ind": 299,
      "just": 300,
      "ight": 301,
      "ss": 302,
      "ever": 303,
      "way": 304,
      "who": 305,
      "man": 306,
      "ation": 307,
      "like": 308,
      "some": 309,
      "ol": 310,
      "ti": 311,
      "ate": 312,
      "there": 313,
      "con": 314,
      "tr": 315,
      "ap": 316,
      "ul": 317,
      "got": 318,
      "ure": 319,
      "All": 320,
      "from": 321,
      "ink": 322,
      "want": 323,
      "fo": 324,
      "ast": 325,
      "That": 326,
      "ong": 327,
      "art": 328,
      "ive": 329,
      "did": 330,
      "ers": 331,
      "ard": 332,
      "end": 333,
      "own": 334,
      "any": 335,
      "about": 336,
      "ge": 337,
      "ca": 338,
      "ig": 339,
      "but": 340,
      "com": 341,
      "her": 342,
      "ie": 343,
      "ex": 344,
      "bo": 345,
      "gu": 346,
      "use": 347,
      "po": 348,
      "But": 349,
      "come": 350,
      "ist": 351,
      "ak": 352,
      "see": 353,
      "This": 354,
      "eah": 355,
      "back": 356,
      "ess": 357,
      "ally": 358,
      "Oh": 359,
      "ven": 360,
      "think": 361,
      "ine": 362,
      "um": 363,
      "ound": 364,
      "lea": 365,
      "time": 366,
      "el": 367,
      "his": 368,
      "pro": 369,
      "ose": 370,
      "ile": 371,
      "by": 372,
      "ment": 373,
      "So": 374,
      "uck": 375,
      "ra": 376,
      "ord": 377,
      "ide": 378,
      "ice": 379,
      "ho": 380,
      "has": 381,
      "ue": 382,
      "say": 383,
      "age": 384,
      "gon": 385,
      "fa": 386,
      "Yeah": 387,
      "gonna": 388,
      "pp": 389,
      "They": 390,
      "need": 391,
      "would": 392,
      "Go": 393,
      "ace": 394,
      "going": 395,
      "when": 396,
      "pre": 397,
      "co": 398,
      "day": 399,
      "ep": 400,
      "good": 401,
      "down": 402,
      "ort": 403,
      "ick": 404,
      "been": 405,
      "Do": 406,
      "Hey": 407,
      "off": 408,
      "act": 409,
      "ear": 410,
      "how": 411,
      "Come": 412,
      "How": 413,
      "If": 414,
      "let": 415,
      "look": 416,
      "she": 417,
      "ire": 418,
      "lie": 419,
      "were": 420,
      "gr": 421,
      "their": 422,
      "other": 423,
      "Allah": 424,
      "ble": 425,
      "ity": 426,
      "Ok": 427,
      "alk": 428,
      "ous": 429,
      "ank": 430,
      "ass": 431,
      "God": 432,
      "could": 433,
      "had": 434,
      "lp": 435,
      "ople": 436,
      "In": 437,
      "sp": 438,
      "work": 439,
      "Well": 440,
      "ish": 441,
      "itt": 442,
      "sel": 443,
      "Okay": 444,
      "lease": 445,
      "cre": 446,
      "ang": 447,
      "urn": 448,
      "every": 449,
      "those": 450,
      "br": 451,
      "per": 452,
      "then": 453,
      "Lo": 454,
      "ber": 455,
      "able": 456,
      "tell": 457,
      "over": 458,
      "pt": 459,
      "su": 460,
      "She": 461,
      "fore": 462,
      "take": 463,
      "There": 464,
      "qu": 465,
      "Re": 466,
      "kill": 467,
      "ot": 468,
      "very": 469,
      "where": 470,
      "ough": 471,
      "should": 472,
      "af": 473,
      "sto": 474,
      "people": 475,
      "new": 476,
      "cause": 477,
      "dis": 478,
      "make": 479,
      "more": 480,
      "said": 481,
      "Don": 482,
      "Be": 483,
      "em": 484,
      "wo": 485,
      "ys": 486,
      "Let": 487,
      "ave": 488,
      "Ch": 489,
      "only": 490,
      "happ": 491,
      "belie": 492,
      "My": 493,
      "ach": 494,
      "ser": 495,
      "ving": 496,
      "spe": 497,
      "int": 498,
      "ans": 499,
      "something": 500,
      "call": 501,
      "und": 502,
      "ait": 503,
      "read": 504,
      "Who": 505,
      "name": 506,
      "too": 507,
      "ich": 508,
      "orry": 509,
      "help": 510,
      "ree": 511,
      "ite": 512,
      "didn": 513,
      "di": 514,
      "Get": 515,
      "Why": 516,
      "Yes": 517,
      "does": 518,
      "Se": 519,
      "pr": 520,
      "ull": 521,
      "St": 522,
      "bl": 523,
      "Are": 524,
      "ody": 525,
      "iz": 526,
      "love": 527,
      "iss": 528,
      "talk": 529,
      "turn": 530,
      "ance": 531,
      "au": 532,
      "ame": 533,
      "again": 534,
      "self": 535,
      "sha": 536,
      "never": 537,
      "gre": 538,
      "fuck": 539,
      "tor": 540,
      "ought": 541,
      ".\"": 542,
      "ask": 543,
      "ci": 544,
      "port": 545,
      "bet": 546,
      "ade": 547,
      "ath": 548,
      "ail": 549,
      "file": 550,
      "ty": 551,
      "ise": 552,
      "ittle": 553,
      "Just": 554,
      "Is": 555,
      "fir": 556,
      "Where": 557,
      "ction": 558,
      "Lord": 559,
      "really": 560,
      "body": 561,
      "ob": 562,
      "ated": 563,
      "may": 564,
      "Now": 565,
      "long": 566,
      "wr": 567,
      "believe": 568,
      "che": 569,
      "min": 570,
      "ved": 571,
      "put": 572,
      "ning": 573,
      "sure": 574,
      "little": 575,
      "doing": 576,
      "ting": 577,
      "happen": 578,
      "Can": 579,
      "ple": 580,
      "okay": 581,
      "Mo": 582,
      "find": 583,
      "atch": 584,
      "before": 585,
      "hand": 586,
      "old": 587,
      "away": 588,
      "into": 589,
      "still": 590,
      "ount": 591,
      "riend": 592,
      "part": 593,
      "than": 594,
      "stand": 595,
      "ful": 596,
      "str": 597,
      "Look": 598,
      "Sh": 599,
      "bu": 600,
      "give": 601,
      "ip": 602,
      "two": 603,
      "mu": 604,
      "life": 605,
      "An": 606,
      "ions": 607,
      "even": 608,
      "under": 609,
      "cur": 610,
      "friend": 611,
      "men": 612,
      "Not": 613,
      "cle": 614,
      "ye": 615,
      "car": 616,
      "won": 617,
      "year": 618,
      "red": 619,
      "head": 620,
      "ves": 621,
      "set": 622,
      "sorry": 623,
      "which": 624,
      "play": 625,
      "cl": 626,
      "Mr": 627,
      "mean": 628,
      "ies": 629,
      "these": 630,
      "cho": 631,
      "care": 632,
      "mon": 633,
      "De": 634,
      "Un": 635,
      "ect": 636,
      "ark": 637,
      "first": 638,
      "ft": 639,
      "ready": 640,
      "Ex": 641,
      "ange": 642,
      "llow": 643,
      "cont": 644,
      "why": 645,
      "form": 646,
      "00": 647,
      "made": 648,
      "ign": 649,
      "place": 650,
      "fer": 651,
      "Your": 652,
      "much": 653,
      "ild": 654,
      "list": 655,
      "try": 656,
      "home": 657,
      "move": 658,
      "To": 659,
      "Then": 660,
      "ult": 661,
      "Please": 662,
      "aw": 663,
      "after": 664,
      "ater": 665,
      "ary": 666,
      "sup": 667,
      "bro": 668,
      "night": 669,
      "ror": 670,
      "its": 671,
      "For": 672,
      "well": 673,
      "mer": 674,
      "ence": 675,
      "because": 676,
      "hu": 677,
      "ph": 678,
      "mem": 679,
      "shall": 680,
      "irl": 681,
      "side": 682,
      "ily": 683,
      "word": 684,
      "world": 685,
      "ta": 686,
      "thr": 687,
      "keep": 688,
      "--": 689,
      "val": 690,
      "run": 691,
      "lect": 692,
      "anything": 693,
      "miss": 694,
      "xt": 695,
      "Here": 696,
      "When": 697,
      "Thank": 698,
      "ev": 699,
      "att": 700,
      "top": 701,
      "son": 702,
      "sir": 703,
      "start": 704,
      "feel": 705,
      "girl": 706,
      "ix": 707,
      "Al": 708,
      "sent": 709,
      "ont": 710,
      "oney": 711,
      "father": 712,
      "bit": 713,
      "ia": 714,
      "des": 715,
      "guys": 716,
      "clo": 717,
      "last": 718,
      "must": 719,
      "ru": 720,
      "coming": 721,
      "ren": 722,
      "better": 723,
      "ower": 724,
      "Good": 725,
      "please": 726,
      "wait": 727,
      "around": 728,
      "En": 729,
      "wrong": 730,
      "war": 731,
      "kind": 732,
      "hell": 733,
      "used": 734,
      "ways": 735,
      "av": 736,
      "gi": 737,
      "hear": 738,
      "things": 739,
      "aking": 740,
      "ger": 741,
      "came": 742,
      "dy": 743,
      "told": 744,
      "less": 745,
      "key": 746,
      "leave": 747,
      "kid": 748,
      "thought": 749,
      "les": 750,
      "Did": 751,
      "ious": 752,
      "real": 753,
      "ey": 754,
      "mat": 755,
      "que": 756,
      "done": 757,
      "shit": 758,
      "May": 759,
      "found": 760,
      "ma": 761,
      "nothing": 762,
      "ith": 763,
      "ject": 764,
      "ward": 765,
      "ouse": 766,
      "land": 767,
      "years": 768,
      "On": 769,
      "cess": 770,
      "lot": 771,
      "col": 772,
      "show": 773,
      "pos": 774,
      "point": 775,
      "His": 776,
      "bab": 777,
      "dre": 778,
      "row": 779,
      "mess": 780,
      "ations": 781,
      "fin": 782,
      "mand": 783,
      "ons": 784,
      "Com": 785,
      "big": 786,
      "est": 787,
      "igh": 788,
      "lock": 789,
      "cond": 790,
      "ff": 791,
      "sy": 792,
      "left": 793,
      "heart": 794,
      "dead": 795,
      "fucking": 796,
      "Bo": 797,
      "oh": 798,
      "most": 799,
      "cour": 800,
      "light": 801,
      "stop": 802,
      "cri": 803,
      "der": 804,
      "mor": 805,
      "pen": 806,
      "Could": 807,
      "Pro": 808,
      "being": 809,
      "follow": 810,
      "understand": 811,
      "tri": 812,
      "great": 813,
      "member": 814,
      "through": 815,
      "One": 816,
      "cer": 817,
      "pass": 818,
      "As": 819,
      "Some": 820,
      "bad": 821,
      "ton": 822,
      "ash": 823,
      "die": 824,
      "ition": 825,
      "umber": 826,
      "ize": 827,
      "Ne": 828,
      "stay": 829,
      "ship": 830,
      "open": 831,
      "fl": 832,
      "plan": 833,
      "count": 834,
      "everything": 835,
      "bre": 836,
      "dr": 837,
      "ating": 838,
      "Every": 839,
      "res": 840,
      "guy": 841,
      "bring": 842,
      "fam": 843,
      "fight": 844,
      "tain": 845,
      "meet": 846,
      "cept": 847,
      "Le": 848,
      "might": 849,
      "another": 850,
      "Dad": 851,
      "Wait": 852,
      "line": 853,
      "ner": 854,
      "sin": 855,
      "ute": 856,
      "Or": 857,
      "unt": 858,
      "brother": 859,
      "led": 860,
      "aster": 861,
      "air": 862,
      "gin": 863,
      "sur": 864,
      "ud": 865,
      "tru": 866,
      "Right": 867,
      "Te": 868,
      "den": 869,
      "nor": 870,
      "ses": 871,
      "hold": 872,
      "'%": 873,
      "med": 874,
      "ict": 875,
      "child": 876,
      "erson": 877,
      "Move": 878,
      "gl": 879,
      "wer": 880,
      "killed": 881,
      "always": 882,
      "press": 883,
      "hur": 884,
      "jo": 885,
      "ually": 886,
      "three": 887,
      "same": 888,
      "Con": 889,
      "Gr": 890,
      "cr": 891,
      "dam": 892,
      "mar": 893,
      "money": 894,
      "talking": 895,
      "Our": 896,
      "Ro": 897,
      "Show": 898,
      "mind": 899,
      "vie": 900,
      "ars": 901,
      "vers": 902,
      "prom": 903,
      "ings": 904,
      "sho": 905,
      "doesn": 906,
      "mm": 907,
      "ident": 908,
      "Hell": 909,
      "boy": 910,
      "ls": 911,
      "clear": 912,
      "dif": 913,
      "ness": 914,
      "live": 915,
      "ces": 916,
      "ian": 917,
      "sign": 918,
      "ene": 919,
      "arm": 920,
      "mother": 921,
      "many": 922,
      "course": 923,
      "Me": 924,
      "uh": 925,
      "yeah": 926,
      "deed": 927,
      "bus": 928,
      "cy": 929,
      "cha": 930,
      "cal": 931,
      "face": 932,
      "full": 933,
      "power": 934,
      "wind": 935,
      "already": 936,
      "hard": 937,
      "best": 938,
      "room": 939,
      "comp": 940,
      "Because": 941,
      "Maybe": 942,
      "ase": 943,
      "fine": 944,
      "house": 945,
      "gotta": 946,
      "check": 947,
      "quest": 948,
      "cif": 949,
      "fr": 950,
      "la": 951,
      "while": 952,
      "fold": 953,
      "cu": 954,
      "fun": 955,
      "par": 956,
      "inter": 957,
      "ates": 958,
      "enough": 959,
      "lost": 960,
      "happened": 961,
      "ied": 962,
      "wan": 963,
      "next": 964,
      "someone": 965,
      "else": 966,
      "Take": 967,
      "ek": 968,
      "gen": 969,
      "sl": 970,
      "yet": 971,
      "family": 972,
      "cor": 973,
      "sing": 974,
      "rest": 975,
      "ages": 976,
      "wanted": 977,
      "order": 978,
      "saying": 979,
      "arch": 980,
      "second": 981,
      "Ar": 982,
      "ny": 983,
      "vis": 984,
      "eng": 985,
      "pect": 986,
      "blem": 987,
      "sm": 988,
      "reat": 989,
      "ters": 990,
      "person": 991,
      "watch": 992,
      "ors": 993,
      "earth": 994,
      "aught": 995,
      "trying": 996,
      "List": 997,
      "Tr": 998,
      "ctor": 999,
      "gone": 1000,
      "ts": 1001,
      "tory": 1002,
      "upon": 1003,
      "cannot": 1004,
      "problem": 1005,
      "against": 1006,
      "ible": 1007,
      "ste": 1008,
      "save": 1009,
      "gether": 1010,
      "fault": 1011,
      "listen": 1012,
      "truth": 1013,
      "Ad": 1014,
      "At": 1015,
      "Stop": 1016,
      "each": 1017,
      "number": 1018,
      "sou": 1019,
      "god": 1020,
      "ical": 1021,
      "looking": 1022,
      "wanna": 1023,
      "Say": 1024,
      "cent": 1025,
      "fig": 1026,
      "return": 1027,
      "seen": 1028,
      "change": 1029,
      "yourself": 1030,
      "gun": 1031,
      "rent": 1032,
      "load": 1033,
      "far": 1034,
      "ike": 1035,
      "send": 1036,
      "error": 1037,
      "together": 1038,
      "anyone": 1039,
      "Ind": 1040,
      "Pre": 1041,
      "cop": 1042,
      "fire": 1043,
      "remember": 1044,
      "ode": 1045,
      "opt": 1046,
      "saw": 1047,
      "Give": 1048,
      "game": 1049,
      "ps": 1050,
      "char": 1051,
      "New": 1052,
      "Have": 1053,
      "vice": 1054,
      "wit": 1055,
      "went": 1056,
      "iness": 1057,
      "without": 1058,
      "Er": 1059,
      "IN": 1060,
      "Sorry": 1061,
      "Will": 1062,
      "bar": 1063,
      "cut": 1064,
      "dri": 1065,
      "job": 1066,
      "sen": 1067,
      "akes": 1068,
      "folder": 1069,
      "Him": 1070,
      "ial": 1071,
      "swe": 1072,
      "walk": 1073,
      "took": 1074,
      "hands": 1075,
      "fast": 1076,
      "hour": 1077,
      "today": 1078,
      "app": 1079,
      "formation": 1080,
      "human": 1081,
      "view": 1082,
      "Hello": 1083,
      "Hi": 1084,
      "Man": 1085,
      "ica": 1086,
      "log": 1087,
      "ants": 1088,
      "ific": 1089,
      "selves": 1090,
      "Any": 1091,
      "differ": 1092,
      "cra": 1093,
      "ient": 1094,
      "ond": 1095,
      "ones": 1096,
      "ird": 1097,
      "fect": 1098,
      "friends": 1099,
      "baby": 1100,
      "Day": 1101,
      "Mess": 1102,
      "cus": 1103,
      "water": 1104,
      "oman": 1105,
      "See": 1106,
      "window": 1107,
      "Amer": 1108,
      "Br": 1109,
      "Dis": 1110,
      "Of": 1111,
      "sk": 1112,
      "hether": 1113,
      "alone": 1114,
      "ides": 1115,
      "getting": 1116,
      "true": 1117,
      "command": 1118,
      "idea": 1119,
      "sub": 1120,
      "Bl": 1121,
      "Ed": 1122,
      "Mom": 1123,
      "Pr": 1124,
      "aven": 1125,
      "ster": 1126,
      "also": 1127,
      "ush": 1128,
      "pret": 1129,
      "days": 1130,
      "color": 1131,
      "Sir": 1132,
      "gave": 1133,
      "ude": 1134,
      "fear": 1135,
      "trust": 1136,
      "given": 1137,
      "\"%": 1138,
      "Ma": 1139,
      "Su": 1140,
      "ather": 1141,
      "pun": 1142,
      "thank": 1143,
      "lead": 1144,
      "utes": 1145,
      "chang": 1146,
      "wasn": 1147,
      "both": 1148,
      "board": 1149,
      "ments": 1150,
      "hope": 1151,
      "phone": 1152,
      "Ver": 1153,
      "city": 1154,
      "dire": 1155,
      "ib": 1156,
      "win": 1157,
      "zy": 1158,
      "leep": 1159,
      "week": 1160,
      "knows": 1161,
      "chool": 1162,
      "Tell": 1163,
      "Ab": 1164,
      "Ho": 1165,
      "dad": 1166,
      "ris": 1167,
      "reas": 1168,
      "ory": 1169,
      "become": 1170,
      "wife": 1171,
      "among": 1172,
      "times": 1173,
      "anger": 1174,
      "Col": 1175,
      "Gu": 1176,
      "ither": 1177,
      "pol": 1178,
      "ten": 1179,
      "vi": 1180,
      "lear": 1181,
      "beli": 1182,
      "dest": 1183,
      "deal": 1184,
      "called": 1185,
      "minutes": 1186,
      "dress": 1187,
      "Car": 1188,
      "Pl": 1189,
      "cuse": 1190,
      "gg": 1191,
      "knew": 1192,
      "ned": 1193,
      "means": 1194,
      "vel": 1195,
      "select": 1196,
      "alive": 1197,
      "door": 1198,
      "known": 1199,
      "dec": 1200,
      "conne": 1201,
      "matter": 1202,
      "Sure": 1203,
      "blo": 1204,
      "eat": 1205,
      "resp": 1206,
      "safe": 1207,
      "guess": 1208,
      "brought": 1209,
      "Listen": 1210,
      "Ke": 1211,
      "Ser": 1212,
      "cord": 1213,
      "nice": 1214,
      "indeed": 1215,
      "tom": 1216,
      "met": 1217,
      "asy": 1218,
      "ried": 1219,
      "Help": 1220,
      "book": 1221,
      "such": 1222,
      "current": 1223,
      "huh": 1224,
      "Qu": 1225,
      "Uh": 1226,
      "mit": 1227,
      "pay": 1228,
      "school": 1229,
      "ister": 1230,
      "arry": 1231,
      "evers": 1232,
      "whole": 1233,
      "case": 1234,
      "working": 1235,
      "close": 1236,
      "wish": 1237,
      "ung": 1238,
      "prote": 1239,
      "files": 1240,
      "hurt": 1241,
      "),": 1242,
      "With": 1243,
      "az": 1244,
      "hit": 1245,
      "sit": 1246,
      "ised": 1247,
      "text": 1248,
      "mission": 1249,
      "eyes": 1250,
      "promise": 1251,
      "Che": 1252,
      "Mar": 1253,
      "OK": 1254,
      "hind": 1255,
      "path": 1256,
      "isn": 1257,
      "ween": 1258,
      "soon": 1259,
      "morning": 1260,
      "Open": 1261,
      "aut": 1262,
      "fre": 1263,
      "io": 1264,
      "pat": 1265,
      "stem": 1266,
      "whom": 1267,
      "These": 1268,
      "death": 1269,
      "shot": 1270,
      "actly": 1271,
      "evil": 1272,
      "tonight": 1273,
      "drink": 1274,
      "Dr": 1275,
      "Mer": 1276,
      "free": 1277,
      "ms": 1278,
      "pri": 1279,
      "woman": 1280,
      "ator": 1281,
      "ady": 1282,
      "image": 1283,
      "ents": 1284,
      "few": 1285,
      "sol": 1286,
      "wants": 1287,
      "actually": 1288,
      "cial": 1289,
      "month": 1290,
      ").": 1291,
      "Au": 1292,
      "bor": 1293,
      "ced": 1294,
      "lt": 1295,
      "main": 1296,
      "ual": 1297,
      "ane": 1298,
      "once": 1299,
      "ross": 1300,
      "worry": 1301,
      "umb": 1302,
      "between": 1303,
      "support": 1304,
      "until": 1305,
      "business": 1306,
      "Error": 1307,
      "10": 1308,
      "Cl": 1309,
      "Co": 1310,
      "Im": 1311,
      "Po": 1312,
      "Spe": 1313,
      "vo": 1314,
      "ison": 1315,
      "myself": 1316,
      "oper": 1317,
      "plic": 1318,
      "fail": 1319,
      "ground": 1320,
      "Select": 1321,
      "valid": 1322,
      "Per": 1323,
      "ago": 1324,
      "king": 1325,
      "mine": 1326,
      "ature": 1327,
      "behind": 1328,
      "ider": 1329,
      "unto": 1330,
      "ility": 1331,
      "ump": 1332,
      "Char": 1333,
      "maybe": 1334,
      "aughter": 1335,
      "believers": 1336,
      "Cre": 1337,
      "Fuck": 1338,
      "Hold": 1339,
      "Joh": 1340,
      "Set": 1341,
      "sound": 1342,
      "ins": 1343,
      "allow": 1344,
      "pretty": 1345,
      "Fr": 1346,
      "Jo": 1347,
      "Pe": 1348,
      "Sp": 1349,
      "high": 1350,
      "ime": 1351,
      "pack": 1352,
      "scre": 1353,
      "sleep": 1354,
      "haven": 1355,
      "roy": 1356,
      "raid": 1357,
      "coll": 1358,
      "system": 1359,
      "different": 1360,
      "ding": 1361,
      "five": 1362,
      "luck": 1363,
      "yes": 1364,
      "ata": 1365,
      "stu": 1366,
      "heard": 1367,
      "pped": 1368,
      "since": 1369,
      "damn": 1370,
      "John": 1371,
      "dou": 1372,
      "gent": 1373,
      "ited": 1374,
      "tem": 1375,
      "cons": 1376,
      "box": 1377,
      "comes": 1378,
      "says": 1379,
      "fav": 1380,
      "speak": 1381,
      "ai": 1382,
      "cap": 1383,
      "wn": 1384,
      "rel": 1385,
      "ork": 1386,
      "als": 1387,
      "ared": 1388,
      "enter": 1389,
      "train": 1390,
      "ext": 1391,
      "cover": 1392,
      "happy": 1393,
      "message": 1394,
      "Af": 1395,
      "lcome": 1396,
      "reg": 1397,
      "leg": 1398,
      "amp": 1399,
      "ield": 1400,
      "ailed": 1401,
      "Excuse": 1402,
      "?\"": 1403,
      "Em": 1404,
      "Sha": 1405,
      "ling": 1406,
      "law": 1407,
      "mom": 1408,
      "ring": 1409,
      "sc": 1410,
      "information": 1411,
      "ided": 1412,
      "chance": 1413,
      "ains": 1414,
      "action": 1415,
      "cret": 1416,
      "news": 1417,
      "specif": 1418,
      "type": 1419,
      "posed": 1420,
      "cript": 1421,
      "shoot": 1422,
      "crazy": 1423,
      "20": 1424,
      "det": 1425,
      "ouch": 1426,
      "ayer": 1427,
      "lose": 1428,
      "comple": 1429,
      "poss": 1430,
      "wouldn": 1431,
      "asked": 1432,
      "Shit": 1433,
      "Keep": 1434,
      "Fo": 1435,
      "File": 1436,
      "cry": 1437,
      "later": 1438,
      "though": 1439,
      "liver": 1440,
      "Those": 1441,
      "loc": 1442,
      "unch": 1443,
      "pose": 1444,
      "thinking": 1445,
      "Got": 1446,
      "everyone": 1447,
      "died": 1448,
      "surely": 1449,
      "party": 1450,
      "ING": 1451,
      "selected": 1452,
      "blood": 1453,
      "Like": 1454,
      "Nor": 1455,
      "ball": 1456,
      "ef": 1457,
      "hor": 1458,
      "mis": 1459,
      "taking": 1460,
      "inv": 1461,
      "rol": 1462,
      "yours": 1463,
      "using": 1464,
      "test": 1465,
      "fair": 1466,
      "punish": 1467,
      "Put": 1468,
      "daughter": 1469,
      "fall": 1470,
      "fil": 1471,
      "four": 1472,
      "mark": 1473,
      "outh": 1474,
      "having": 1475,
      "aren": 1476,
      "appoint": 1477,
      "exist": 1478,
      "bably": 1479,
      "AR": 1480,
      "By": 1481,
      "gan": 1482,
      "late": 1483,
      "pick": 1484,
      "inst": 1485,
      "least": 1486,
      "heaven": 1487,
      "beaut": 1488,
      "iful": 1489,
      "aste": 1490,
      "ards": 1491,
      "aken": 1492,
      "others": 1493,
      "display": 1494,
      "Thanks": 1495,
      "Book": 1496,
      "certain": 1497,
      "children": 1498,
      "Jack": 1499,
      "Make": 1500,
      "Sam": 1501,
      "ax": 1502,
      "bed": 1503,
      "cou": 1504,
      "low": 1505,
      "pull": 1506,
      "report": 1507,
      "ens": 1508,
      "search": 1509,
      "roll": 1510,
      "ries": 1511,
      "moving": 1512,
      "team": 1513,
      "trans": 1514,
      "except": 1515,
      "waiting": 1516,
      "dream": 1517,
      "break": 1518,
      "figure": 1519,
      "hours": 1520,
      "50": 1521,
      "Key": 1522,
      "Whether": 1523,
      "aj": 1524,
      "ier": 1525,
      "mur": 1526,
      "mag": 1527,
      "net": 1528,
      "ted": 1529,
      "hey": 1530,
      "fort": 1531,
      "arent": 1532,
      "Nothing": 1533,
      "America": 1534,
      "complete": 1535,
      "Ac": 1536,
      "Master": 1537,
      "Ste": 1538,
      "dro": 1539,
      "date": 1540,
      "hang": 1541,
      "pur": 1542,
      "pain": 1543,
      "sed": 1544,
      "sim": 1545,
      "inside": 1546,
      "hes": 1547,
      "add": 1548,
      "user": 1549,
      "gets": 1550,
      "food": 1551,
      "present": 1552,
      "couldn": 1553,
      "create": 1554,
      "afraid": 1555,
      "ches": 1556,
      "wonder": 1557,
      "soul": 1558,
      "destroy": 1559,
      "Mon": 1560,
      "du": 1561,
      "fix": 1562,
      "round": 1563,
      "thou": 1564,
      "eral": 1565,
      "reach": 1566,
      "ically": 1567,
      "hot": 1568,
      "faith": 1569,
      "itting": 1570,
      "answer": 1571,
      "attack": 1572,
      "front": 1573,
      "protect": 1574,
      "Cap": 1575,
      "Kill": 1576,
      "Res": 1577,
      "Use": 1578,
      "ik": 1579,
      "lf": 1580,
      "mill": 1581,
      "mount": 1582,
      "aring": 1583,
      "erest": 1584,
      "uture": 1585,
      "short": 1586,
      "whatever": 1587,
      "appe": 1588,
      "ular": 1589,
      "gest": 1590,
      "server": 1591,
      "bud": 1592,
      "curity": 1593,
      "words": 1594,
      "reason": 1595,
      "police": 1596,
      "After": 1597,
      "bag": 1598,
      "easy": 1599,
      "og": 1600,
      "phe": 1601,
      "ative": 1602,
      "town": 1603,
      "ities": 1604,
      "ara": 1605,
      "goes": 1606,
      "irst": 1607,
      "themselves": 1608,
      "bot": 1609,
      "works": 1610,
      "value": 1611,
      "Cop": 1612,
      "Ph": 1613,
      "danger": 1614,
      "future": 1615,
      "lin": 1616,
      "wed": 1617,
      "ham": 1618,
      "weap": 1619,
      "cool": 1620,
      "gram": 1621,
      "turned": 1622,
      "strong": 1623,
      "Shut": 1624,
      "buy": 1625,
      "giving": 1626,
      "Cal": 1627,
      "Cont": 1628,
      "Fl": 1629,
      "bull": 1630,
      "flo": 1631,
      "iv": 1632,
      "making": 1633,
      "past": 1634,
      "scare": 1635,
      "six": 1636,
      "vious": 1637,
      "ze": 1638,
      "state": 1639,
      "ify": 1640,
      "cell": 1641,
      "exactly": 1642,
      "boys": 1643,
      "host": 1644,
      "Stay": 1645,
      "black": 1646,
      "minute": 1647,
      "small": 1648,
      "failed": 1649,
      "beautiful": 1650,
      "12": 1651,
      "AN": 1652,
      "Bro": 1653,
      "Dam": 1654,
      "Even": 1655,
      "Fire": 1656,
      "Two": 1657,
      "Up": 1658,
      "cli": 1659,
      "fu": 1660,
      "gn": 1661,
      "touch": 1662,
      "taken": 1663,
      "oup": 1664,
      "reet": 1665,
      "asure": 1666,
      "himself": 1667,
      "saved": 1668,
      "anymore": 1669,
      "looks": 1670,
      "story": 1671,
      "serv": 1672,
      "started": 1673,
      "fully": 1674,
      "option": 1675,
      "Bu": 1676,
      "Name": 1677,
      "Par": 1678,
      "band": 1679,
      "dra": 1680,
      "eed": 1681,
      "makes": 1682,
      "pie": 1683,
      "rad": 1684,
      "ya": 1685,
      "thy": 1686,
      "iting": 1687,
      "step": 1688,
      "sell": 1689,
      "aled": 1690,
      "aces": 1691,
      "Which": 1692,
      "near": 1693,
      "ource": 1694,
      "plain": 1695,
      "special": 1696,
      "kids": 1697,
      "finish": 1698,
      "morrow": 1699,
      "Create": 1700,
      "Failed": 1701,
      "ged": 1702,
      "ng": 1703,
      "vill": 1704,
      "tomorrow": 1705,
      "enger": 1706,
      "acti": 1707,
      "ics": 1708,
      "expect": 1709,
      "probably": 1710,
      "choice": 1711,
      "supposed": 1712,
      "avail": 1713,
      "join": 1714,
      "question": 1715,
      "cument": 1716,
      "Bar": 1717,
      "Call": 1718,
      "Run": 1719,
      "Sa": 1720,
      "Save": 1721,
      "Time": 1722,
      "fle": 1723,
      "iet": 1724,
      "mb": 1725,
      "mod": 1726,
      "yle": 1727,
      "forget": 1728,
      "dog": 1729,
      "outside": 1730,
      "amer": 1731,
      "dev": 1732,
      "conf": 1733,
      "everybody": 1734,
      "pty": 1735,
      "object": 1736,
      "build": 1737,
      "running": 1738,
      "girls": 1739,
      "Only": 1740,
      "hearts": 1741,
      "tried": 1742,
      "possible": 1743,
      ".”": 1744,
      "30": 1745,
      "ER": 1746,
      "Her": 1747,
      "Jes": 1748,
      "King": 1749,
      "Would": 1750,
      "din": 1751,
      "data": 1752,
      "fic": 1753,
      "fly": 1754,
      "lic": 1755,
      "mist": 1756,
      "oc": 1757,
      "rat": 1758,
      "rup": 1759,
      "size": 1760,
      "une": 1761,
      "rep": 1762,
      "reve": 1763,
      "ley": 1764,
      "bear": 1765,
      "begin": 1766,
      "nel": 1767,
      "abo": 1768,
      "grand": 1769,
      "ized": 1770,
      "stru": 1771,
      "contin": 1772,
      "000": 1773,
      "bitch": 1774,
      "seconds": 1775,
      "Copy": 1776,
      "ID": 1777,
      "Mu": 1778,
      "Nice": 1779,
      "Wow": 1780,
      "ctory": 1781,
      "dist": 1782,
      "ost": 1783,
      "pa": 1784,
      "tw": 1785,
      "van": 1786,
      "vide": 1787,
      "along": 1788,
      "accept": 1789,
      "lies": 1790,
      "offer": 1791,
      "prison": 1792,
      "asking": 1793,
      "witch": 1794,
      "changed": 1795,
      "location": 1796,
      "murder": 1797,
      "Ben": 1798,
      "Know": 1799,
      "LE": 1800,
      "Never": 1801,
      "Opt": 1802,
      "Wr": 1803,
      "fit": 1804,
      "hon": 1805,
      "ler": 1806,
      "mid": 1807,
      "map": 1808,
      "sister": 1809,
      "uro": 1810,
      "wise": 1811,
      "oud": 1812,
      "ouble": 1813,
      "argu": 1814,
      "lete": 1815,
      "half": 1816,
      "lives": 1817,
      "rible": 1818,
      "dep": 1819,
      "aph": 1820,
      "ief": 1821,
      "proper": 1822,
      "Does": 1823,
      "ired": 1824,
      "created": 1825,
      "Everything": 1826,
      "connection": 1827,
      "Mor": 1828,
      "bt": 1829,
      "block": 1830,
      "eye": 1831,
      "fact": 1832,
      "field": 1833,
      "hate": 1834,
      "none": 1835,
      "pan": 1836,
      "ran": 1837,
      "ues": 1838,
      "vol": 1839,
      "ences": 1840,
      "bey": 1841,
      "omen": 1842,
      "import": 1843,
      "default": 1844,
      "interest": 1845,
      "blow": 1846,
      "firm": 1847,
      "happens": 1848,
      "position": 1849,
      "Something": 1850,
      "version": 1851,
      "stead": 1852,
      "Add": 1853,
      "available": 1854,
      "Jesus": 1855,
      "Act": 1856,
      "Bre": 1857,
      "Dav": 1858,
      "Hur": 1859,
      "ON": 1860,
      "Over": 1861,
      "Pri": 1862,
      "bur": 1863,
      "ele": 1864,
      "equ": 1865,
      "hi": 1866,
      "mome": 1867,
      "mus": 1868,
      "ni": 1869,
      "vir": 1870,
      "ense": 1871,
      "beat": 1872,
      "ased": 1873,
      "access": 1874,
      "ager": 1875,
      "tern": 1876,
      "soci": 1877,
      "track": 1878,
      "guard": 1879,
      "offic": 1880,
      "augh": 1881,
      "class": 1882,
      "contact": 1883,
      "punishment": 1884,
      "scared": 1885,
      "moment": 1886,
      "Find": 1887,
      "First": 1888,
      "Sup": 1889,
      "UR": 1890,
      "por": 1891,
      "pal": 1892,
      "tar": 1893,
      "ina": 1894,
      "tot": 1895,
      "stat": 1896,
      "stra": 1897,
      "sess": 1898,
      "secret": 1899,
      "ution": 1900,
      "ama": 1901,
      "omb": 1902,
      "peace": 1903,
      "entire": 1904,
      "ties": 1905,
      "pot": 1906,
      "Really": 1907,
      "prof": 1908,
      "write": 1909,
      "Cannot": 1910,
      "handle": 1911,
      "wards": 1912,
      "messages": 1913,
      "password": 1914,
      "country": 1915,
      "joy": 1916,
      "Indeed": 1917,
      "options": 1918,
      "Very": 1919,
      "stuff": 1920,
      "Back": 1921,
      "Bye": 1922,
      "Fold": 1923,
      "Pet": 1924,
      "ahead": 1925,
      "burn": 1926,
      "cure": 1927,
      "catch": 1928,
      "itor": 1929,
      "mal": 1930,
      "mail": 1931,
      "bel": 1932,
      "uration": 1933,
      "device": 1934,
      "ately": 1935,
      "els": 1936,
      "bye": 1937,
      "space": 1938,
      "sug": 1939,
      "control": 1940,
      "ledge": 1941,
      "buddy": 1942,
      ".'": 1943,
      "Ah": 1944,
      "Euro": 1945,
      "Great": 1946,
      "Har": 1947,
      "High": 1948,
      "IS": 1949,
      "Lu": 1950,
      "Other": 1951,
      "dle": 1952,
      "pu": 1953,
      "plo": 1954,
      "pap": 1955,
      "rid": 1956,
      "sick": 1957,
      "vent": 1958,
      "inn": 1959,
      "rece": 1960,
      "belong": 1961,
      "haps": 1962,
      "alog": 1963,
      "address": 1964,
      "dear": 1965,
      "ified": 1966,
      "pping": 1967,
      "Remove": 1968,
      "believed": 1969,
      "speed": 1970,
      "Start": 1971,
      "longer": 1972,
      "Unable": 1973,
      "feeling": 1974,
      "Everyone": 1975,
      "enemy": 1976,
      "Color": 1977,
      "People": 1978,
      "magic": 1979,
      "Captain": 1980,
      "Det": 1981,
      "Gen": 1982,
      "Je": 1983,
      "Off": 1984,
      "Us": 1985,
      "aim": 1986,
      "bird": 1987,
      "mad": 1988,
      "mach": 1989,
      "match": 1990,
      "mouth": 1991,
      "rist": 1992,
      "women": 1993,
      "ince": 1994,
      "requ": 1995,
      "security": 1996,
      "gold": 1997,
      "keys": 1998,
      "Three": 1999,
      "chan": 2000,
      "ending": 2001,
      "serve": 2002,
      "sweet": 2003,
      "months": 2004,
      "install": 2005,
      "million": 2006,
      "\".": 2007,
      "11": 2008,
      "AT": 2009,
      "Down": 2010,
      "From": 2011,
      "Harry": 2012,
      "IM": 2013,
      "La": 2014,
      "Oliver": 2015,
      "Pat": 2016,
      "gri": 2017,
      "laugh": 2018,
      "mil": 2019,
      "pop": 2020,
      "sme": 2021,
      "ub": 2022,
      "ug": 2023,
      "anim": 2024,
      "young": 2025,
      "arri": 2026,
      "ets": 2027,
      "Welcome": 2028,
      "upid": 2029,
      "shut": 2030,
      "fell": 2031,
      "hero": 2032,
      "cook": 2033,
      "spect": 2034,
      "tings": 2035,
      "string": 2036,
      "reng": 2037,
      "Command": 2038,
      "meeting": 2039,
      "Daddy": 2040,
      "charac": 2041,
      "connect": 2042,
      "Check": 2043,
      "doubt": 2044,
      "favor": 2045,
      "certainly": 2046,
      "above": 2047,
      "David": 2048,
      "Europe": 2049,
      "Dan": 2050,
      "Fe": 2051,
      "Gre": 2052,
      "Sy": 2053,
      "Wor": 2054,
      "base": 2055,
      "cod": 2056,
      "card": 2057,
      "either": 2058,
      "hus": 2059,
      "hund": 2060,
      "honey": 2061,
      "je": 2062,
      "mp": 2063,
      "sus": 2064,
      "sun": 2065,
      "tion": 2066,
      "vate": 2067,
      "ino": 2068,
      "ert": 2069,
      "rect": 2070,
      "remain": 2071,
      "medi": 2072,
      "streng": 2073,
      "uni": 2074,
      "knowledge": 2075,
      "tra": 2076,
      "fool": 2077,
      "iles": 2078,
      "pres": 2079,
      "ousand": 2080,
      "Invalid": 2081,
      "perfect": 2082,
      "quite": 2083,
      "killing": 2084,
      "shouldn": 2085,
      "Whoa": 2086,
      "auto": 2087,
      "carry": 2088,
      "choose": 2089,
      "glad": 2090,
      "signs": 2091,
      "drive": 2092,
      "Message": 2093,
      "learn": 2094,
      "Surely": 2095,
      "screen": 2096,
      "dangerous": 2097,
      "piece": 2098,
      "revealed": 2099,
      "hundred": 2100,
      "Number": 2101,
      "Was": 2102,
      "bid": 2103,
      "cident": 2104,
      "fill": 2105,
      "fish": 2106,
      "gy": 2107,
      "gain": 2108,
      "ili": 2109,
      "jud": 2110,
      "nation": 2111,
      "ped": 2112,
      "parent": 2113,
      "sort": 2114,
      "lly": 2115,
      "ital": 2116,
      "item": 2117,
      "itude": 2118,
      "nobody": 2119,
      "associ": 2120,
      "ices": 2121,
      "ication": 2122,
      "living": 2123,
      "somebody": 2124,
      "post": 2125,
      "seems": 2126,
      "needs": 2127,
      "ires": 2128,
      "group": 2129,
      "telling": 2130,
      "forever": 2131,
      "Remember": 2132,
      "serious": 2133,
      "ames": 2134,
      "minal": 2135,
      "Most": 2136,
      "Leave": 2137,
      "directory": 2138,
      "supported": 2139,
      "plication": 2140,
      "consider": 2141,
      "floor": 2142,
      "Damn": 2143,
      "Hurry": 2144,
      "straight": 2145,
      "Des": 2146,
      "El": 2147,
      "Que": 2148,
      "RO": 2149,
      "York": 2150,
      "_B": 2151,
      "ale": 2152,
      "bank": 2153,
      "bene": 2154,
      "cup": 2155,
      "hide": 2156,
      "iot": 2157,
      "page": 2158,
      "ray": 2159,
      "song": 2160,
      "oun": 2161,
      "remo": 2162,
      "ress": 2163,
      "tool": 2164,
      "level": 2165,
      "forgot": 2166,
      "doctor": 2167,
      "document": 2168,
      "uring": 2169,
      "Whatever": 2170,
      "concer": 2171,
      "trouble": 2172,
      "ulations": 2173,
      "ends": 2174,
      "suc": 2175,
      "quick": 2176,
      "Christ": 2177,
      "puter": 2178,
      "clean": 2179,
      "playing": 2180,
      "kidding": 2181,
      "ciful": 2182,
      "gener": 2183,
      "weeks": 2184,
      "Frank": 2185,
      "heavens": 2186,
      "husband": 2187,
      "\"?": 2188,
      "Cho": 2189,
      "Huh": 2190,
      "Ray": 2191,
      "Tod": 2192,
      "dance": 2193,
      "dark": 2194,
      "gard": 2195,
      "lar": 2196,
      "lad": 2197,
      "ners": 2198,
      "ride": 2199,
      "tt": 2200,
      "till": 2201,
      "thee": 2202,
      "reli": 2203,
      "record": 2204,
      "stair": 2205,
      "vest": 2206,
      "sex": 2207,
      "seven": 2208,
      "almost": 2209,
      "forgive": 2210,
      "ribut": 2211,
      "area": 2212,
      "aged": 2213,
      "ention": 2214,
      "defin": 2215,
      "feet": 2216,
      "tract": 2217,
      "foot": 2218,
      "office": 2219,
      "rug": 2220,
      "Enter": 2221,
      "figuration": 2222,
      "swear": 2223,
      "Messenger": 2224,
      "patient": 2225,
      "Charlie": 2226,
      "draw": 2227,
      "15": 2228,
      "Cor": 2229,
      "Ear": 2230,
      "Ge": 2231,
      "Ha": 2232,
      "Min": 2233,
      "Miss": 2234,
      "Pa": 2235,
      "Red": 2236,
      "Um": 2237,
      "Watch": 2238,
      "dut": 2239,
      "ks": 2240,
      "kes": 2241,
      "link": 2242,
      "os": 2243,
      "sion": 2244,
      "sight": 2245,
      "sides": 2246,
      "ume": 2247,
      "ught": 2248,
      "whether": 2249,
      "incl": 2250,
      "ony": 2251,
      "reward": 2252,
      "station": 2253,
      "street": 2254,
      "hel": 2255,
      "white": 2256,
      "idence": 2257,
      "doll": 2258,
      "Nobody": 2259,
      "tech": 2260,
      "sold": 2261,
      "worship": 2262,
      "endar": 2263,
      "anybody": 2264,
      "comm": 2265,
      "hoto": 2266,
      "bless": 2267,
      "empty": 2268,
      "print": 2269,
      "gress": 2270,
      "happening": 2271,
      "super": 2272,
      "deeds": 2273,
      "company": 2274,
      "Auto": 2275,
      "couple": 2276,
      "suggest": 2277,
      "smell": 2278,
      "Today": 2279,
      "':": 2280,
      "Am": 2281,
      "Jim": 2282,
      "Mark": 2283,
      "Sit": 2284,
      "Sar": 2285,
      "Sear": 2286,
      "Ter": 2287,
      "Turn": 2288,
      "bir": 2289,
      "cir": 2290,
      "camer": 2291,
      "drug": 2292,
      "eg": 2293,
      "font": 2294,
      "ken": 2295,
      "lan": 2296,
      "master": 2297,
      "ply": 2298,
      "tab": 2299,
      "zz": 2300,
      "thor": 2301,
      "thousand": 2302,
      "ero": 2303,
      "mes": 2304,
      "account": 2305,
      "road": 2306,
      "rock": 2307,
      "forth": 2308,
      "vern": 2309,
      "verse": 2310,
      "Think": 2311,
      "abled": 2312,
      "unk": 2313,
      "def": 2314,
      "worth": 2315,
      "seeing": 2316,
      "hood": 2317,
      "grant": 2318,
      "dialog": 2319,
      "More": 2320,
      "bug": 2321,
      "mercy": 2322,
      "attle": 2323,
      "Someone": 2324,
      "icture": 2325,
      "promised": 2326,
      "powerful": 2327,
      "single": 2328,
      "copy": 2329,
      "Americ": 2330,
      "Edit": 2331,
      "born": 2332,
      "lucky": 2333,
      "weapons": 2334,
      "mistake": 2335,
      "Options": 2336,
      "strength": 2337,
      "19": 2338,
      "Bob": 2339,
      "Ty": 2340,
      "Try": 2341,
      "Yo": 2342,
      "ba": 2343,
      "gion": 2344,
      "gather": 2345,
      "hid": 2346,
      "ji": 2347,
      "mode": 2348,
      "picture": 2349,
      "ral": 2350,
      "tre": 2351,
      "task": 2352,
      "ugin": 2353,
      "vive": 2354,
      "reco": 2355,
      "meant": 2356,
      "itch": 2357,
      "stupid": 2358,
      "lemen": 2359,
      "bell": 2360,
      "ows": 2361,
      "across": 2362,
      "wear": 2363,
      "apart": 2364,
      "anyway": 2365,
      "boat": 2366,
      "proof": 2367,
      "program": 2368,
      "preci": 2369,
      "worked": 2370,
      "disbelieve": 2371,
      "calling": 2372,
      "pray": 2373,
      "menu": 2374,
      "careful": 2375,
      "angels": 2376,
      "Too": 2377,
      "Once": 2378,
      "following": 2379,
      "surpr": 2380,
      "pressed": 2381,
      "hurry": 2382,
      "questions": 2383,
      "funny": 2384,
      "personal": 2385,
      "returned": 2386,
      "witness": 2387,
      "sky": 2388,
      "Black": 2389,
      "operation": 2390,
      "allowed": 2391,
      "appointed": 2392,
      "phet": 2393,
      "Folder": 2394,
      "parents": 2395,
      "Search": 2396,
      "!\"": 2397,
      "'?": 2398,
      "(%": 2399,
      "AP": 2400,
      "App": 2401,
      "Barry": 2402,
      "CH": 2403,
      "Cur": 2404,
      "Cong": 2405,
      "Li": 2406,
      "Rus": 2407,
      "Sat": 2408,
      "Sho": 2409,
      "Tom": 2410,
      "Vie": 2411,
      "Wind": 2412,
      "`%": 2413,
      "bri": 2414,
      "bath": 2415,
      "code": 2416,
      "fra": 2417,
      "rate": 2418,
      "squ": 2419,
      "sitting": 2420,
      "tick": 2421,
      "xim": 2422,
      "request": 2423,
      "respect": 2424,
      "atter": 2425,
      "army": 2426,
      "seat": 2427,
      "hamm": 2428,
      "dom": 2429,
      "ney": 2430,
      "agon": 2431,
      "terrible": 2432,
      "whose": 2433,
      "trave": 2434,
      "computer": 2435,
      "exper": 2436,
      "explain": 2437,
      "seek": 2438,
      "leaving": 2439,
      "suit": 2440,
      "store": 2441,
      "Change": 2442,
      "names": 2443,
      "dio": 2444,
      "ctions": 2445,
      "Mrs": 2446,
      "Delete": 2447,
      "warning": 2448,
      "married": 2449,
      "slow": 2450,
      "archive": 2451,
      "engers": 2452,
      "pected": 2453,
      "sense": 2454,
      "changes": 2455,
      "ibility": 2456,
      "decis": 2457,
      "respons": 2458,
      "sounds": 2459,
      "colle": 2460,
      "dinner": 2461,
      "Muhamm": 2462,
      "video": 2463,
      "music": 2464,
      "stairs": 2465,
      "duty": 2466,
      "Muhammad": 2467,
      "):": 2468,
      ",\"": 2469,
      "CP": 2470,
      "City": 2471,
      "Clear": 2472,
      "DE": 2473,
      "James": 2474,
      "Kr": 2475,
      "Light": 2476,
      "Last": 2477,
      "Mc": 2478,
      "Mal": 2479,
      "OR": 2480,
      "SA": 2481,
      "bs": 2482,
      "cat": 2483,
      "cing": 2484,
      "cast": 2485,
      "eth": 2486,
      "fac": 2487,
      "hum": 2488,
      "ius": 2489,
      "jail": 2490,
      "kick": 2491,
      "nes": 2492,
      "ric": 2493,
      "va": 2494,
      "wid": 2495,
      "incre": 2496,
      "ery": 2497,
      "stuck": 2498,
      "lex": 2499,
      "lection": 2500,
      "hath": 2501,
      "rop": 2502,
      "forward": 2503,
      "verily": 2504,
      "lip": 2505,
      "lived": 2506,
      "weak": 2507,
      "weird": 2508,
      "welcome": 2509,
      "neigh": 2510,
      "deep": 2511,
      "ift": 2512,
      "whoever": 2513,
      "therein": 2514,
      "ulti": 2515,
      "ended": 2516,
      "boss": 2517,
      "mention": 2518,
      "prep": 2519,
      "cold": 2520,
      "graph": 2521,
      "desk": 2522,
      "deser": 2523,
      "finally": 2524,
      "locked": 2525,
      "Couldn": 2526,
      "followed": 2527,
      "survive": 2528,
      "deny": 2529,
      "charge": 2530,
      "logy": 2531,
      "About": 2532,
      "Image": 2533,
      "tempt": 2534,
      "Actually": 2535,
      "'.": 2536,
      "18": 2537,
      ":%": 2538,
      "Close": 2539,
      "Father": 2540,
      "GN": 2541,
      "Home": 2542,
      "Had": 2543,
      "Ju": 2544,
      "Long": 2545,
      "Mm": 2546,
      "Must": 2547,
      "athe": 2548,
      "ffer": 2549,
      "ging": 2550,
      "har": 2551,
      "ience": 2552,
      "ju": 2553,
      "ki": 2554,
      "mir": 2555,
      "sil": 2556,
      "treat": 2557,
      "vic": 2558,
      "thent": 2559,
      "ref": 2560,
      "nock": 2561,
      "ali": 2562,
      "idiot": 2563,
      "kept": 2564,
      "nder": 2565,
      "...?": 2566,
      "Head": 2567,
      "within": 2568,
      "ife": 2569,
      "moon": 2570,
      "tel": 2571,
      "illy": 2572,
      "worried": 2573,
      "button": 2574,
      "prov": 2575,
      "raise": 2576,
      "needed": 2577,
      "itten": 2578,
      "stor": 2579,
      "itely": 2580,
      "Default": 2581,
      "format": 2582,
      "throw": 2583,
      "missing": 2584,
      "plane": 2585,
      "marry": 2586,
      "vision": 2587,
      "watching": 2588,
      "steal": 2589,
      "cops": 2590,
      "thanks": 2591,
      "cording": 2592,
      "Merciful": 2593,
      "solute": 2594,
      "simple": 2595,
      "lines": 2596,
      "active": 2597,
      "machine": 2598,
      "success": 2599,
      "religion": 2600,
      "vernment": 2601,
      "recogn": 2602,
      "100": 2603,
      "Ali": 2604,
      "Ca": 2605,
      "Five": 2606,
      "ME": 2607,
      "Nick": 2608,
      "Out": 2609,
      "Rel": 2610,
      "Son": 2611,
      "Sur": 2612,
      "Send": 2613,
      "UN": 2614,
      "Work": 2615,
      "Ye": 2616,
      "cute": 2617,
      "dare": 2618,
      "due": 2619,
      "eous": 2620,
      "fet": 2621,
      "ges": 2622,
      "jump": 2623,
      "ked": 2624,
      "lay": 2625,
      "mas": 2626,
      "nie": 2627,
      "pi": 2628,
      "ram": 2629,
      "rain": 2630,
      "tle": 2631,
      "uation": 2632,
      "wall": 2633,
      "ination": 2634,
      "instead": 2635,
      "ana": 2636,
      "remind": 2637,
      "towards": 2638,
      "....": 2639,
      "hair": 2640,
      "rob": 2641,
      "uts": 2642,
      "rif": 2643,
      "imag": 2644,
      "fee": 2645,
      "feed": 2646,
      "aint": 2647,
      "ilt": 2648,
      "worse": 2649,
      "ours": 2650,
      "process": 2651,
      "ucks": 2652,
      "rather": 2653,
      "leted": 2654,
      "spir": 2655,
      "Ready": 2656,
      "wood": 2657,
      "price": 2658,
      "fucker": 2659,
      "pleasure": 2660,
      "Always": 2661,
      "Enable": 2662,
      "Engl": 2663,
      "Conne": 2664,
      "Grand": 2665,
      "calm": 2666,
      "Print": 2667,
      "package": 2668,
      "specified": 2669,
      "cription": 2670,
      "Follow": 2671,
      "crypt": 2672,
      "purpose": 2673,
      "bottom": 2674,
      "mbol": 2675,
      "continue": 2676,
      "camera": 2677,
      "Congrat": 2678,
      "solutely": 2679,
      "English": 2680,
      "Ap": 2681,
      "Date": 2682,
      "Jer": 2683,
      "Mother": 2684,
      "Mary": 2685,
      "Ow": 2686,
      "Sim": 2687,
      "Text": 2688,
      "Val": 2689,
      "Wo": 2690,
      "bow": 2691,
      "bomb": 2692,
      "eight": 2693,
      "fan": 2694,
      "hy": 2695,
      "harm": 2696,
      "iam": 2697,
      "lady": 2698,
      "non": 2699,
      "ore": 2700,
      "photo": 2701,
      "ron": 2702,
      "vin": 2703,
      "wake": 2704,
      "onto": 2705,
      "reject": 2706,
      "lla": 2707,
      "iter": 2708,
      "stri": 2709,
      "style": 2710,
      "idance": 2711,
      "ghost": 2712,
      "icon": 2713,
      "vert": 2714,
      "los": 2715,
      "lying": 2716,
      "ops": 2717,
      "righteous": 2718,
      "tired": 2719,
      "appro": 2720,
      "anywhere": 2721,
      "exam": 2722,
      "oses": 2723,
      "grad": 2724,
      "ished": 2725,
      "itted": 2726,
      "Stand": 2727,
      "talked": 2728,
      "Should": 2729,
      "click": 2730,
      "diffic": 2731,
      "busy": 2732,
      "correct": 2733,
      "Display": 2734,
      "mountains": 2735,
      "appear": 2736,
      "Brother": 2737,
      "occur": 2738,
      "middle": 2739,
      "important": 2740,
      "birth": 2741,
      "Big": 2742,
      "FI": 2743,
      "Hu": 2744,
      "Moses": 2745,
      "Pol": 2746,
      "Page": 2747,
      "Pass": 2748,
      "San": 2749,
      "Sto": 2750,
      "Slow": 2751,
      "bast": 2752,
      "cross": 2753,
      "fat": 2754,
      "gar": 2755,
      "mate": 2756,
      "mouse": 2757,
      "push": 2758,
      "smo": 2759,
      "sive": 2760,
      "source": 2761,
      "takes": 2762,
      "island": 2763,
      "orig": 2764,
      "enjoy": 2765,
      "star": 2766,
      "ari": 2767,
      "arrow": 2768,
      "velo": 2769,
      "asses": 2770,
      "alth": 2771,
      "ality": 2772,
      "government": 2773,
      "loss": 2774,
      "lyn": 2775,
      "abs": 2776,
      "usion": 2777,
      "aming": 2778,
      "amount": 2779,
      "unity": 2780,
      "plugin": 2781,
      "somewhere": 2782,
      "application": 2783,
      "exc": 2784,
      "exe": 2785,
      "guest": 2786,
      "poor": 2787,
      "seem": 2788,
      "raised": 2789,
      "Lock": 2790,
      "quiet": 2791,
      "Chris": 2792,
      "blic": 2793,
      "blind": 2794,
      "cient": 2795,
      "Exactly": 2796,
      "broke": 2797,
      "Alright": 2798,
      "Prophet": 2799,
      "staying": 2800,
      "flow": 2801,
      "resident": 2802,
      "Left": 2803,
      "truly": 2804,
      "weren": 2805,
      "walking": 2806,
      "ificate": 2807,
      "AR_": 2808,
      "completely": 2809,
      "target": 2810,
      "_BAR_": 2811,
      "Earth": 2812,
      "decision": 2813,
      "Congratulations": 2814,
      "\",": 2815,
      ".’": 2816,
      "200": 2817,
      "AL": 2818,
      "CD": 2819,
      "Hang": 2820,
      "Hmm": 2821,
      "Mag": 2822,
      "Mart": 2823,
      "Part": 2824,
      "RE": 2825,
      "SS": 2826,
      "Sco": 2827,
      "bal": 2828,
      "ese": 2829,
      "fal": 2830,
      "fur": 2831,
      "hung": 2832,
      "ium": 2833,
      "kiss": 2834,
      "race": 2835,
      "za": 2836,
      "ined": 2837,
      "inal": 2838,
      "intell": 2839,
      "ann": 2840,
      "rec": 2841,
      "ened": 2842,
      "ename": 2843,
      "itary": 2844,
      "separ": 2845,
      "ason": 2846,
      "accident": 2847,
      "rog": 2848,
      "lier": 2849,
      "loved": 2850,
      "ched": 2851,
      "immedi": 2852,
      "amaz": 2853,
      "agree": 2854,
      "ently": 2855,
      "depart": 2856,
      "willing": 2857,
      "teach": 2858,
      "configuration": 2859,
      "trick": 2860,
      "ulation": 2861,
      "ures": 2862,
      "ounds": 2863,
      "history": 2864,
      "project": 2865,
      "preview": 2866,
      "Secret": 2867,
      "green": 2868,
      "partner": 2869,
      "Looks": 2870,
      "Shh": 2871,
      "Uncle": 2872,
      "ferences": 2873,
      "Tool": 2874,
      "runk": 2875,
      "event": 2876,
      "Everybody": 2877,
      "Blue": 2878,
      "Prof": 2879,
      "leader": 2880,
      "Joe": 2881,
      "gentlemen": 2882,
      "regular": 2883,
      "effect": 2884,
      "coun": 2885,
      "destroyed": 2886,
      "shortcut": 2887,
      "finished": 2888,
      "paper": 2889,
      "Green": 2890,
      "Queen": 2891,
      "Russ": 2892,
      "14": 2893,
      "25": 2894,
      "Air": 2895,
      "Afr": 2896,
      "Agent": 2897,
      "Four": 2898,
      "Jap": 2899,
      "Mad": 2900,
      "OT": 2901,
      "Path": 2902,
      "Ra": 2903,
      "Ri": 2904,
      "Script": 2905,
      "South": 2906,
      "Ten": 2907,
      "Top": 2908,
      "Tru": 2909,
      "dir": 2910,
      "elect": 2911,
      "flight": 2912,
      "hun": 2913,
      "jor": 2914,
      "ky": 2915,
      "ns": 2916,
      "oth": 2917,
      "pet": 2918,
      "park": 2919,
      "sof": 2920,
      "sad": 2921,
      "sna": 2922,
      "sche": 2923,
      "ines": 2924,
      "rection": 2925,
      "revel": 2926,
      "ston": 2927,
      "nore": 2928,
      "became": 2929,
      "besides": 2930,
      "hael": 2931,
      "idol": 2932,
      "acific": 2933,
      "ford": 2934,
      "lied": 2935,
      "White": 2936,
      "ira": 2937,
      "deliver": 2938,
      "tea": 2939,
      "cket": 2940,
      "felt": 2941,
      "ained": 2942,
      "mankind": 2943,
      "appreci": 2944,
      "ured": 2945,
      "cape": 2946,
      "guidance": 2947,
      "looked": 2948,
      "suffer": 2949,
      "torment": 2950,
      "ails": 2951,
      "partic": 2952,
      "standing": 2953,
      "mud": 2954,
      "claim": 2955,
      "ective": 2956,
      "aware": 2957,
      "memory": 2958,
      "missed": 2959,
      "Didn": 2960,
      "symbol": 2961,
      "Ask": 2962,
      "planet": 2963,
      "result": 2964,
      "normal": 2965,
      "pression": 2966,
      "corrup": 2967,
      "Trust": 2968,
      "India": 2969,
      "Anything": 2970,
      "Guys": 2971,
      "balls": 2972,
      "horse": 2973,
      "drop": 2974,
      "wedding": 2975,
      "radio": 2976,
      "ville": 2977,
      "devil": 2978,
      "honor": 2979,
      "totally": 2980,
      "status": 2981,
      "channel": 2982,
      "coding": 2983,
      "Relax": 2984,
      "difficult": 2985,
      "false": 2986,
      "Ant": 2987,
      "Alex": 2988,
      "Cha": 2989,
      "Del": 2990,
      "Fil": 2991,
      "Fine": 2992,
      "Hand": 2993,
      "Happ": 2994,
      "Line": 2995,
      "Mic": 2996,
      "None": 2997,
      "Next": 2998,
      "Pull": 2999,
      "Pacific": 3000,
      "Ram": 3001,
      "User": 3002,
      "bound": 3003,
      "cof": 3004,
      "eve": 3005,
      "ech": 3006,
      "gas": 3007,
      "han": 3008,
      "ians": 3009,
      "ived": 3010,
      "len": 3011,
      "obey": 3012,
      "pes": 3013,
      "sco": 3014,
      "scar": 3015,
      "vict": 3016,
      "input": 3017,
      "invalid": 3018,
      "invest": 3019,
      "remove": 3020,
      "itself": 3021,
      "stit": 3022,
      "stick": 3023,
      "stars": 3024,
      "arling": 3025,
      "selection": 3026,
      "idge": 3027,
      "force": 3028,
      "onest": 3029,
      "necess": 3030,
      "neither": 3031,
      "aby": 3032,
      "abase": 3033,
      "terror": 3034,
      "worst": 3035,
      "places": 3036,
      "justice": 3037,
      "tie": 3038,
      "confirm": 3039,
      "tran": 3040,
      "owned": 3041,
      "caught": 3042,
      "guided": 3043,
      "inese": 3044,
      "Information": 3045,
      "spend": 3046,
      "bert": 3047,
      "Chinese": 3048,
      "service": 3049,
      "loves": 3050,
      "turns": 3051,
      "strange": 3052,
      "evening": 3053,
      "setting": 3054,
      "Unknown": 3055,
      "evidence": 3056,
      "starting": 3057,
      "clock": 3058,
      "dying": 3059,
      "iously": 3060,
      "ffic": 3061,
      "passed": 3062,
      "label": 3063,
      "smart": 3064,
      "Att": 3065,
      "gods": 3066,
      "guns": 3067,
      "custom": 3068,
      "Bring": 3069,
      "subject": 3070,
      "Sub": 3071,
      "Verily": 3072,
      "direct": 3073,
      "fresh": 3074,
      "voice": 3075,
      "Perhaps": 3076,
      "Keyboard": 3077,
      "fixed": 3078,
      "weapon": 3079,
      "building": 3080,
      "element": 3081,
      "officer": 3082,
      "belongs": 3083,
      "BI": 3084,
      "Ba": 3085,
      "Eat": 3086,
      "Edi": 3087,
      "Font": 3088,
      "Has": 3089,
      "Mail": 3090,
      "Pan": 3091,
      "President": 3092,
      "Sm": 3093,
      "Since": 3094,
      "US": 3095,
      "Vic": 3096,
      "bat": 3097,
      "da": 3098,
      "drunk": 3099,
      "hop": 3100,
      "hmm": 3101,
      "jack": 3102,
      "nal": 3103,
      "nature": 3104,
      "ping": 3105,
      "sor": 3106,
      "sal": 3107,
      "sac": 3108,
      "swi": 3109,
      "sum": 3110,
      "tree": 3111,
      "ule": 3112,
      "threat": 3113,
      "atur": 3114,
      "ism": 3115,
      "besto": 3116,
      "acher": 3117,
      "rot": 3118,
      "forbid": 3119,
      "loy": 3120,
      "odd": 3121,
      "abl": 3122,
      "ury": 3123,
      "urrection": 3124,
      "demon": 3125,
      "moves": 3126,
      "motion": 3127,
      "soever": 3128,
      "truck": 3129,
      "apo": 3130,
      "comfort": 3131,
      "guage": 3132,
      "pool": 3133,
      "orders": 3134,
      "hole": 3135,
      "hosp": 3136,
      "pread": 3137,
      "earlier": 3138,
      "grow": 3139,
      "stopped": 3140,
      "Chan": 3141,
      "calls": 3142,
      "share": 3143,
      "contain": 3144,
      "igned": 3145,
      "attach": 3146,
      "Project": 3147,
      "cert": 3148,
      "Asia": 3149,
      "fighting": 3150,
      "survi": 3151,
      "crap": 3152,
      "arms": 3153,
      "chall": 3154,
      "slave": 3155,
      "engine": 3156,
      "Trans": 3157,
      "south": 3158,
      "driving": 3159,
      "Mommy": 3160,
      "Holy": 3161,
      "Server": 3162,
      "currently": 3163,
      "umbers": 3164,
      "double": 3165,
      "North": 3166,
      "filter": 3167,
      "network": 3168,
      "servants": 3169,
      "Break": 3170,
      "equal": 3171,
      "General": 3172,
      "character": 3173,
      "large": 3174,
      "American": 3175,
      "Type": 3176,
      "Shoot": 3177,
      "frame": 3178,
      "width": 3179,
      "immediately": 3180,
      "Happy": 3181,
      "coffee": 3182,
      "investig": 3183,
      "',": 3184,
      "13": 3185,
      "AS": 3186,
      "Dri": 3187,
      "Dire": 3188,
      "Dude": 3189,
      "EL": 3190,
      "Ger": 3191,
      "Gor": 3192,
      "Game": 3193,
      "IF": 3194,
      "Med": 3195,
      "Mus": 3196,
      "Mmm": 3197,
      "Night": 3198,
      "Ob": 3199,
      "Pot": 3200,
      "Rob": 3201,
      "Scre": 3202,
      "Sign": 3203,
      "War": 3204,
      "Word": 3205,
      "Walk": 3206,
      "ban": 3207,
      "gra": 3208,
      "ior": 3209,
      "mort": 3210,
      "mix": 3211,
      "multi": 3212,
      "nig": 3213,
      "pers": 3214,
      "pix": 3215,
      "psy": 3216,
      "spl": 3217,
      "tro": 3218,
      "tail": 3219,
      "vere": 3220,
      "vous": 3221,
      "ws": 3222,
      "wis": 3223,
      "xy": 3224,
      "thin": 3225,
      "ret": 3226,
      "atabase": 3227,
      "meth": 3228,
      "inger": 3229,
      "ites": 3230,
      "stall": 3231,
      "sea": 3232,
      "secure": 3233,
      "nother": 3234,
      "andon": 3235,
      "hast": 3236,
      "acy": 3237,
      "acing": 3238,
      "aced": 3239,
      "according": 3240,
      "ico": 3241,
      "wel": 3242,
      "weight": 3243,
      "local": 3244,
      "ague": 3245,
      "peat": 3246,
      "ante": 3247,
      "iling": 3248,
      "ourselves": 3249,
      "ationship": 3250,
      "sometimes": 3251,
      "ateg": 3252,
      "therefore": 3253,
      "trap": 3254,
      "geant": 3255,
      "exp": 3256,
      "background": 3257,
      "ordin": 3258,
      "lieve": 3259,
      "spent": 3260,
      "sport": 3261,
      "belief": 3262,
      "prayer": 3263,
      "author": 3264,
      "authent": 3265,
      "writing": 3266,
      "gives": 3267,
      "chosen": 3268,
      "sons": 3269,
      "rench": 3270,
      "Enough": 3271,
      "possess": 3272,
      "Comp": 3273,
      "bigger": 3274,
      "establ": 3275,
      "tribut": 3276,
      "flict": 3277,
      "brothers": 3278,
      "iction": 3279,
      "Rock": 3280,
      "shole": 3281,
      "cuments": 3282,
      "problems": 3283,
      "loading": 3284,
      "ification": 3285,
      "windows": 3286,
      "Carol": 3287,
      "decided": 3288,
      "respond": 3289,
      "Import": 3290,
      "Speak": 3291,
      "Settings": 3292,
      "scene": 3293,
      "deter": 3294,
      "accepted": 3295,
      "panel": 3296,
      "volution": 3297,
      "beyond": 3298,
      "URI": 3299,
      "total": 3300,
      "Peter": 3301,
      "military": 3302,
      "automat": 3303,
      "judge": 3304,
      "definitely": 3305,
      "amazing": 3306,
      "necessary": 3307,
      "fficient": 3308,
      "24": 3309,
      "Aw": 3310,
      "Again": 3311,
      "Bat": 3312,
      "Bad": 3313,
      "Cut": 3314,
      "Drop": 3315,
      "Evolution": 3316,
      "Free": 3317,
      "HT": 3318,
      "Hit": 3319,
      "II": 3320,
      "IP": 3321,
      "Ken": 3322,
      "LA": 3323,
      "Lad": 3324,
      "Little": 3325,
      "MS": 3326,
      "Men": 3327,
      "Ooh": 3328,
      "OME": 3329,
      "Pick": 3330,
      "Rot": 3331,
      "Rich": 3332,
      "Sal": 3333,
      "Won": 3334,
      "].": 3335,
      "bought": 3336,
      "cas": 3337,
      "cere": 3338,
      "dan": 3339,
      "fed": 3340,
      "fru": 3341,
      "hat": 3342,
      "knock": 3343,
      "lord": 3344,
      "miles": 3345,
      "range": 3346,
      "sn": 3347,
      "switch": 3348,
      "tu": 3349,
      "tit": 3350,
      "tur": 3351,
      "taught": 3352,
      "taste": 3353,
      "xpected": 3354,
      "init": 3355,
      "inno": 3356,
      "incess": 3357,
      "reme": 3358,
      "andy": 3359,
      "alright": 3360,
      "wire": 3361,
      "doers": 3362,
      "doors": 3363,
      "wealth": 3364,
      "onel": 3365,
      "yourselves": 3366,
      "Their": 3367,
      "upd": 3368,
      "uncle": 3369,
      "unbelievers": 3370,
      "knowing": 3371,
      "decl": 3372,
      "cks": 3373,
      "oph": 3374,
      "manager": 3375,
      "ateful": 3376,
      "apost": 3377,
      "focus": 3378,
      "cale": 3379,
      "iel": 3380,
      "explo": 3381,
      "guides": 3382,
      "prove": 3383,
      "acting": 3384,
      "grateful": 3385,
      "perman": 3386,
      "perform": 3387,
      "permission": 3388,
      "perhaps": 3389,
      "disabled": 3390,
      "named": 3391,
      "izont": 3392,
      "cience": 3393,
      "obvious": 3394,
      "partners": 3395,
      "curse": 3396,
      "yester": 3397,
      "Except": 3398,
      "suppose": 3399,
      "keeping": 3400,
      "values": 3401,
      "girlfriend": 3402,
      "closer": 3403,
      "rules": 3404,
      "opened": 3405,
      "drag": 3406,
      "pressure": 3407,
      "champ": 3408,
      "compan": 3409,
      "launch": 3410,
      "function": 3411,
      "gency": 3412,
      "Address": 3413,
      "Previous": 3414,
      "games": 3415,
      "ski": 3416,
      "Carl": 3417,
      "Play": 3418,
      "Quick": 3419,
      "situation": 3420,
      "freed": 3421,
      "freak": 3422,
      "capt": 3423,
      "relationship": 3424,
      "covered": 3425,
      "figured": 3426,
      "wondering": 3427,
      "reached": 3428,
      "bullet": 3429,
      "steps": 3430,
      "Knowing": 3431,
      "argument": 3432,
      "receive": 3433,
      "World": 3434,
      "hidden": 3435,
      "brief": 3436,
      "prepared": 3437,
      "GNOME": 3438,
      "spirit": 3439,
      "birthday": 3440,
      "hungry": 3441,
      "intellig": 3442,
      "Africa": 3443,
      "Editor": 3444,
      "yesterday": 3445,
      "23": 3446,
      "70": 3447,
      "Another": 3448,
      "Bay": 3449,
      "Block": 3450,
      "CK": 3451,
      "Center": 3452,
      "East": 3453,
      "Easy": 3454,
      "Fight": 3455,
      "Full": 3456,
      "Hor": 3457,
      "Honey": 3458,
      "Ly": 3459,
      "Layer": 3460,
      "MP": 3461,
      "Mat": 3462,
      "Mur": 3463,
      "Mak": 3464,
      "OP": 3465,
      "Pen": 3466,
      "Qur": 3467,
      "RA": 3468,
      "Ry": 3469,
      "Ret": 3470,
      "Rad": 3471,
      "Sol": 3472,
      "Sher": 3473,
      "Six": 3474,
      "Size": 3475,
      "Sara": 3476,
      "TA": 3477,
      "TP": 3478,
      "Tha": 3479,
      "Tur": 3480,
      "Talk": 3481,
      "Tem": 3482,
      "Under": 3483,
      "Way": 3484,
      "Wise": 3485,
      "],": 3486,
      "aur": 3487,
      "bin": 3488,
      "bill": 3489,
      "camp": 3490,
      "during": 3491,
      "faster": 3492,
      "gger": 3493,
      "hic": 3494,
      "mi": 3495,
      "mask": 3496,
      "oo": 3497,
      "ov": 3498,
      "oid": 3499,
      "py": 3500,
      "pow": 3501,
      "piss": 3502,
      "spo": 3503,
      "sword": 3504,
      "tag": 3505,
      "table": 3506,
      "treas": 3507,
      "uu": 3508,
      "vy": 3509,
      "vor": 3510,
      "waste": 3511,
      "zing": 3512,
      "zen": 3513,
      "iny": 3514,
      "ern": 3515,
      "onse": 3516,
      "rew": 3517,
      "enem": 3518,
      "stone": 3519,
      "stud": 3520,
      "edge": 3521,
      "lean": 3522,
      "held": 3523,
      "vehic": 3524,
      "section": 3525,
      "asing": 3526,
      "asshole": 3527,
      "escape": 3528,
      "hall": 3529,
      "owe": 3530,
      "idings": 3531,
      "icide": 3532,
      "roof": 3533,
      "likes": 3534,
      "ading": 3535,
      "cher": 3536,
      "chief": 3537,
      "ability": 3538,
      "images": 3539,
      "amond": 3540,
      "unjust": 3541,
      "unknown": 3542,
      "wash": 3543,
      "entry": 3544,
      "ential": 3545,
      "antic": 3546,
      "ifest": 3547,
      "ceed": 3548,
      "cele": 3549,
      "ilities": 3550,
      "plant": 3551,
      "convers": 3552,
      "tray": 3553,
      "astray": 3554,
      "ignore": 3555,
      "common": 3556,
      "exit": 3557,
      "boo": 3558,
      "essor": 3559,
      "umn": 3560,
      "hasn": 3561,
      "pper": 3562,
      "cost": 3563,
      "grab": 3564,
      "creation": 3565,
      "brain": 3566,
      "aff": 3567,
      "Before": 3568,
      "speaking": 3569,
      "speech": 3570,
      "helped": 3571,
      "diamond": 3572,
      "Stat": 3573,
      "built": 3574,
      "heads": 3575,
      "monster": 3576,
      "attribut": 3577,
      "rule": 3578,
      "wronged": 3579,
      "avy": 3580,
      "crime": 3581,
      "Somebody": 3582,
      "breathe": 3583,
      "denied": 3584,
      "north": 3585,
      "joke": 3586,
      "compet": 3587,
      "checking": 3588,
      "visible": 3589,
      "souls": 3590,
      "center": 3591,
      "returns": 3592,
      "sending": 3593,
      "Preferences": 3594,
      "humans": 3595,
      "response": 3596,
      "Seriously": 3597,
      "Click": 3598,
      "collect": 3599,
      "exists": 3600,
      "Account": 3601,
      "hanging": 3602,
      "Resurrection": 3603,
      "Calendar": 3604,
      "bullshit": 3605,
      "village": 3606,
      "flesh": 3607,
      "beginning": 3608,
      "struction": 3609,
      "tware": 3610,
      "characters": 3611,
      "items": 3612,
      "benefit": 3613,
      "remote": 3614,
      "Cause": 3615,
      "imagine": 3616,
      "hospital": 3617,
      "enemies": 3618,
      "40": 3619,
      "Action": 3620,
      "Bes": 3621,
      "Cr": 3622,
      "Cent": 3623,
      "Di": 3624,
      "ES": 3625,
      "Fin": 3626,
      "Fit": 3627,
      "Fall": 3628,
      "FBI": 3629,
      "GP": 3630,
      "Hard": 3631,
      "Jud": 3632,
      "Lam": 3633,
      "MA": 3634,
      "Mid": 3635,
      "Mac": 3636,
      "Mod": 3637,
      "Mike": 3638,
      "Pu": 3639,
      "Power": 3640,
      "Rep": 3641,
      "Sing": 3642,
      "Source": 3643,
      "Tre": 3644,
      "Unt": 3645,
      "Wake": 3646,
      "cto": 3647,
      "cab": 3648,
      "cation": 3649,
      "cul": 3650,
      "cend": 3651,
      "dick": 3652,
      "fant": 3653,
      "fif": 3654,
      "fol": 3655,
      "gust": 3656,
      "gate": 3657,
      "gment": 3658,
      "honest": 3659,
      "kne": 3660,
      "layer": 3661,
      "nu": 3662,
      "nine": 3663,
      "nick": 3664,
      "oom": 3665,
      "pin": 3666,
      "rout": 3667,
      "rich": 3668,
      "san": 3669,
      "sand": 3670,
      "snow": 3671,
      "shad": 3672,
      "tank": 3673,
      "tidings": 3674,
      "vac": 3675,
      "wing": 3676,
      "wick": 3677,
      "ering": 3678,
      "istr": 3679,
      "ita": 3680,
      "nose": 3681,
      "nology": 3682,
      "alter": 3683,
      "role": 3684,
      "root": 3685,
      "eta": 3686,
      "etc": 3687,
      "lder": 3688,
      "formed": 3689,
      "adise": 3690,
      "riage": 3691,
      "wearing": 3692,
      "output": 3693,
      "shop": 3694,
      "iff": 3695,
      "movie": 3696,
      "manifest": 3697,
      "olf": 3698,
      "ulous": 3699,
      "owner": 3700,
      "compen": 3701,
      "complic": 3702,
      "guide": 3703,
      "produ": 3704,
      "whenever": 3705,
      "shell": 3706,
      "quit": 3707,
      "quar": 3708,
      "kills": 3709,
      "disbelievers": 3710,
      "spell": 3711,
      "reading": 3712,
      "dies": 3713,
      "Security": 3714,
      "blue": 3715,
      "Isn": 3716,
      "Island": 3717,
      "headed": 3718,
      "settings": 3719,
      "United": 3720,
      "Forgiving": 3721,
      "closed": 3722,
      "Eng": 3723,
      "hearing": 3724,
      "realize": 3725,
      "lots": 3726,
      "showed": 3727,
      "final": 3728,
      "condition": 3729,
      "flu": 3730,
      "holding": 3731,
      "Roy": 3732,
      "Max": 3733,
      "risk": 3734,
      "Colonel": 3735,
      "gging": 3736,
      "ggle": 3737,
      "private": 3738,
      "Class": 3739,
      "sleeping": 3740,
      "favour": 3741,
      "legs": 3742,
      "displayed": 3743,
      "transfer": 3744,
      "araoh": 3745,
      "Pharaoh": 3746,
      "activ": 3747,
      "expected": 3748,
      "flying": 3749,
      "public": 3750,
      "birds": 3751,
      "required": 3752,
      "suspect": 3753,
      "president": 3754,
      "quickly": 3755,
      "Choose": 3756,
      "dollars": 3757,
      "technology": 3758,
      "granted": 3759,
      "desktop": 3760,
      "deserve": 3761,
      "storm": 3762,
      "occurred": 3763,
      "Stock": 3764,
      "further": 3765,
      "revelations": 3766,
      "Besides": 3767,
      ".]": 3768,
      "60": 3769,
      "Adam": 3770,
      "CJ": 3771,
      "Cance": 3772,
      "Dave": 3773,
      "Dark": 3774,
      "End": 3775,
      "Fel": 3776,
      "French": 3777,
      "Hy": 3778,
      "House": 3779,
      "Jam": 3780,
      "Kind": 3781,
      "Lon": 3782,
      "ML": 3783,
      "PN": 3784,
      "Pap": 3785,
      "Rever": 3786,
      "Sun": 3787,
      "Sil": 3788,
      "TS": 3789,
      "TV": 3790,
      "Tab": 3791,
      "Tra": 3792,
      "Vir": 3793,
      "Vide": 3794,
      "Yu": 3795,
      "\\\\": 3796,
      "bust": 3797,
      "bra": 3798,
      "bite": 3799,
      "bucks": 3800,
      "cous": 3801,
      "egg": 3802,
      "fate": 3803,
      "iod": 3804,
      "kn": 3805,
      "lam": 3806,
      "mut": 3807,
      "mitted": 3808,
      "nuts": 3809,
      "pair": 3810,
      "pants": 3811,
      "rough": 3812,
      "sat": 3813,
      "spot": 3814,
      "spread": 3815,
      "tun": 3816,
      "tough": 3817,
      "uk": 3818,
      "uce": 3819,
      "vil": 3820,
      "zero": 3821,
      "ergy": 3822,
      "thes": 3823,
      "reck": 3824,
      "replace": 3825,
      "aters": 3826,
      "attempt": 3827,
      "tori": 3828,
      "lle": 3829,
      "measure": 3830,
      "ora": 3831,
      "orph": 3832,
      "organ": 3833,
      "stant": 3834,
      "stage": 3835,
      "editor": 3836,
      "arrest": 3837,
      "vey": 3838,
      "belt": 3839,
      "below": 3840,
      "asleep": 3841,
      "ald": 3842,
      "alty": 3843,
      "ache": 3844,
      "goin": 3845,
      "icine": 3846,
      "rodu": 3847,
      "forgiven": 3848,
      "advice": 3849,
      "West": 3850,
      "Thea": 3851,
      "agent": 3852,
      "demand": 3853,
      "delete": 3854,
      "shown": 3855,
      "termin": 3856,
      "moved": 3857,
      "acks": 3858,
      "gotten": 3859,
      "expl": 3860,
      "excuse": 3861,
      "uses": 3862,
      "ists": 3863,
      "ession": 3864,
      "thinks": 3865,
      "rael": 3866,
      "actions": 3867,
      "Inter": 3868,
      "cred": 3869,
      "crew": 3870,
      "Love": 3871,
      "sufficient": 3872,
      "emer": 3873,
      "emplo": 3874,
      "served": 3875,
      "pract": 3876,
      "proud": 3877,
      "Still": 3878,
      "States": 3879,
      "bling": 3880,
      "bled": 3881,
      "ization": 3882,
      "lovely": 3883,
      "tors": 3884,
      "Israel": 3885,
      "Export": 3886,
      "memor": 3887,
      "Hereafter": 3888,
      "starts": 3889,
      "fathers": 3890,
      "rence": 3891,
      "showing": 3892,
      "Boss": 3893,
      "nervous": 3894,
      "sins": 3895,
      "Grace": 3896,
      "crash": 3897,
      "Roger": 3898,
      "clearly": 3899,
      "motherfucker": 3900,
      "calendar": 3901,
      "checked": 3902,
      "corn": 3903,
      "ength": 3904,
      "walked": 3905,
      "direction": 3906,
      "Absolutely": 3907,
      "Hope": 3908,
      "learned": 3909,
      "decide": 3910,
      "pattern": 3911,
      "Johnny": 3912,
      "Files": 3913,
      "film": 3914,
      "appointment": 3915,
      "dreams": 3916,
      "Steve": 3917,
      "painful": 3918,
      "selling": 3919,
      "arguments": 3920,
      "depth": 3921,
      "property": 3922,
      "Private": 3923,
      "tracking": 3924,
      "ridic": 3925,
      "Offic": 3926,
      "laughing": 3927,
      "animal": 3928,
      "considered": 3929,
      "ounce": 3930,
      "Christmas": 3931,
      "travel": 3932,
      "responsible": 3933,
      "SAW": 3934,
      "neighbor": 3935,
      "Jerry": 3936,
      "example": 3937,
      "Michael": 3938,
      "certificate": 3939,
      "multiple": 3940,
      "troops": 3941,
      "method": 3942,
      "innocent": 3943,
      "izontal": 3944,
      "celebr": 3945,
      "%.": 3946,
      "80": 3947,
      "Aust": 3948,
      "Aah": 3949,
      "Bet": 3950,
      "Count": 3951,
      "Den": 3952,
      "Fort": 3953,
      "Gl": 3954,
      "Gard": 3955,
      "Jose": 3956,
      "Kore": 3957,
      "Lor": 3958,
      "Lake": 3959,
      "Law": 3960,
      "NA": 3961,
      "Net": 3962,
      "PAT": 3963,
      "Ron": 3964,
      "Raj": 3965,
      "Str": 3966,
      "Sav": 3967,
      "Switch": 3968,
      "Sounds": 3969,
      "Were": 3970,
      "bas": 3971,
      "bers": 3972,
      "bble": 3973,
      "border": 3974,
      "battle": 3975,
      "cow": 3976,
      "crow": 3977,
      "cards": 3978,
      "dig": 3979,
      "dude": 3980,
      "eas": 3981,
      "ease": 3982,
      "gam": 3983,
      "gers": 3984,
      "hen": 3985,
      "hol": 3986,
      "iers": 3987,
      "jour": 3988,
      "lor": 3989,
      "numbers": 3990,
      "pon": 3991,
      "slot": 3992,
      "tat": 3993,
      "tic": 3994,
      "tong": 3995,
      "wa": 3996,
      "wet": 3997,
      "ware": 3998,
      "wave": 3999,
      "yö": 4000,
      "inci": 4001,
      "regre": 4002,
      "ators": 4003,
      "ising": 4004,
      "ises": 4005,
      "enge": 4006,
      "ency": 4007,
      "arp": 4008,
      "sees": 4009,
      "sever": 4010,
      "secre": 4011,
      "severe": 4012,
      "becoming": 4013,
      "betray": 4014,
      "often": 4015,
      "alous": 4016,
      "acle": 4017,
      "aches": 4018,
      "ades": 4019,
      "Thus": 4020,
      "doin": 4021,
      "note": 4022,
      "west": 4023,
      "chop": 4024,
      "neg": 4025,
      "upstairs": 4026,
      "unit": 4027,
      "unless": 4028,
      "Its": 4029,
      "delic": 4030,
      "develo": 4031,
      "shi": 4032,
      "shower": 4033,
      "terri": 4034,
      "fellow": 4035,
      "ources": 4036,
      "plate": 4037,
      "placed": 4038,
      "indic": 4039,
      "whoa": 4040,
      "manage": 4041,
      "likely": 4042,
      "Allow": 4043,
      "commit": 4044,
      "extra": 4045,
      "bother": 4046,
      "gue": 4047,
      "backup": 4048,
      "Doctor": 4049,
      "Document": 4050,
      "early": 4051,
      "letter": 4052,
      "angry": 4053,
      "brush": 4054,
      "suicide": 4055,
      "killer": 4056,
      "affair": 4057,
      "stole": 4058,
      "discus": 4059,
      "Believe": 4060,
      "Child": 4061,
      "speci": 4062,
      "spector": 4063,
      "unders": 4064,
      "Whoever": 4065,
      "dible": 4066,
      "audio": 4067,
      "shame": 4068,
      "grees": 4069,
      "greater": 4070,
      "fucked": 4071,
      "written": 4072,
      "Ange": 4073,
      "cars": 4074,
      "clue": 4075,
      "cares": 4076,
      "Dead": 4077,
      "content": 4078,
      "broken": 4079,
      "nights": 4080,
      "phys": 4081,
      "missions": 4082,
      "feels": 4083,
      "Almost": 4084,
      "description": 4085,
      "Encrypt": 4086,
      "warri": 4087,
      "keyboard": 4088,
      "column": 4089,
      "Boy": 4090,
      "court": 4091,
      "criminal": 4092,
      "brings": 4093,
      "marriage": 4094,
      "signal": 4095,
      "folders": 4096,
      "general": 4097,
      "goddamn": 4098,
      "apped": 4099,
      "Anyone": 4100,
      "difference": 4101,
      "Messengers": 4102,
      "becomes": 4103,
      "viol": 4104,
      "anese": 4105,
      "Special": 4106,
      "packages": 4107,
      "specify": 4108,
      "wonderful": 4109,
      "appeared": 4110,
      "bags": 4111,
      "Calm": 4112,
      "Contact": 4113,
      "Flash": 4114,
      "Paradise": 4115,
      "objects": 4116,
      "depend": 4117,
      "properties": 4118,
      "volume": 4119,
      "virus": 4120,
      "session": 4121,
      "Detective": 4122,
      "IMP": 4123,
      "arrived": 4124,
      "connected": 4125,
      "favorite": 4126,
      "filled": 4127,
      "Sarah": 4128,
      "egal": 4129,
      "language": 4130,
      "Satan": 4131,
      "View": 4132,
      "college": 4133,
      "nesses": 4134,
      "Value": 4135,
      "losers": 4136,
      "snake": 4137,
      "appreciate": 4138,
      "apolog": 4139,
      "comfortable": 4140,
      "pixels": 4141,
      "permanently": 4142,
      "powers": 4143,
      "Status": 4144,
      "complicated": 4145,
      "London": 4146,
      "Video": 4147,
      "Officer": 4148,
      "Joseph": 4149,
      "**": 4150,
      "Blo": 4151,
      "Buck": 4152,
      "Bru": 4153,
      "Billy": 4154,
      "Baby": 4155,
      "CE": 4156,
      "Cy": 4157,
      "Cer": 4158,
      "Card": 4159,
      "DO": 4160,
      "Dy": 4161,
      "Dep": 4162,
      "Data": 4163,
      "Ethan": 4164,
      "Gi": 4165,
      "GIMP": 4166,
      "Han": 4167,
      "Int": 4168,
      "Jan": 4169,
      "KDE": 4170,
      "LO": 4171,
      "Link": 4172,
      "Might": 4173,
      "Many": 4174,
      "Old": 4175,
      "Oper": 4176,
      "Pur": 4177,
      "Port": 4178,
      "Roman": 4179,
      "Sen": 4180,
      "Sab": 4181,
      "Spl": 4182,
      "Squ": 4183,
      "Tit": 4184,
      "Ted": 4185,
      "Yep": 4186,
      "ben": 4187,
      "bunch": 4188,
      "cro": 4189,
      "dden": 4190,
      "database": 4191,
      "fab": 4192,
      "ga": 4193,
      "gift": 4194,
      "lu": 4195,
      "lap": 4196,
      "lower": 4197,
      "mass": 4198,
      "nically": 4199,
      "natur": 4200,
      "pha": 4201,
      "pure": 4202,
      "sched": 4203,
      "tight": 4204,
      "vig": 4205,
      "vamp": 4206,
      "wast": 4207,
      "wers": 4208,
      "yer": 4209,
      "“%": 4210,
      "oul": 4211,
      "inc": 4212,
      "ances": 4213,
      "rele": 4214,
      "release": 4215,
      "orge": 4216,
      "ena": 4217,
      "itions": 4218,
      "height": 4219,
      "heavy": 4220,
      "began": 4221,
      "ander": 4222,
      "habit": 4223,
      "verses": 4224,
      "limit": 4225,
      "adv": 4226,
      "losing": 4227,
      "chick": 4228,
      "Web": 4229,
      "abandon": 4230,
      "urch": 4231,
      "pel": 4232,
      "enty": 4233,
      "ented": 4234,
      "cance": 4235,
      "defe": 4236,
      "deleted": 4237,
      "degrees": 4238,
      "anti": 4239,
      "oken": 4240,
      "iled": 4241,
      "safet": 4242,
      "ational": 4243,
      "atest": 4244,
      "uled": 4245,
      "igning": 4246,
      "butt": 4247,
      "herself": 4248,
      "exchange": 4249,
      "guards": 4250,
      "useful": 4251,
      "istan": 4252,
      "seeking": 4253,
      "ummy": 4254,
      "proto": 4255,
      "raham": 4256,
      "hook": 4257,
      "Gold": 4258,
      "grid": 4259,
      "Install": 4260,
      "spring": 4261,
      "everywhere": 4262,
      "brary": 4263,
      "bridge": 4264,
      "sudden": 4265,
      "Therefore": 4266,
      "quot": 4267,
      "disk": 4268,
      "Best": 4269,
      "ems": 4270,
      "Chief": 4271,
      "introdu": 4272,
      "Second": 4273,
      "State": 4274,
      "Street": 4275,
      "blank": 4276,
      "greatest": 4277,
      "putting": 4278,
      "Canon": 4279,
      "cles": 4280,
      "heading": 4281,
      "played": 4282,
      "ference": 4283,
      "movement": 4284,
      "await": 4285,
      "Forget": 4286,
      "Format": 4287,
      "huge": 4288,
      "attention": 4289,
      "desire": 4290,
      "clothes": 4291,
      "warn": 4292,
      "kidna": 4293,
      "matters": 4294,
      "maxim": 4295,
      "lights": 4296,
      "trigger": 4297,
      "passion": 4298,
      "ashion": 4299,
      "itional": 4300,
      "breath": 4301,
      "tainly": 4302,
      "mighty": 4303,
      "medicine": 4304,
      "glory": 4305,
      "Gray": 4306,
      "signature": 4307,
      "internal": 4308,
      "corp": 4309,
      "Arab": 4310,
      "Trash": 4311,
      "loaded": 4312,
      "William": 4313,
      "Abraham": 4314,
      "Guy": 4315,
      "Guess": 4316,
      "polit": 4317,
      "vili": 4318,
      "protection": 4319,
      "Specif": 4320,
      "plications": 4321,
      "kingdom": 4322,
      "higher": 4323,
      "relative": 4324,
      "regard": 4325,
      "legend": 4326,
      "rolling": 4327,
      "Stefan": 4328,
      "simply": 4329,
      "username": 4330,
      "mountain": 4331,
      "stronger": 4332,
      "Control": 4333,
      "cellent": 4334,
      "client": 4335,
      "fuge": 4336,
      "joined": 4337,
      "Said": 4338,
      "vanced": 4339,
      "Doesn": 4340,
      "blocks": 4341,
      "burden": 4342,
      "burning": 4343,
      "Otherwise": 4344,
      "received": 4345,
      "installed": 4346,
      "Feel": 4347,
      "jealous": 4348,
      "gardens": 4349,
      "links": 4350,
      "Automat": 4351,
      "defend": 4352,
      "surprise": 4353,
      "surprised": 4354,
      "Window": 4355,
      "bathroom": 4356,
      "ticket": 4357,
      "neighb": 4358,
      "provided": 4359,
      "Connection": 4360,
      "Password": 4361,
      "smoke": 4362,
      "original": 4363,
      "execut": 4364,
      "Scott": 4365,
      "Japanese": 4366,
      "Truth": 4367,
      "results": 4368,
      "victim": 4369,
      "challenge": 4370,
      "Until": 4371,
      "Papa": 4372,
      "forgiveness": 4373,
      "Certainly": 4374,
      "safety": 4375,
      ",-": 4376,
      ".)": 4377,
      "16": 4378,
      "75": 4379,
      "Aunt": 4380,
      "Bus": 4381,
      "Bur": 4382,
      "Bra": 4383,
      "C_": 4384,
      "Cus": 4385,
      "Cover": 4386,
      "DA": 4387,
      "DM": 4388,
      "Da": 4389,
      "Dar": 4390,
      "Each": 4391,
      "Either": 4392,
      "Fa": 4393,
      "Fred": 4394,
      "GB": 4395,
      "GR": 4396,
      "HE": 4397,
      "Hung": 4398,
      "Jake": 4399,
      "Kid": 4400,
      "Kim": 4401,
      "Kate": 4402,
      "Lan": 4403,
      "Ms": 4404,
      "Mill": 4405,
      "Mount": 4406,
      "NE": 4407,
      "PI": 4408,
      "Pal": 4409,
      "Rick": 4410,
      "Sant": 4411,
      "Ta": 4412,
      "Tor": 4413,
      "Tar": 4414,
      "Tot": 4415,
      "TING": 4416,
      "TER": 4417,
      "Vi": 4418,
      "Yet": 4419,
      "[-": 4420,
      "aver": 4421,
      "bright": 4422,
      "cs": 4423,
      "ded": 4424,
      "dwell": 4425,
      "fought": 4426,
      "fashion": 4427,
      "gang": 4428,
      "jinn": 4429,
      "ka": 4430,
      "lab": 4431,
      "lack": 4432,
      "lunch": 4433,
      "length": 4434,
      "ming": 4435,
      "mic": 4436,
      "mile": 4437,
      "pic": 4438,
      "pul": 4439,
      "suck": 4440,
      "tty": 4441,
      "uary": 4442,
      "uff": 4443,
      "var": 4444,
      "wide": 4445,
      "”;": 4446,
      "thus": 4447,
      "thirst": 4448,
      "thief": 4449,
      "threw": 4450,
      "oured": 4451,
      "inform": 4452,
      "anch": 4453,
      "ancient": 4454,
      "recur": 4455,
      "rela": 4456,
      "recent": 4457,
      "isa": 4458,
      "tore": 4459,
      "tood": 4460,
      "orrow": 4461,
      "energy": 4462,
      "itter": 4463,
      "itiz": 4464,
      "stro": 4465,
      "aries": 4466,
      "lest": 4467,
      "sequ": 4468,
      "beer": 4469,
      "beach": 4470,
      "andom": 4471,
      "whome": 4472,
      "esome": 4473,
      "idual": 4474,
      "ety": 4475,
      "forced": 4476,
      "Whose": 4477,
      "alley": 4478,
      "utter": 4479,
      "ada": 4480,
      "advent": 4481,
      "Thou": 4482,
      "rill": 4483,
      "loser": 4484,
      "chose": 4485,
      "Height": 4486,
      "abilities": 4487,
      "usual": 4488,
      "units": 4489,
      "agents": 4490,
      "agram": 4491,
      "sharp": 4492,
      "terminal": 4493,
      "teacher": 4494,
      "opin": 4495,
      "opport": 4496,
      "aine": 4497,
      "sole": 4498,
      "saving": 4499,
      "olt": 4500,
      "thereof": 4501,
      "confir": 4502,
      "trad": 4503,
      "astic": 4504,
      "owns": 4505,
      "poison": 4506,
      "pocket": 4507,
      "istic": 4508,
      "venge": 4509,
      "leaves": 4510,
      "mental": 4511,
      "ucky": 4512,
      "rase": 4513,
      "goodbye": 4514,
      "Doc": 4515,
      "ears": 4516,
      "earned": 4517,
      "lets": 4518,
      "letting": 4519,
      "grace": 4520,
      "grade": 4521,
      "assass": 4522,
      "angle": 4523,
      "period": 4524,
      "ables": 4525,
      "tells": 4526,
      "Remo": 4527,
      "wherever": 4528,
      "stories": 4529,
      "Behold": 4530,
      "happiness": 4531,
      "sert": 4532,
      "helping": 4533,
      "Seven": 4534,
      "blast": 4535,
      "blame": 4536,
      "fuckin": 4537,
      "civili": 4538,
      "parts": 4539,
      "monitor": 4540,
      "Dean": 4541,
      "Unless": 4542,
      "angel": 4543,
      "contro": 4544,
      "contents": 4545,
      "contains": 4546,
      "ignment": 4547,
      "awful": 4548,
      "Force": 4549,
      "phrase": 4550,
      "design": 4551,
      "Goodbye": 4552,
      "warner": 4553,
      "avoid": 4554,
      "queen": 4555,
      "Coming": 4556,
      "Both": 4557,
      "Probably": 4558,
      "understanding": 4559,
      "planning": 4560,
      "surround": 4561,
      "glasses": 4562,
      "hurts": 4563,
      "Group": 4564,
      "Robert": 4565,
      "boyfriend": 4566,
      "Meet": 4567,
      "parse": 4568,
      "parame": 4569,
      "singing": 4570,
      "restaur": 4571,
      "watched": 4572,
      "Adjust": 4573,
      "driver": 4574,
      "Manager": 4575,
      "Anyway": 4576,
      "fected": 4577,
      "Disable": 4578,
      "Eddie": 4579,
      "Maxim": 4580,
      "Such": 4581,
      "winning": 4582,
      "vior": 4583,
      "Service": 4584,
      "books": 4585,
      "shots": 4586,
      "drinking": 4587,
      "Charac": 4588,
      "Fran": 4589,
      "training": 4590,
      "Empty": 4591,
      "Shaw": 4592,
      "Shall": 4593,
      "invol": 4594,
      "fortun": 4595,
      "fortune": 4596,
      "arently": 4597,
      "dropped": 4598,
      "attacked": 4599,
      "fuel": 4600,
      "servant": 4601,
      "Build": 4602,
      "unexpected": 4603,
      "repent": 4604,
      "continu": 4605,
      "paid": 4606,
      "twice": 4607,
      "offered": 4608,
      "murdered": 4609,
      "interesting": 4610,
      "interested": 4611,
      "Pete": 4612,
      "milk": 4613,
      "removed": 4614,
      "drugs": 4615,
      "Bobby": 4616,
      "babe": 4617,
      "Tomorrow": 4618,
      "Viewer": 4619,
      "square": 4620,
      "responsibility": 4621,
      "rifice": 4622,
      "rejected": 4623,
      "approach": 4624,
      "FILE": 4625,
      "Police": 4626,
      "bastard": 4627,
      "Marty": 4628,
      "Professor": 4629,
      "counter": 4630,
      "Russian": 4631,
      "dirty": 4632,
      "hunting": 4633,
      "software": 4634,
      "bestowed": 4635,
      "slaves": 4636,
      "Object": 4637,
      "Screen": 4638,
      "established": 4639,
      "automatically": 4640,
      "Rotate": 4641,
      "fruit": 4642,
      "initial": 4643,
      "freedom": 4644,
      "intelligence": 4645,
      "vehicle": 4646,
      "attribute": 4647,
      "emergency": 4648,
      "ridiculous": 4649,
      "tattoo": 4650,
      "regret": 4651,
      "Custom": 4652,
      "GRUN": 4653,
      "relax": 4654,
      "whomever": 4655,
      "opportunity": 4656,
      "02": 4657,
      "?”": 4658,
      "Alp": 4659,
      "Ban": 4660,
      "Bon": 4661,
      "Bor": 4662,
      "BOT": 4663,
      "CI": 4664,
      "CO": 4665,
      "CR": 4666,
      "Care": 4667,
      "Cert": 4668,
      "Ele": 4669,
      "Fre": 4670,
      "Flo": 4671,
      "Fun": 4672,
      "Friend": 4673,
      "Fair": 4674,
      "Ham": 4675,
      "Haven": 4676,
      "Ir": 4677,
      "Isa": 4678,
      "ION": 4679,
      "Kat": 4680,
      "Kar": 4681,
      "Lat": 4682,
      "Life": 4683,
      "Mex": 4684,
      "Mine": 4685,
      "Mode": 4686,
      "MAN": 4687,
      "Naz": 4688,
      "Om": 4689,
      "Pop": 4690,
      "Paste": 4691,
      "Ru": 4692,
      "Ring": 4693,
      "Rename": 4694,
      "Si": 4695,
      "Sin": 4696,
      "Swe": 4697,
      "Sch": 4698,
      "Scan": 4699,
      "Sky": 4700,
      "Wid": 4701,
      "Ze": 4702,
      "Zoom": 4703,
      "_n": 4704,
      "bay": 4705,
      "bike": 4706,
      "bond": 4707,
      "cash": 4708,
      "cattle": 4709,
      "dumb": 4710,
      "dump": 4711,
      "darling": 4712,
      "ethe": 4713,
      "eating": 4714,
      "fli": 4715,
      "gie": 4716,
      "ja": 4717,
      "jest": 4718,
      "mere": 4719,
      "nam": 4720,
      "oil": 4721,
      "pup": 4722,
      "pag": 4723,
      "pill": 4724,
      "pig": 4725,
      "patch": 4726,
      "rise": 4727,
      "sli": 4728,
      "science": 4729,
      "tis": 4730,
      "tal": 4731,
      "via": 4732,
      "wine": 4733,
      "yard": 4734,
      "zard": 4735,
      "thro": 4736,
      "thread": 4737,
      "inte": 4738,
      "represent": 4739,
      "repeat": 4740,
      "refuge": 4741,
      "atic": 4742,
      "isco": 4743,
      "lling": 4744,
      "mend": 4745,
      "meters": 4746,
      "encoding": 4747,
      "itation": 4748,
      "sty": 4749,
      "eding": 4750,
      "heat": 4751,
      "vels": 4752,
      "sem": 4753,
      "asha": 4754,
      "ashes": 4755,
      "hack": 4756,
      "havior": 4757,
      "ida": 4758,
      "icy": 4759,
      "icate": 4760,
      "robot": 4761,
      "Young": 4762,
      "forces": 4763,
      "admit": 4764,
      "Thom": 4765,
      "Third": 4766,
      "...\"": 4767,
      "notice": 4768,
      "neck": 4769,
      "abide": 4770,
      "absolutely": 4771,
      "imate": 4772,
      "immort": 4773,
      "usually": 4774,
      "ura": 4775,
      "myster": 4776,
      "ami": 4777,
      "unseen": 4778,
      "del": 4779,
      "deli": 4780,
      "dece": 4781,
      "shir": 4782,
      "oking": 4783,
      "Nope": 4784,
      "term": 4785,
      "wills": 4786,
      "cture": 4787,
      "teeth": 4788,
      "illegal": 4789,
      "ils": 4790,
      "atell": 4791,
      "trash": 4792,
      "ulate": 4793,
      "guil": 4794,
      "prevent": 4795,
      "cot": 4796,
      "letion": 4797,
      "lette": 4798,
      "hadn": 4799,
      "spy": 4800,
      "workspace": 4801,
      "Wells": 4802,
      "perature": 4803,
      "Lot": 4804,
      "forest": 4805,
      "quer": 4806,
      "Read": 4807,
      "stored": 4808,
      "disgust": 4809,
      "Chi": 4810,
      "believing": 4811,
      "Whoo": 4812,
      "tooth": 4813,
      "div": 4814,
      "shape": 4815,
      "Islam": 4816,
      "sets": 4817,
      "cloud": 4818,
      "Unto": 4819,
      "Exp": 4820,
      "awn": 4821,
      "tape": 4822,
      "valu": 4823,
      "feelings": 4824,
      "desires": 4825,
      "male": 4826,
      "major": 4827,
      "colors": 4828,
      "posal": 4829,
      "messengers": 4830,
      "sym": 4831,
      "courage": 4832,
      "crimin": 4833,
      "cribed": 4834,
      "Proper": 4835,
      "trial": 4836,
      "Sometimes": 4837,
      "Neither": 4838,
      "flag": 4839,
      "bringing": 4840,
      "Lee": 4841,
      "Leon": 4842,
      "crack": 4843,
      "crush": 4844,
      "chast": 4845,
      "chair": 4846,
      "houses": 4847,
      "laid": 4848,
      "engage": 4849,
      "smile": 4850,
      "truthful": 4851,
      "sends": 4852,
      "Indian": 4853,
      "Edward": 4854,
      "changing": 4855,
      "ibly": 4856,
      "Sergeant": 4857,
      "missioner": 4858,
      "Cheers": 4859,
      "Dragon": 4860,
      "priest": 4861,
      "solution": 4862,
      "Point": 4863,
      "Spider": 4864,
      "related": 4865,
      "specific": 4866,
      "details": 4867,
      "marks": 4868,
      "pulled": 4869,
      "Access": 4870,
      "climb": 4871,
      "pieces": 4872,
      "iety": 4873,
      "distress": 4874,
      "Wrong": 4875,
      "virt": 4876,
      "Super": 4877,
      "URL": 4878,
      "Download": 4879,
      "Laure": 4880,
      "Daniel": 4881,
      "unique": 4882,
      "associate": 4883,
      "associated": 4884,
      "concern": 4885,
      "darkness": 4886,
      "ladies": 4887,
      "ribution": 4888,
      "Minister": 4889,
      "includ": 4890,
      "soldier": 4891,
      "soldiers": 4892,
      "zzle": 4893,
      "apartment": 4894,
      "Juli": 4895,
      "silver": 4896,
      "successfully": 4897,
      "recognize": 4898,
      "recognized": 4899,
      "Yellow": 4900,
      "gradient": 4901,
      "excited": 4902,
      "department": 4903,
      "Secretary": 4904,
      "Scripture": 4905,
      "delivered": 4906,
      "falsehood": 4907,
      "sacrifice": 4908,
      "authentication": 4909,
      "Caroline": 4910,
      "Murph": 4911,
      "treasure": 4912,
      "conversation": 4913,
      "diamonds": 4914,
      "Central": 4915,
      "cendants": 4916,
      "folks": 4917,
      "shadow": 4918,
      "Cancel": 4919,
      "cousin": 4920,
      "knife": 4921,
      "credit": 4922,
      "Austral": 4923,
      "journey": 4924,
      "secrets": 4925,
      "Children": 4926,
      "opinion": 4927,
      "Remote": 4928,
      "restaurant": 4929,
      "etheart": 4930,
      "/%": 4931,
      "17": 4932,
      "22": 4933,
      "500": 4934,
      "800": 4935,
      "90": 4936,
      "==": 4937,
      "Aye": 4938,
      "Ber": 4939,
      "Bel": 4940,
      "CT": 4941,
      "Cra": 4942,
      "Catch": 4943,
      "Cross": 4944,
      "DV": 4945,
      "Dou": 4946,
      "Dun": 4947,
      "Dom": 4948,
      "Dig": 4949,
      "Eri": 4950,
      "Eight": 4951,
      "Easter": 4952,
      "Face": 4953,
      "GH": 4954,
      "Gand": 4955,
      "Gab": 4956,
      "Gun": 4957,
      "Girl": 4958,
      "Hon": 4959,
      "Hour": 4960,
      "Hide": 4961,
      "Ig": 4962,
      "Jon": 4963,
      "Jord": 4964,
      "Jane": 4965,
      "Kev": 4966,
      "Live": 4967,
      "Map": 4968,
      "Nam": 4969,
      "Pi": 4970,
      "Py": 4971,
      "Pack": 4972,
      "Person": 4973,
      "RI": 4974,
      "Rac": 4975,
      "Smo": 4976,
      "Sort": 4977,
      "Scar": 4978,
      "Saint": 4979,
      "Soph": 4980,
      "Tri": 4981,
      "Tim": 4982,
      "Van": 4983,
      "Vol": 4984,
      "Veg": 4985,
      "VPN": 4986,
      "Water": 4987,
      "Wash": 4988,
      "Walter": 4989,
      "bon": 4990,
      "bul": 4991,
      "bum": 4992,
      "cum": 4993,
      "categ": 4994,
      "candy": 4995,
      "dent": 4996,
      "ell": 4997,
      "eli": 4998,
      "emotion": 4999,
      "fro": 5000,
      "fake": 5001,
      "fund": 5002,
      "faces": 5003,
      "hill": 5004,
      "hitting": 5005,
      "iance": 5006,
      "jay": 5007,
      "lone": 5008,
      "mig": 5009,
      "oce": 5010,
      "rd": 5011,
      "rac": 5012,
      "rum": 5013,
      "rank": 5014,
      "sle": 5015,
      "sust": 5016,
      "scan": 5017,
      "swer": 5018,
      "slip": 5019,
      "tour": 5020,
      "udes": 5021,
      "vow": 5022,
      "wro": 5023,
      "third": 5024,
      "oups": 5025,
      "ini": 5026,
      "info": 5027,
      "insp": 5028,
      "instru": 5029,
      "onent": 5030,
      "rear": 5031,
      "reci": 5032,
      "rehear": 5033,
      "render": 5034,
      "ato": 5035,
      "atal": 5036,
      "issu": 5037,
      "meal": 5038,
      "memo": 5039,
      "enabled": 5040,
      "itar": 5041,
      "itive": 5042,
      "heh": 5043,
      "heels": 5044,
      "beast": 5045,
      "anda": 5046,
      "assa": 5047,
      "hai": 5048,
      "alf": 5049,
      "alarm": 5050,
      "alpha": 5051,
      "acqu": 5052,
      "actor": 5053,
      "wild": 5054,
      "forgiving": 5055,
      "liar": 5056,
      "ado": 5057,
      "ador": 5058,
      "rip": 5059,
      "rivers": 5060,
      "login": 5061,
      "church": 5062,
      "iring": 5063,
      "irty": 5064,
      "Hearing": 5065,
      "Theme": 5066,
      "imum": 5067,
      "impossible": 5068,
      "users": 5069,
      "upset": 5070,
      "aggress": 5071,
      "deb": 5072,
      "oked": 5073,
      "Noah": 5074,
      "terms": 5075,
      "willed": 5076,
      "mob": 5077,
      "cking": 5078,
      "naught": 5079,
      "worthy": 5080,
      "plans": 5081,
      "plenty": 5082,
      "whosoever": 5083,
      "tive": 5084,
      "trade": 5085,
      "trai": 5086,
      "caused": 5087,
      "combat": 5088,
      "boot": 5089,
      "guar": 5090,
      "istance": 5091,
      "seemed": 5092,
      "progress": 5093,
      "provision": 5094,
      "hoo": 5095,
      "hotel": 5096,
      "previous": 5097,
      "Documents": 5098,
      "However": 5099,
      "sheet": 5100,
      "theirs": 5101,
      "assume": 5102,
      "Goddamn": 5103,
      "percent": 5104,
      "Log": 5105,
      "Los": 5106,
      "Real": 5107,
      "afford": 5108,
      "stock": 5109,
      "stolen": 5110,
      "disc": 5111,
      "disput": 5112,
      "disbelieved": 5113,
      "emon": 5114,
      "Chen": 5115,
      "series": 5116,
      "answers": 5117,
      "blah": 5118,
      "Aren": 5119,
      "believes": 5120,
      "mines": 5121,
      "pleased": 5122,
      "older": 5123,
      "cursed": 5124,
      "yellow": 5125,
      "carried": 5126,
      "players": 5127,
      "club": 5128,
      "meaning": 5129,
      "monkey": 5130,
      "Forgive": 5131,
      "Forward": 5132,
      "attitude": 5133,
      "Enjoy": 5134,
      "warned": 5135,
      "lesson": 5136,
      "matches": 5137,
      "maid": 5138,
      "onsense": 5139,
      "biggest": 5140,
      "lightning": 5141,
      "cribe": 5142,
      "crimes": 5143,
      "pension": 5144,
      "trip": 5145,
      "famous": 5146,
      "sincere": 5147,
      "Order": 5148,
      "airport": 5149,
      "Tech": 5150,
      "Team": 5151,
      "arming": 5152,
      "completed": 5153,
      "corner": 5154,
      "visit": 5155,
      "Track": 5156,
      "True": 5157,
      "listening": 5158,
      "Press": 5159,
      "Preview": 5160,
      "Pretty": 5161,
      "witnesses": 5162,
      "wenty": 5163,
      "apping": 5164,
      "applet": 5165,
      "Brit": 5166,
      "destination": 5167,
      "dressed": 5168,
      "bloody": 5169,
      "aze": 5170,
      "sitive": 5171,
      "sooner": 5172,
      "patience": 5173,
      "Drag": 5174,
      "Merlyn": 5175,
      "Charles": 5176,
      "screaming": 5177,
      "lawyer": 5178,
      "shooting": 5179,
      "crying": 5180,
      "horrible": 5181,
      "invite": 5182,
      "invited": 5183,
      "market": 5184,
      "picked": 5185,
      "breakfast": 5186,
      "Step": 5187,
      "Monkey": 5188,
      "faithful": 5189,
      "appears": 5190,
      "ividual": 5191,
      "nearly": 5192,
      "grandfather": 5193,
      "distance": 5194,
      "Knower": 5195,
      "LES": 5196,
      "Written": 5197,
      "fields": 5198,
      "bury": 5199,
      "guardian": 5200,
      "profile": 5201,
      "Highlight": 5202,
      "Luke": 5203,
      "Jews": 5204,
      "golden": 5205,
      "grief": 5206,
      "Commander": 5207,
      "carrying": 5208,
      "national": 5209,
      "seriously": 5210,
      "concerning": 5211,
      "generations": 5212,
      "garden": 5213,
      "Paul": 5214,
      "Redo": 5215,
      "community": 5216,
      "blessings": 5217,
      "thousands": 5218,
      "bugger": 5219,
      "itchen": 5220,
      "Apply": 5221,
      "Current": 5222,
      "requested": 5223,
      "mentioned": 5224,
      "deserves": 5225,
      "victory": 5226,
      "robber": 5227,
      "Connect": 5228,
      "Application": 5229,
      "execute": 5230,
      "balance": 5231,
      "effective": 5232,
      "River": 5233,
      "schema": 5234,
      "particip": 5235,
      "terrorist": 5236,
      "Victor": 5237,
      "swim": 5238,
      "Robin": 5239,
      "split": 5240,
      "welve": 5241,
      "ordinary": 5242,
      "HTML": 5243,
      "Ladies": 5244,
      "apostle": 5245,
      "Quran": 5246,
      "Middle": 5247,
      "knees": 5248,
      "wicked": 5249,
      "Korea": 5250,
      "several": 5251,
      "delicious": 5252,
      "discuss": 5253,
      "understood": 5254,
      "apologize": 5255,
      "Arabic": 5256,
      "confirmed": 5257,
      "involved": 5258,
      "Alpha": 5259,
      "BOTH": 5260,
      "jesty": 5261,
      "Thomas": 5262,
      "guilty": 5263,
      "disgusting": 5264,
      "Properties": 5265,
      "wrote": 5266,
      "\":": 5267,
      "'...": 5268,
      "()": 5269,
      "250": 5270,
      "300": 5271,
      "AB": 5272,
      "Ak": 5273,
      "Apost": 5274,
      "BM": 5275,
      "Bit": 5276,
      "Bill": 5277,
      "Burn": 5278,
      "Bot": 5279,
      "Bull": 5280,
      "Cass": 5281,
      "Case": 5282,
      "Cham": 5283,
      "CON": 5284,
      "Cisco": 5285,
      "Dra": 5286,
      "Eh": 5287,
      "Ever": 5288,
      "Eli": 5289,
      "Fal": 5290,
      "GT": 5291,
      "Gy": 5292,
      "Gent": 5293,
      "Hat": 5294,
      "Haw": 5295,
      "Ice": 5296,
      "Jay": 5297,
      "Knock": 5298,
      "Mi": 5299,
      "Met": 5300,
      "Multi": 5301,
      "Oz": 5302,
      "Ple": 5303,
      "Prom": 5304,
      "Park": 5305,
      "Rain": 5306,
      "Rap": 5307,
      "SH": 5308,
      "Sk": 5309,
      "Sl": 5310,
      "Snow": 5311,
      "Sus": 5312,
      "Sent": 5313,
      "Sul": 5314,
      "Same": 5315,
      "Ton": 5316,
      "Table": 5317,
      "Troy": 5318,
      "Tony": 5319,
      "TIF": 5320,
      "UL": 5321,
      "Used": 5322,
      "Vo": 5323,
      "Vis": 5324,
      "Want": 5325,
      "Wil": 5326,
      "Ward": 5327,
      "Wiz": 5328,
      "_All": 5329,
      "athing": 5330,
      "bi": 5331,
      "bing": 5332,
      "bone": 5333,
      "bind": 5334,
      "bby": 5335,
      "bars": 5336,
      "bones": 5337,
      "citiz": 5338,
      "dust": 5339,
      "diction": 5340,
      "ee": 5341,
      "gs": 5342,
      "gle": 5343,
      "hired": 5344,
      "ien": 5345,
      "iant": 5346,
      "knot": 5347,
      "kitchen": 5348,
      "loud": 5349,
      "mult": 5350,
      "mits": 5351,
      "nia": 5352,
      "osa": 5353,
      "oath": 5354,
      "pit": 5355,
      "pane": 5356,
      "praise": 5357,
      "rick": 5358,
      "rang": 5359,
      "sw": 5360,
      "sis": 5361,
      "sam": 5362,
      "site": 5363,
      "sions": 5364,
      "sses": 5365,
      "script": 5366,
      "sni": 5367,
      "scient": 5368,
      "scale": 5369,
      "tin": 5370,
      "thumb": 5371,
      "inated": 5372,
      "infected": 5373,
      "ano": 5374,
      "rename": 5375,
      "reput": 5376,
      "restr": 5377,
      "research": 5378,
      "rebell": 5379,
      "ats": 5380,
      "toward": 5381,
      "meat": 5382,
      "endid": 5383,
      "edit": 5384,
      "arrog": 5385,
      "heal": 5386,
      "noise": 5387,
      "bears": 5388,
      "befall": 5389,
      "aside": 5390,
      "ascal": 5391,
      "whis": 5392,
      "escap": 5393,
      "alo": 5394,
      "alert": 5395,
      "iders": 5396,
      "accom": 5397,
      "acity": 5398,
      "goal": 5399,
      "icity": 5400,
      "lion": 5401,
      "admin": 5402,
      "Things": 5403,
      "domain": 5404,
      "documents": 5405,
      "rig": 5406,
      "rian": 5407,
      "rious": 5408,
      "loose": 5409,
      "ching": 5410,
      "nels": 5411,
      "Hear": 5412,
      "ably": 5413,
      "abode": 5414,
      "imp": 5415,
      "uplic": 5416,
      "untie": 5417,
      "agre": 5418,
      "pell": 5419,
      "deck": 5420,
      "destruction": 5421,
      "shed": 5422,
      "Note": 5423,
      "Andy": 5424,
      "motor": 5425,
      "naked": 5426,
      "feared": 5427,
      "ilar": 5428,
      "inda": 5429,
      "individual": 5430,
      "managed": 5431,
      "tip": 5432,
      "tied": 5433,
      "conce": 5434,
      "contr": 5435,
      "conflict": 5436,
      "trict": 5437,
      "applications": 5438,
      "arts": 5439,
      "ender": 5440,
      "cave": 5441,
      "bots": 5442,
      "aker": 5443,
      "provide": 5444,
      "prec": 5445,
      "pred": 5446,
      "prefer": 5447,
      "pregn": 5448,
      "coast": 5449,
      "downstairs": 5450,
      "however": 5451,
      "letters": 5452,
      "grat": 5453,
      "groups": 5454,
      "assignment": 5455,
      "Inspector": 5456,
      "Insert": 5457,
      "spin": 5458,
      "spoken": 5459,
      "creature": 5460,
      "permissions": 5461,
      "Shell": 5462,
      "qual": 5463,
      "Reset": 5464,
      "stopping": 5465,
      "distract": 5466,
      "discovered": 5467,
      "email": 5468,
      "embar": 5469,
      "Chang": 5470,
      "China": 5471,
      "Seems": 5472,
      "Stan": 5473,
      "Style": 5474,
      "izing": 5475,
      "issue": 5476,
      "turning": 5477,
      "selfish": 5478,
      "shared": 5479,
      "grew": 5480,
      "greet": 5481,
      "athan": 5482,
      "chest": 5483,
      "cheese": 5484,
      "stray": 5485,
      "strate": 5486,
      "stranger": 5487,
      "buried": 5488,
      "Anj": 5489,
      "Answer": 5490,
      "header": 5491,
      "career": 5492,
      "Def": 5493,
      "Death": 5494,
      "Undo": 5495,
      "former": 5496,
      "members": 5497,
      "worlds": 5498,
      "Whenever": 5499,
      "Also": 5500,
      "closing": 5501,
      "Encoding": 5502,
      "warm": 5503,
      "colm": 5504,
      "points": 5505,
      "Prote": 5506,
      "tribe": 5507,
      "opening": 5508,
      "dragon": 5509,
      "resource": 5510,
      "untu": 5511,
      "pressive": 5512,
      "Conf": 5513,
      "Configuration": 5514,
      "Grid": 5515,
      "Grab": 5516,
      "damage": 5517,
      "identify": 5518,
      "rooms": 5519,
      "cuff": 5520,
      "paring": 5521,
      "interview": 5522,
      "genius": 5523,
      "Arrest": 5524,
      "visual": 5525,
      "engaged": 5526,
      "personally": 5527,
      "Himself": 5528,
      "apply": 5529,
      "craw": 5530,
      "custo": 5531,
      "Brown": 5532,
      "Disc": 5533,
      "skin": 5534,
      "Princess": 5535,
      "wins": 5536,
      "reasons": 5537,
      "Colors": 5538,
      "belied": 5539,
      "Plus": 5540,
      "Player": 5541,
      "respite": 5542,
      "Without": 5543,
      "pathy": 5544,
      "freaking": 5545,
      "prior": 5546,
      "boring": 5547,
      "Fucking": 5548,
      "boxes": 5549,
      "laws": 5550,
      "possibly": 5551,
      "added": 5552,
      "protected": 5553,
      "iko": 5554,
      "Phil": 5555,
      "Cali": 5556,
      "clip": 5557,
      "services": 5558,
      "Buzz": 5559,
      "gedit": 5560,
      "modified": 5561,
      "devices": 5562,
      "license": 5563,
      "rupt": 5564,
      "reveal": 5565,
      "offering": 5566,
      "Write": 5567,
      "honour": 5568,
      "properly": 5569,
      "Priya": 5570,
      "viron": 5571,
      "officers": 5572,
      "official": 5573,
      "contacts": 5574,
      "Supreme": 5575,
      "profit": 5576,
      "IST": 5577,
      "Jean": 5578,
      "requires": 5579,
      "sweetie": 5580,
      "grieve": 5581,
      "animals": 5582,
      "fellas": 5583,
      "presence": 5584,
      "perfectly": 5585,
      "beneath": 5586,
      "George": 5587,
      "include": 5588,
      "dollar": 5589,
      "blessing": 5590,
      "circus": 5591,
      "gathered": 5592,
      "trees": 5593,
      "prayed": 5594,
      "attery": 5595,
      "expert": 5596,
      "experience": 5597,
      "Malcolm": 5598,
      "incredible": 5599,
      "juice": 5600,
      "stealing": 5601,
      "bowl": 5602,
      "Christi": 5603,
      "ALL": 5604,
      "Partition": 5605,
      "separate": 5606,
      "Russia": 5607,
      "scheme": 5608,
      "corruption": 5609,
      "Hands": 5610,
      "transport": 5611,
      "Attention": 5612,
      "directly": 5613,
      "Drive": 5614,
      "German": 5615,
      "Gordon": 5616,
      "Potter": 5617,
      "mixed": 5618,
      "wishes": 5619,
      "title": 5620,
      "updated": 5621,
      "captured": 5622,
      "Ryan": 5623,
      "Radio": 5624,
      "Sherman": 5625,
      "Turk": 5626,
      "students": 5627,
      "nuclear": 5628,
      "Felicity": 5629,
      "eggs": 5630,
      "Internet": 5631,
      "neighborhood": 5632,
      "Gardens": 5633,
      "yöu": 5634,
      "Mighty": 5635,
      "natural": 5636,
      "vampire": 5637,
      "cancel": 5638,
      "Golden": 5639,
      "Total": 5640,
      "fashioned": 5641,
      "stroke": 5642,
      "adventure": 5643,
      "controls": 5644,
      "Certificate": 5645,
      "Mexico": 5646,
      "shirt": 5647,
      "criminals": 5648,
      "chastise": 5649,
      "Laurel": 5650,
      "DVD": 5651,
      "Erik": 5652,
      "Kevin": 5653,
      "Apostle": 5654,
      "GTK": 5655,
      "Wizard": 5656,
      "!”": 5657,
      "'!": 5658,
      ");": 5659,
      ")?": 5660,
      "0x": 5661,
      "32": 5662,
      "36": 5663,
      "Ain": 5664,
      "Ass": 5665,
      "BE": 5666,
      "Bas": 5667,
      "Bank": 5668,
      "Bang": 5669,
      "Bud": 5670,
      "Base": 5671,
      "Cas": 5672,
      "Cli": 5673,
      "Creat": 5674,
      "Camer": 5675,
      "Clean": 5676,
      "Du": 5677,
      "Die": 5678,
      "Dick": 5679,
      "Ell": 5680,
      "Eye": 5681,
      "FF": 5682,
      "Fu": 5683,
      "Fed": 5684,
      "Far": 5685,
      "Fill": 5686,
      "Fish": 5687,
      "Gon": 5688,
      "Gar": 5689,
      "Gro": 5690,
      "Gra": 5691,
      "Gru": 5692,
      "Glad": 5693,
      "GConf": 5694,
      "Hum": 5695,
      "Iris": 5696,
      "Iron": 5697,
      "Jen": 5698,
      "Jac": 5699,
      "Job": 5700,
      "Kira": 5701,
      "Lin": 5702,
      "Liz": 5703,
      "MB": 5704,
      "Mum": 5705,
      "Mama": 5706,
      "Nah": 5707,
      "Nine": 5708,
      "OF": 5709,
      "OW": 5710,
      "Ori": 5711,
      "PE": 5712,
      "Rs": 5713,
      "Roh": 5714,
      "SE": 5715,
      "ST": 5716,
      "Sn": 5717,
      "Sel": 5718,
      "Saw": 5719,
      "Stra": 5720,
      "Scale": 5721,
      "Twelve": 5722,
      "UT": 5723,
      "Ugh": 5724,
      "UCK": 5725,
      "Wall": 5726,
      "Wolf": 5727,
      "Yang": 5728,
      "bout": 5729,
      "bage": 5730,
      "based": 5731,
      "cake": 5732,
      "cate": 5733,
      "cue": 5734,
      "cage": 5735,
      "cult": 5736,
      "cities": 5737,
      "ds": 5738,
      "dry": 5739,
      "daught": 5740,
      "ez": 5741,
      "elder": 5742,
      "fuse": 5743,
      "fits": 5744,
      "farm": 5745,
      "finger": 5746,
      "hire": 5747,
      "hip": 5748,
      "hits": 5749,
      "iate": 5750,
      "ially": 5751,
      "ival": 5752,
      "ilies": 5753,
      "jam": 5754,
      "kins": 5755,
      "ln": 5756,
      "lake": 5757,
      "liter": 5758,
      "nch": 5759,
      "nur": 5760,
      "nonsense": 5761,
      "oter": 5762,
      "pir": 5763,
      "pter": 5764,
      "pher": 5765,
      "piety": 5766,
      "rass": 5767,
      "rans": 5768,
      "rings": 5769,
      "rush": 5770,
      "raph": 5771,
      "slight": 5772,
      "scr": 5773,
      "tes": 5774,
      "tap": 5775,
      "tast": 5776,
      "tles": 5777,
      "uc": 5778,
      "uj": 5779,
      "uct": 5780,
      "vari": 5781,
      "wand": 5782,
      "wra": 5783,
      "winter": 5784,
      "waters": 5785,
      "yo": 5786,
      "zo": 5787,
      "zone": 5788,
      "zur": 5789,
      "thunder": 5790,
      "inj": 5791,
      "ining": 5792,
      "erk": 5793,
      "ancy": 5794,
      "anni": 5795,
      "oning": 5796,
      "online": 5797,
      "rever": 5798,
      "recall": 5799,
      "retribut": 5800,
      "recompen": 5801,
      "resolution": 5802,
      "youn": 5803,
      "isle": 5804,
      "ishes": 5805,
      "toile": 5806,
      "org": 5807,
      "orer": 5808,
      "orbit": 5809,
      "enant": 5810,
      "enci": 5811,
      "stret": 5812,
      "staff": 5813,
      "aron": 5814,
      "armed": 5815,
      "levels": 5816,
      "heed": 5817,
      "heck": 5818,
      "sealed": 5819,
      "season": 5820,
      "node": 5821,
      "noble": 5822,
      "haply": 5823,
      "alt": 5824,
      "alted": 5825,
      "iday": 5826,
      "acious": 5827,
      "icons": 5828,
      "forman": 5829,
      "liked": 5830,
      "While": 5831,
      "utenant": 5832,
      "rie": 5833,
      "notes": 5834,
      "chasing": 5835,
      "Wester": 5836,
      "imal": 5837,
      "update": 5838,
      "unlock": 5839,
      "ags": 5840,
      "agle": 5841,
      "pear": 5842,
      "dee": 5843,
      "decre": 5844,
      "shift": 5845,
      "ifier": 5846,
      "ryan": 5847,
      "rypt": 5848,
      "teen": 5849,
      "tele": 5850,
      "ntax": 5851,
      "oppon": 5852,
      "female": 5853,
      "mansion": 5854,
      "somehow": 5855,
      "contract": 5856,
      "convict": 5857,
      "Allen": 5858,
      "inking": 5859,
      "artist": 5860,
      "gel": 5861,
      "export": 5862,
      "expression": 5863,
      "pocr": 5864,
      "istant": 5865,
      "umm": 5866,
      "prophe": 5867,
      "iley": 5868,
      "holy": 5869,
      "coc": 5870,
      "cock": 5871,
      "coven": 5872,
      "cohol": 5873,
      "goodness": 5874,
      "downtown": 5875,
      "offline": 5876,
      "shel": 5877,
      "otherwise": 5878,
      "bleeding": 5879,
      "cream": 5880,
      "brow": 5881,
      "brains": 5882,
      "peror": 5883,
      "Loading": 5884,
      "Replace": 5885,
      "Recent": 5886,
      "Record": 5887,
      "Repeat": 5888,
      "shoulder": 5889,
      "afflict": 5890,
      "disappeared": 5891,
      "emp": 5892,
      "wore": 5893,
      "Chat": 5894,
      "servers": 5895,
      "sergeant": 5896,
      "intent": 5897,
      "princess": 5898,
      "Star": 5899,
      "aud": 5900,
      "amed": 5901,
      "greed": 5902,
      "cious": 5903,
      "ports": 5904,
      "cheating": 5905,
      "ples": 5906,
      "handsome": 5907,
      "handled": 5908,
      "Shiv": 5909,
      "friendship": 5910,
      "clever": 5911,
      "clude": 5912,
      "mons": 5913,
      "Toggle": 5914,
      "ulted": 5915,
      "awa": 5916,
      "awesome": 5917,
      "supp": 5918,
      "broad": 5919,
      "phen": 5920,
      "Alone": 5921,
      "Although": 5922,
      "sentence": 5923,
      "descendants": 5924,
      "kinda": 5925,
      "kinds": 5926,
      "ava": 5927,
      "giant": 5928,
      "thoughts": 5929,
      "realise": 5930,
      "shows": 5931,
      "pointing": 5932,
      "Commit": 5933,
      "penalty": 5934,
      "Prov": 5935,
      "Program": 5936,
      "beings": 5937,
      "ships": 5938,
      "flank": 5939,
      "breast": 5940,
      "breach": 5941,
      "breaking": 5942,
      "drowned": 5943,
      "famili": 5944,
      "families": 5945,
      "Level": 5946,
      "surrender": 5947,
      "glor": 5948,
      "Configure": 5949,
      "damned": 5950,
      "margin": 5951,
      "Road": 5952,
      "shoes": 5953,
      "Memo": 5954,
      "chain": 5955,
      "calcul": 5956,
      "hardship": 5957,
      "component": 5958,
      "frank": 5959,
      "funeral": 5960,
      "pardon": 5961,
      "interface": 5962,
      "slaughter": 5963,
      "ordered": 5964,
      "Arch": 5965,
      "Arrow": 5966,
      "visited": 5967,
      "Atl": 5968,
      "Attribut": 5969,
      "returning": 5970,
      "charity": 5971,
      "charged": 5972,
      "Eric": 5973,
      "sensitive": 5974,
      "humanity": 5975,
      "ifications": 5976,
      "Anybody": 5977,
      "craft": 5978,
      "Disk": 5979,
      "skip": 5980,
      "commanded": 5981,
      "submit": 5982,
      "Edge": 5983,
      "Prince": 5984,
      "trusted": 5985,
      "Major": 5986,
      "Majesty": 5987,
      "leads": 5988,
      "winner": 5989,
      "weekend": 5990,
      "amongst": 5991,
      "Plain": 5992,
      "Quiet": 5993,
      "Audio": 5994,
      "Authent": 5995,
      "Clark": 5996,
      "Cool": 5997,
      "Cooper": 5998,
      "Pos": 5999,
      "Poor": 6000,
      "Speed": 6001,
      "voke": 6002,
      "operations": 6003,
      "insist": 6004,
      "insane": 6005,
      "allows": 6006,
      "Joy": 6007,
      "highly": 6008,
      "imeter": 6009,
      "collap": 6010,
      "systems": 6011,
      "capable": 6012,
      "captain": 6013,
      "entered": 6014,
      "lawful": 6015,
      "Focus": 6016,
      "Gotta": 6017,
      "mischief": 6018,
      "tests": 6019,
      "falling": 6020,
      "fourth": 6021,
      "existing": 6022,
      "displaying": 6023,
      "reporting": 6024,
      "Phone": 6025,
      "Contin": 6026,
      "Brook": 6027,
      "model": 6028,
      "dogs": 6029,
      "bearer": 6030,
      "distribution": 6031,
      "connections": 6032,
      "steadfast": 6033,
      "tracks": 6034,
      "palm": 6035,
      "Background": 6036,
      "Folders": 6037,
      "burns": 6038,
      "sugar": 6039,
      "Others": 6040,
      "purif": 6041,
      "papa": 6042,
      "recei": 6043,
      "Pattern": 6044,
      "Patrick": 6045,
      "cooking": 6046,
      "cookie": 6047,
      "European": 6048,
      "Danny": 6049,
      "basement": 6050,
      "remaining": 6051,
      "hundreds": 6052,
      "Description": 6053,
      "concerned": 6054,
      "generated": 6055,
      "gardly": 6056,
      "ttp": 6057,
      "records": 6058,
      "defined": 6059,
      "Pause": 6060,
      "helmet": 6061,
      "technically": 6062,
      "printing": 6063,
      "Jimmy": 6064,
      "Termin": 6065,
      "fonts": 6066,
      "defense": 6067,
      "199": 6068,
      "gathering": 6069,
      "tasks": 6070,
      "proofs": 6071,
      "Tommy": 6072,
      "attered": 6073,
      "slowly": 6074,
      "CPD": 6075,
      "castle": 6076,
      "kicked": 6077,
      "increase": 6078,
      "Align": 6079,
      "fetch": 6080,
      "pilot": 6081,
      "walls": 6082,
      "Wood": 6083,
      "Human": 6084,
      "enjoyment": 6085,
      "guests": 6086,
      "Maggie": 6087,
      "Martin": 6088,
      "REA": 6089,
      "SSL": 6090,
      "willingly": 6091,
      "Profile": 6092,
      "Madam": 6093,
      "Truly": 6094,
      "electr": 6095,
      "idols": 6096,
      "Chase": 6097,
      "Filter": 6098,
      "transp": 6099,
      "Panel": 6100,
      "hoping": 6101,
      "demons": 6102,
      "Channel": 6103,
      "attachment": 6104,
      "Directory": 6105,
      "grave": 6106,
      "niggardly": 6107,
      "hasten": 6108,
      "authority": 6109,
      "Menu": 6110,
      "dancing": 6111,
      "companions": 6112,
      "Horizontal": 6113,
      "Matthe": 6114,
      "Thamud": 6115,
      "pissed": 6116,
      "uuu": 6117,
      "student": 6118,
      "Fitz": 6119,
      "Judge": 6120,
      "Trevor": 6121,
      "ctories": 6122,
      "cabin": 6123,
      "fantastic": 6124,
      "fifty": 6125,
      "vacation": 6126,
      "toria": 6127,
      "orphan": 6128,
      "essional": 6129,
      "employ": 6130,
      "memories": 6131,
      "Lori": 6132,
      "Network": 6133,
      "Strong": 6134,
      "tongue": 6135,
      "specially": 6136,
      "Angeles": 6137,
      "physical": 6138,
      "warrior": 6139,
      "Blood": 6140,
      "Bruce": 6141,
      "Dylan": 6142,
      "Sabbath": 6143,
      "fabric": 6144,
      "scheduled": 6145,
      "vigil": 6146,
      "protocol": 6147,
      "Faith": 6148,
      "micro": 6149,
      "recently": 6150,
      "fortunately": 6151,
      "Australia": 6152,
      "Crazy": 6153,
      "Doug": 6154,
      "Jordan": 6155,
      "Vegas": 6156,
      "frozen": 6157,
      "migr": 6158,
      "ocean": 6159,
      "guarante": 6160,
      "robbery": 6161,
      "Tonight": 6162,
      "TIFF": 6163,
      "scientist": 6164,
      "escaped": 6165,
      "accompl": 6166,
      "administr": 6167,
      "pregnant": 6168,
      "embarrass": 6169,
      "chastisement": 6170,
      "daughters": 6171,
      "ransom": 6172,
      "wrath": 6173,
      "encies": 6174,
      "formance": 6175,
      "familiar": 6176,
      "\")": 6177,
      "%%": 6178,
      "(*": 6179,
      "(.": 6180,
      ".,": 6181,
      "04": 6182,
      "21": 6183,
      "64": 6184,
      "600": 6185,
      "85": 6186,
      "Av": 6187,
      "Actions": 6188,
      "Bal": 6189,
      "Bir": 6190,
      "Brow": 6191,
      "BCJ": 6192,
      "Cu": 6193,
      "Ctr": 6194,
      "Cast": 6195,
      "Cait": 6196,
      "Cla": 6197,
      "Code": 6198,
      "DI": 6199,
      "Dent": 6200,
      "Dif": 6201,
      "Dear": 6202,
      "Double": 6203,
      "DIST": 6204,
      "ED": 6205,
      "EX": 6206,
      "Emer": 6207,
      "Evil": 6208,
      "Especially": 6209,
      "Fro": 6210,
      "Fir": 6211,
      "Fast": 6212,
      "Fig": 6213,
      "GO": 6214,
      "GU": 6215,
      "Gri": 6216,
      "GDM": 6217,
      "Hill": 6218,
      "IT": 6219,
      "Ibr": 6220,
      "Idi": 6221,
      "Ja": 6222,
      "Jin": 6223,
      "Jet": 6224,
      "Jones": 6225,
      "June": 6226,
      "Kai": 6227,
      "Kyle": 6228,
      "Lay": 6229,
      "Lut": 6230,
      "Lance": 6231,
      "Lady": 6232,
      "Mis": 6233,
      "Mah": 6234,
      "Mind": 6235,
      "Mask": 6236,
      "Mont": 6237,
      "Money": 6238,
      "Mia": 6239,
      "Mister": 6240,
      "MIM": 6241,
      "Nak": 6242,
      "Od": 6243,
      "PA": 6244,
      "PS": 6245,
      "Pit": 6246,
      "Pak": 6247,
      "Photo": 6248,
      "Paint": 6249,
      "PGP": 6250,
      "Rose": 6251,
      "RGB": 6252,
      "SI": 6253,
      "SU": 6254,
      "S_": 6255,
      "Sand": 6256,
      "Sad": 6257,
      "Sever": 6258,
      "Sound": 6259,
      "Side": 6260,
      "Sund": 6261,
      "Sister": 6262,
      "Tan": 6263,
      "Task": 6264,
      "Tower": 6265,
      "Tai": 6266,
      "Ur": 6267,
      "Une": 6268,
      "Vik": 6269,
      "Vari": 6270,
      "Win": 6271,
      "Wally": 6272,
      "XX": 6273,
      "XMA": 6274,
      "Ya": 6275,
      "Zero": 6276,
      "[=": 6277,
      "bie": 6278,
      "bine": 6279,
      "bount": 6280,
      "bark": 6281,
      "bump": 6282,
      "buntu": 6283,
      "cone": 6284,
      "cam": 6285,
      "cil": 6286,
      "cig": 6287,
      "cru": 6288,
      "cused": 6289,
      "eh": 6290,
      "ees": 6291,
      "fs": 6292,
      "furn": 6293,
      "frog": 6294,
      "gor": 6295,
      "gut": 6296,
      "gig": 6297,
      "guts": 6298,
      "gloves": 6299,
      "hul": 6300,
      "hunt": 6301,
      "http": 6302,
      "ito": 6303,
      "jar": 6304,
      "ko": 6305,
      "ktop": 6306,
      "lick": 6307,
      "mum": 6308,
      "mber": 6309,
      "mater": 6310,
      "nin": 6311,
      "nis": 6312,
      "pound": 6313,
      "pump": 6314,
      "passes": 6315,
      "rit": 6316,
      "rare": 6317,
      "rah": 6318,
      "rack": 6319,
      "rage": 6320,
      "random": 6321,
      "sake": 6322,
      "silly": 6323,
      "sources": 6324,
      "signing": 6325,
      "satell": 6326,
      "tall": 6327,
      "ua": 6328,
      "uri": 6329,
      "vit": 6330,
      "vant": 6331,
      "vile": 6332,
      "vage": 6333,
      "wound": 6334,
      "wolf": 6335,
      "yield": 6336,
      "yards": 6337,
      "zed": 6338,
      "zip": 6339,
      "thon": 6340,
      "inher": 6341,
      "inity": 6342,
      "incident": 6343,
      "injustice": 6344,
      "invisible": 6345,
      "era": 6346,
      "erg": 6347,
      "eric": 6348,
      "erable": 6349,
      "anny": 6350,
      "thetic": 6351,
      "recom": 6352,
      "review": 6353,
      "recover": 6354,
      "reaction": 6355,
      "removing": 6356,
      "replaced": 6357,
      "atom": 6358,
      "atory": 6359,
      "toy": 6360,
      "mel": 6361,
      "meter": 6362,
      "oro": 6363,
      "encrypt": 6364,
      "itated": 6365,
      "stake": 6366,
      "stable": 6367,
      "staring": 6368,
      "arily": 6369,
      "arrange": 6370,
      "leak": 6371,
      "veill": 6372,
      "veget": 6373,
      "seed": 6374,
      "seas": 6375,
      "seal": 6376,
      "nome": 6377,
      "..\"": 6378,
      "beg": 6379,
      "behold": 6380,
      "behavior": 6381,
      "andar": 6382,
      "asant": 6383,
      "alcohol": 6384,
      "ican": 6385,
      "iced": 6386,
      "rod": 6387,
      "etic": 6388,
      "lif": 6389,
      "lievers": 6390,
      "library": 6391,
      "advis": 6392,
      "advanced": 6393,
      "Thr": 6394,
      "Than": 6395,
      "Thor": 6396,
      "Thumb": 6397,
      "dope": 6398,
      "domin": 6399,
      "river": 6400,
      "...!": 6401,
      "chi": 6402,
      "chat": 6403,
      "outs": 6404,
      "outta": 6405,
      "nest": 6406,
      "Hebre": 6407,
      "ablo": 6408,
      "upright": 6409,
      "ungrateful": 6410,
      "agraph": 6411,
      "pee": 6412,
      "thern": 6413,
      "deth": 6414,
      "delay": 6415,
      "shield": 6416,
      "okes": 6417,
      "ahim": 6418,
      "celer": 6419,
      "Anderson": 6420,
      "ctuary": 6421,
      "mood": 6422,
      "illa": 6423,
      "feature": 6424,
      "worshi": 6425,
      "sales": 6426,
      "pled": 6427,
      "plug": 6428,
      "somethin": 6429,
      "ola": 6430,
      "tial": 6431,
      "trace": 6432,
      "traf": 6433,
      "traction": 6434,
      "trapped": 6435,
      "ula": 6436,
      "gear": 6437,
      "complain": 6438,
      "exact": 6439,
      "extract": 6440,
      "excellent": 6441,
      "useless": 6442,
      "poll": 6443,
      "aku": 6444,
      "backs": 6445,
      "essential": 6446,
      "Ohh": 6447,
      "Soon": 6448,
      "Sold": 6449,
      "Solo": 6450,
      "ordained": 6451,
      "ideas": 6452,
      "coach": 6453,
      "epy": 6454,
      "goods": 6455,
      "download": 6456,
      "offspring": 6457,
      "leting": 6458,
      "sheep": 6459,
      "ously": 6460,
      "assigned": 6461,
      "Info": 6462,
      "Inline": 6463,
      "Instead": 6464,
      "spare": 6465,
      "spaces": 6466,
      "brand": 6467,
      "brid": 6468,
      "brace": 6469,
      "performance": 6470,
      "Local": 6471,
      "suits": 6472,
      "quality": 6473,
      "Request": 6474,
      "Reload": 6475,
      "Reese": 6476,
      "affect": 6477,
      "disbelief": 6478,
      "Bell": 6479,
      "Been": 6480,
      "Beach": 6481,
      "Beaut": 6482,
      "Bella": 6483,
      "woe": 6484,
      "intend": 6485,
      "helpers": 6486,
      "dimen": 6487,
      "Getting": 6488,
      "pride": 6489,
      "Stick": 6490,
      "Stupid": 6491,
      "Area": 6492,
      "shal": 6493,
      "torped": 6494,
      "asket": 6495,
      "portion": 6496,
      "Justice": 6497,
      "Moon": 6498,
      "Molly": 6499,
      "Short": 6500,
      "Anna": 6501,
      "setup": 6502,
      "settle": 6503,
      "player": 6504,
      "choo": 6505,
      "carefully": 6506,
      "mond": 6507,
      "mony": 6508,
      "Deal": 6509,
      "Uni": 6510,
      "Union": 6511,
      "Exe": 6512,
      "Exit": 6513,
      "homes": 6514,
      "merciful": 6515,
      "membr": 6516,
      "tax": 6517,
      "keeps": 6518,
      "evol": 6519,
      "Alice": 6520,
      "bitches": 6521,
      "designed": 6522,
      "rub": 6523,
      "warr": 6524,
      "hello": 6525,
      "max": 6526,
      "landing": 6527,
      "colate": 6528,
      "History": 6529,
      "messenger": 6530,
      "finitely": 6531,
      "Commissioner": 6532,
      "ester": 6533,
      "Boo": 6534,
      "Box": 6535,
      "Boom": 6536,
      "lighted": 6537,
      "triple": 6538,
      "passphrase": 6539,
      "stays": 6540,
      "stayed": 6541,
      "flash": 6542,
      "breathing": 6543,
      "sinful": 6544,
      "sinners": 6545,
      "Organ": 6546,
      "surface": 6547,
      "surveill": 6548,
      "medical": 6549,
      "gling": 6550,
      "Connor": 6551,
      "damaged": 6552,
      "viewer": 6553,
      "versary": 6554,
      "shoe": 6555,
      "shore": 6556,
      "shock": 6557,
      "identity": 6558,
      "identified": 6559,
      "iano": 6560,
      "signed": 6561,
      "archite": 6562,
      "Art": 6563,
      "Army": 6564,
      "copied": 6565,
      "remembered": 6566,
      "sens": 6567,
      "sweetheart": 6568,
      "apparently": 6569,
      "Manage": 6570,
      "logist": 6571,
      "logical": 6572,
      "commands": 6573,
      "substit": 6574,
      "Printer": 6575,
      "atherine": 6576,
      "punk": 6577,
      "leading": 6578,
      "directories": 6579,
      "Abort": 6580,
      "Hotel": 6581,
      "daddy": 6582,
      "Guard": 6583,
      "Carter": 6584,
      "eaten": 6585,
      "Keys": 6586,
      "Quite": 6587,
      "Quinn": 6588,
      "closest": 6589,
      "protector": 6590,
      "azz": 6591,
      "paths": 6592,
      "solved": 6593,
      "borrow": 6594,
      "Colle": 6595,
      "Images": 6596,
      "Poly": 6597,
      "grounds": 6598,
      "Josh": 6599,
      "Spark": 6600,
      "screw": 6601,
      "study": 6602,
      "tempor": 6603,
      "temperature": 6604,
      "favours": 6605,
      "legal": 6606,
      "Email": 6607,
      "Emily": 6608,
      "scen": 6609,
      "detective": 6610,
      "invented": 6611,
      "tested": 6612,
      "filename": 6613,
      "instance": 6614,
      "Jackson": 6615,
      "reports": 6616,
      "reported": 6617,
      "searching": 6618,
      "transgress": 6619,
      "drove": 6620,
      "painting": 6621,
      "addict": 6622,
      "Monday": 6623,
      "Reser": 6624,
      "Resize": 6625,
      "Restore": 6626,
      "buddies": 6627,
      "strongly": 6628,
      "floating": 6629,
      "hostage": 6630,
      "AND": 6631,
      "Upon": 6632,
      "clients": 6633,
      "Paris": 6634,
      "radar": 6635,
      "expecting": 6636,
      "Saving": 6637,
      "flex": 6638,
      "confess": 6639,
      "confusion": 6640,
      "reply": 6641,
      "grandma": 6642,
      "twain": 6643,
      "twist": 6644,
      "Option": 6645,
      "depends": 6646,
      "Activ": 6647,
      "burg": 6648,
      "moments": 6649,
      "targets": 6650,
      "potential": 6651,
      "ISO": 6652,
      "papers": 6653,
      "Starting": 6654,
      "Details": 6655,
      "Office": 6656,
      "ATOR": 6657,
      "Patty": 6658,
      "laughed": 6659,
      "population": 6660,
      "arrives": 6661,
      "codes": 6662,
      "remains": 6663,
      "media": 6664,
      "unior": 6665,
      "foolish": 6666,
      "gym": 6667,
      "judged": 6668,
      "associates": 6669,
      "posted": 6670,
      "Quest": 6671,
      "ROW": 6672,
      "tools": 6673,
      "larger": 6674,
      "sexy": 6675,
      "footsteps": 6676,
      "commun": 6677,
      "committed": 6678,
      "prints": 6679,
      "Terminal": 6680,
      "copyright": 6681,
      "Americans": 6682,
      "hiding": 6683,
      "treated": 6684,
      "Searching": 6685,
      "CHUCK": 6686,
      "Windows": 6687,
      "archives": 6688,
      "CPU": 6689,
      "facing": 6690,
      "factory": 6691,
      "facility": 6692,
      "humili": 6693,
      "prepare": 6694,
      "miracle": 6695,
      "silent": 6696,
      "refuse": 6697,
      "Header": 6698,
      "storage": 6699,
      "throwing": 6700,
      "successful": 6701,
      "Yea": 6702,
      "pipe": 6703,
      "reminder": 6704,
      "woods": 6705,
      "Woe": 6706,
      "hypocr": 6707,
      "garbage": 6708,
      "arrows": 6709,
      "exciting": 6710,
      "flowers": 6711,
      "counsel": 6712,
      "Japan": 6713,
      "soft": 6714,
      "symbols": 6715,
      "scary": 6716,
      "confirmation": 6717,
      "customers": 6718,
      "Small": 6719,
      "Victoria": 6720,
      "hopes": 6721,
      "jacket": 6722,
      "summon": 6723,
      "summer": 6724,
      "bestow": 6725,
      "forbidden": 6726,
      "investigation": 6727,
      "investigating": 6728,
      "Musa": 6729,
      "wisdom": 6730,
      "xygen": 6731,
      "Company": 6732,
      "establish": 6733,
      "automatic": 6734,
      "Batman": 6735,
      "HTTP": 6736,
      "Richie": 6737,
      "updates": 6738,
      "apostles": 6739,
      "obviously": 6740,
      "champion": 6741,
      "OPTS": 6742,
      "Return": 6743,
      "billion": 6744,
      "route": 6745,
      "England": 6746,
      "activity": 6747,
      "CJK": 6748,
      "Jamie": 6749,
      "Virgin": 6750,
      "orphans": 6751,
      "explains": 6752,
      "employe": 6753,
      "practice": 6754,
      "Lawrence": 6755,
      "PATTER": 6756,
      "easily": 6757,
      "easier": 6758,
      "neglect": 6759,
      "developed": 6760,
      "indicates": 6761,
      "affairs": 6762,
      "Encryption": 6763,
      "Depart": 6764,
      "Split": 6765,
      "Square": 6766,
      "Title": 6767,
      "released": 6768,
      "chicken": 6769,
      "abandoned": 6770,
      "defeat": 6771,
      "buttons": 6772,
      "suddenly": 6773,
      "kidnapped": 6774,
      "Williams": 6775,
      "Specify": 6776,
      "relatives": 6777,
      "regarding": 6778,
      "Automatic": 6779,
      "neighbors": 6780,
      "victims": 6781,
      "Business": 6782,
      "PIXMA": 6783,
      "pulse": 6784,
      "various": 6785,
      "thirsty": 6786,
      "sequence": 6787,
      "assassin": 6788,
      "Maximum": 6789,
      "Character": 6790,
      "Franc": 6791,
      "repentance": 6792,
      "CIA": 6793,
      "Width": 6794,
      "Zeus": 6795,
      "flir": 6796,
      "delivery": 6797,
      "Expand": 6798,
      "valuable": 6799,
      "including": 6800,
      "Rachel": 6801,
      "emotional": 6802,
      "lonely": 6803,
      "inspired": 6804,
      "issues": 6805,
      "traitor": 6806,
      "British": 6807,
      "Bottom": 6808,
      "Gentlemen": 6809,
      "citizen": 6810,
      "sisters": 6811,
      "arrogant": 6812,
      "uplicate": 6813,
      "agreed": 6814,
      "conceal": 6815,
      "clipboard": 6816,
      "vironment": 6817,
      "Creator": 6818,
      "Straight": 6819,
      "retribution": 6820,
      "cocaine": 6821,
      "covenant": 6822,
      "browser": 6823,
      "Shiva": 6824,
      "frankly": 6825,
      "Attributes": 6826,
      "Authentication": 6827,
      "Position": 6828,
      "Brooklyn": 6829,
      "electrical": 6830,
      "guarantee": 6831,
      "administrator": 6832,
      "Caitlin": 6833,
      "Ibrahim": 6834,
      "Idiot": 6835,
      "Pakistan": 6836,
      "Sunday": 6837,
      "material": 6838,
      "recommend": 6839,
      "traffic": 6840,
      "torpedo": 6841,
      "surveillance": 6842,
      "PATTERN": 6843,
      "\"!": 6844,
      "\"{": 6845,
      ")}": 6846,
      "1s": 6847,
      "150": 6848,
      "29": 6849,
      "2C": 6850,
      "35": 6851,
      "42": 6852,
      "45": 6853,
      "49": 6854,
      "Ay": 6855,
      "Az": 6856,
      "Abe": 6857,
      "Amy": 6858,
      "Aven": 6859,
      "Amand": 6860,
      "Bin": 6861,
      "Baj": 6862,
      "CC": 6863,
      "Cri": 6864,
      "Cam": 6865,
      "Cind": 6866,
      "Crow": 6867,
      "Camp": 6868,
      "CROW": 6869,
      "DF": 6870,
      "DN": 6871,
      "Dust": 6872,
      "Dance": 6873,
      "Dory": 6874,
      "DAP": 6875,
      "Database": 6876,
      "DNA": 6877,
      "EP": 6878,
      "Es": 6879,
      "Egg": 6880,
      "Fur": 6881,
      "Found": 6882,
      "Fra": 6883,
      "Field": 6884,
      "Fax": 6885,
      "GE": 6886,
      "Gall": 6887,
      "Gam": 6888,
      "Gang": 6889,
      "Gree": 6890,
      "GAS": 6891,
      "GIF": 6892,
      "HP": 6893,
      "Hm": 6894,
      "Hen": 6895,
      "Hall": 6896,
      "Hun": 6897,
      "Hom": 6898,
      "Hag": 6899,
      "Hack": 6900,
      "Hot": 6901,
      "IL": 6902,
      "Ill": 6903,
      "Iss": 6904,
      "Icon": 6905,
      "Ji": 6906,
      "Jab": 6907,
      "Jai": 6908,
      "Jason": 6909,
      "Ko": 6910,
      "Kon": 6911,
      "Kent": 6912,
      "Kum": 6913,
      "Kang": 6914,
      "KING": 6915,
      "Lou": 6916,
      "Len": 6917,
      "Lar": 6918,
      "Lie": 6919,
      "Lower": 6920,
      "Larry": 6921,
      "LAN": 6922,
      "LDAP": 6923,
      "Mim": 6924,
      "Mun": 6925,
      "Mel": 6926,
      "Matt": 6927,
      "Mumb": 6928,
      "Miam": 6929,
      "Mason": 6930,
      "NC": 6931,
      "Na": 6932,
      "Non": 6933,
      "Nay": 6934,
      "Nag": 6935,
      "Numbers": 6936,
      "National": 6937,
      "OD": 6938,
      "Os": 6939,
      "Oft": 6940,
      "Octo": 6941,
      "Pad": 6942,
      "Pun": 6943,
      "Pain": 6944,
      "Pie": 6945,
      "Pear": 6946,
      "Push": 6947,
      "Praise": 6948,
      "POP": 6949,
      "Ran": 6950,
      "Ren": 6951,
      "Rom": 6952,
      "Round": 6953,
      "Riley": 6954,
      "Sof": 6955,
      "Suck": 6956,
      "Shad": 6957,
      "Spr": 6958,
      "Sull": 6959,
      "Stor": 6960,
      "School": 6961,
      "Sier": 6962,
      "Shot": 6963,
      "Sending": 6964,
      "Tal": 6965,
      "Tok": 6966,
      "Till": 6967,
      "Tig": 6968,
      "Twenty": 6969,
      "Ve": 6970,
      "Vers": 6971,
      "Wan": 6972,
      "Wol": 6973,
      "WAR": 6974,
      "Yah": 6975,
      "Zach": 6976,
      "_e": 6977,
      "_Open": 6978,
      "_Select": 6979,
      "_Use": 6980,
      "_Save": 6981,
      "ales": 6982,
      "aunt": 6983,
      "bare": 6984,
      "bly": 6985,
      "bread": 6986,
      "bted": 6987,
      "bounce": 6988,
      "battery": 6989,
      "cache": 6990,
      "dish": 6991,
      "dated": 6992,
      "dates": 6993,
      "een": 6994,
      "east": 6995,
      "flip": 6996,
      "gt": 6997,
      "gal": 6998,
      "glo": 6999,
      "gates": 7000,
      "hatch": 7001,
      "iac": 7002,
      "iah": 7003,
      "iju": 7004,
      "iCalendar": 7005,
      "jug": 7006,
      "joking": 7007,
      "jerk": 7008,
      "kin": 7009,
      "ker": 7010,
      "kung": 7011,
      "lit": 7012,
      "lum": 7013,
      "lace": 7014,
      "lame": 7015,
      "lung": 7016,
      "mac": 7017,
      "mare": 7018,
      "mun": 7019,
      "mally": 7020,
      "math": 7021,
      "mama": 7022,
      "nit": 7023,
      "nut": 7024,
      "niss": 7025,
      "oke": 7026,
      "ograph": 7027,
      "pour": 7028,
      "pink": 7029,
      "pson": 7030,
      "pounds": 7031,
      "rap": 7032,
      "racing": 7033,
      "sucks": 7034,
      "skills": 7035,
      "tical": 7036,
      "tiny": 7037,
      "vain": 7038,
      "vation": 7039,
      "vable": 7040,
      "vite": 7041,
      "vies": 7042,
      "wow": 7043,
      "wrest": 7044,
      "zil": 7045,
      "thi": 7046,
      "tho": 7047,
      "thur": 7048,
      "thick": 7049,
      "thless": 7050,
      "inch": 7051,
      "inde": 7052,
      "inct": 7053,
      "intel": 7054,
      "infant": 7055,
      "independ": 7056,
      "inhabit": 7057,
      "erc": 7058,
      "anal": 7059,
      "theme": 7060,
      "theory": 7061,
      "ream": 7062,
      "refer": 7063,
      "retri": 7064,
      "reserve": 7065,
      "reverse": 7066,
      "ati": 7067,
      "atsu": 7068,
      "atform": 7069,
      "yout": 7070,
      "toys": 7071,
      "tories": 7072,
      "lls": 7073,
      "meg": 7074,
      "mechan": 7075,
      "ingers": 7076,
      "ington": 7077,
      "orm": 7078,
      "eness": 7079,
      "enable": 7080,
      "enance": 7081,
      "enjoin": 7082,
      "encounter": 7083,
      "stic": 7084,
      "sters": 7085,
      "stones": 7086,
      "array": 7087,
      "helic": 7088,
      "sey": 7089,
      "seated": 7090,
      "secu": 7091,
      "noon": 7092,
      "nowhere": 7093,
      "beth": 7094,
      "beard": 7095,
      "beating": 7096,
      "bels": 7097,
      "whale": 7098,
      "esh": 7099,
      "espe": 7100,
      "aly": 7101,
      "algor": 7102,
      "acles": 7103,
      "goti": 7104,
      "ghan": 7105,
      "icated": 7106,
      "icode": 7107,
      "robe": 7108,
      "wired": 7109,
      "wives": 7110,
      "wizard": 7111,
      "vernor": 7112,
      "lia": 7113,
      "liqu": 7114,
      "allies": 7115,
      "aded": 7116,
      "adient": 7117,
      "Through": 7118,
      "dozen": 7119,
      "riot": 7120,
      "ripped": 7121,
      "aret": 7122,
      "areth": 7123,
      "chant": 7124,
      "Week": 7125,
      "neath": 7126,
      "Helen": 7127,
      "abbit": 7128,
      "imony": 7129,
      "usive": 7130,
      "ambul": 7131,
      "union": 7132,
      "undo": 7133,
      "unable": 7134,
      "unny": 7135,
      "unaware": 7136,
      "agger": 7137,
      "Item": 7138,
      "therap": 7139,
      "deaf": 7140,
      "shout": 7141,
      "shine": 7142,
      "sharing": 7143,
      "antly": 7144,
      "Noble": 7145,
      "ifies": 7146,
      "movies": 7147,
      "tex": 7148,
      "feast": 7149,
      "fears": 7150,
      "ila": 7151,
      "romantic": 7152,
      "sale": 7153,
      "pling": 7154,
      "manual": 7155,
      "someday": 7156,
      "tire": 7157,
      "tiger": 7158,
      "tiles": 7159,
      "tips": 7160,
      "convin": 7161,
      "constant": 7162,
      "conference": 7163,
      "congrat": 7164,
      "apt": 7165,
      "ureau": 7166,
      "wanting": 7167,
      "ives": 7168,
      "abouts": 7169,
      "geon": 7170,
      "cases": 7171,
      "causing": 7172,
      "comment": 7173,
      "compressed": 7174,
      "ieur": 7175,
      "express": 7176,
      "exceed": 7177,
      "exerc": 7178,
      "useum": 7179,
      "pointer": 7180,
      "istry": 7181,
      "aki": 7182,
      "venom": 7183,
      "uma": 7184,
      "ums": 7185,
      "prophet": 7186,
      "proxy": 7187,
      "prosecu": 7188,
      "ideal": 7189,
      "ppet": 7190,
      "needy": 7191,
      "coat": 7192,
      "cooper": 7193,
      "Dog": 7194,
      "acts": 7195,
      "earn": 7196,
      "leton": 7197,
      "lookin": 7198,
      "assistant": 7199,
      "Gods": 7200,
      "Init": 7201,
      "Intern": 7202,
      "spending": 7203,
      "spades": 7204,
      "workers": 7205,
      "ishing": 7206,
      "creepy": 7207,
      "perce": 7208,
      "perate": 7209,
      "Logan": 7210,
      "Location": 7211,
      "quake": 7212,
      "Reed": 7213,
      "Recall": 7214,
      "killers": 7215,
      "wherein": 7216,
      "disable": 7217,
      "disease": 7218,
      "Bee": 7219,
      "Being": 7220,
      "Beep": 7221,
      "Believers": 7222,
      "woo": 7223,
      "serving": 7224,
      "serves": 7225,
      "undone": 7226,
      "Selection": 7227,
      "printer": 7228,
      "princi": 7229,
      "Stre": 7230,
      "izer": 7231,
      "audi": 7232,
      "tort": 7233,
      "cially": 7234,
      "types": 7235,
      "typing": 7236,
      "firing": 7237,
      "pleasant": 7238,
      "Moving": 7239,
      "finding": 7240,
      "partition": 7241,
      "stands": 7242,
      "standard": 7243,
      "strict": 7244,
      "Looking": 7245,
      "Shin": 7246,
      "Shen": 7247,
      "bubble": 7248,
      "ips": 7249,
      "Ann": 7250,
      "Anim": 7251,
      "undercover": 7252,
      "underneath": 7253,
      "cursor": 7254,
      "Notes": 7255,
      "reduce": 7256,
      "clay": 7257,
      "chocolate": 7258,
      "Dest": 7259,
      "Device": 7260,
      "Debugger": 7261,
      "Definitely": 7262,
      "Unsupported": 7263,
      "Unfortunately": 7264,
      "Expressed": 7265,
      "Excellent": 7266,
      "forms": 7267,
      "ignor": 7268,
      "Yours": 7269,
      "supply": 7270,
      "tale": 7271,
      "tales": 7272,
      "thrown": 7273,
      "evous": 7274,
      "events": 7275,
      "tops": 7276,
      "startup": 7277,
      "Alt": 7278,
      "desp": 7279,
      "desert": 7280,
      "despair": 7281,
      "closet": 7282,
      "closes": 7283,
      "pleases": 7284,
      "waited": 7285,
      "wrongdoers": 7286,
      "lessons": 7287,
      "keyring": 7288,
      "keymap": 7289,
      "Mayor": 7290,
      "ithm": 7291,
      "lands": 7292,
      "Oneness": 7293,
      "colour": 7294,
      "dreamed": 7295,
      "messing": 7296,
      "Comple": 7297,
      "conduct": 7298,
      "syn": 7299,
      "Boys": 7300,
      "Process": 7301,
      "trium": 7302,
      "throughout": 7303,
      "passing": 7304,
      "badly": 7305,
      "flat": 7306,
      "flame": 7307,
      "counting": 7308,
      "countries": 7309,
      "brella": 7310,
      "rescu": 7311,
      "rescue": 7312,
      "fights": 7313,
      "fighter": 7314,
      "fighters": 7315,
      "Lead": 7316,
      "gines": 7317,
      "glow": 7318,
      "glass": 7319,
      "Gradient": 7320,
      "Room": 7321,
      "minds": 7322,
      "Mean": 7323,
      "chaos": 7324,
      "harder": 7325,
      "checks": 7326,
      "cules": 7327,
      "curious": 7328,
      "slay": 7329,
      "correspond": 7330,
      "Arthur": 7331,
      "listened": 7332,
      "soup": 7333,
      "errors": 7334,
      "fired": 7335,
      "fires": 7336,
      "senior": 7337,
      "sweep": 7338,
      "views": 7339,
      "District": 7340,
      "subs": 7341,
      "Blind": 7342,
      "avenge": 7343,
      "pretend": 7344,
      "Suzur": 7345,
      "punch": 7346,
      "Guan": 7347,
      "destiny": 7348,
      "Plan": 7349,
      "Plugin": 7350,
      "Quit": 7351,
      "Quality": 7352,
      "ungle": 7353,
      "drinks": 7354,
      "Drink": 7355,
      "Merge": 7356,
      "prize": 7357,
      "solid": 7358,
      "Author": 7359,
      "Co_": 7360,
      "voices": 7361,
      "vocation": 7362,
      "failure": 7363,
      "Creation": 7364,
      "Sets": 7365,
      "France": 7366,
      "Joey": 7367,
      "Peace": 7368,
      "packed": 7369,
      "scream": 7370,
      "screwed": 7371,
      "gentle": 7372,
      "conscious": 7373,
      "speaks": 7374,
      "entering": 7375,
      "trained": 7376,
      "extreme": 7377,
      "covering": 7378,
      "region": 7379,
      "registr": 7380,
      "Emma": 7381,
      "Emperor": 7382,
      "Shared": 7383,
      "specification": 7384,
      "detail": 7385,
      "located": 7386,
      "Normal": 7387,
      "horses": 7388,
      "mislead": 7389,
      "miserable": 7390,
      "testify": 7391,
      "testimony": 7392,
      "appointments": 7393,
      "picking": 7394,
      "beauty": 7395,
      "Books": 7396,
      "Bookmark": 7397,
      "Sammy": 7398,
      "pulling": 7399,
      "rolled": 7400,
      "dreaming": 7401,
      "aji": 7402,
      "According": 7403,
      "Stephen": 7404,
      "pursu": 7405,
      "paint": 7406,
      "similar": 7407,
      "Mono": 7408,
      "Monster": 7409,
      "rounds": 7410,
      "answered": 7411,
      "buying": 7412,
      "ifying": 7413,
      "cells": 7414,
      "hosts": 7415,
      "Damon": 7416,
      "Update": 7417,
      "radius": 7418,
      "Barney": 7419,
      "confident": 7420,
      "ERING": 7421,
      "Hercules": 7422,
      "occup": 7423,
      "repair": 7424,
      "replied": 7425,
      "continues": 7426,
      "palette": 7427,
      "Writing": 7428,
      "midnight": 7429,
      "Morgan": 7430,
      "panels": 7431,
      "Breathe": 7432,
      "ONE": 7433,
      "eleph": 7434,
      "elements": 7435,
      "Support": 7436,
      "palace": 7437,
      "static": 7438,
      "secretly": 7439,
      "ombs": 7440,
      "professional": 7441,
      "Harper": 7442,
      "Harris": 7443,
      "Harvey": 7444,
      "require": 7445,
      "grievous": 7446,
      "popular": 7447,
      "animation": 7448,
      "Feli": 7449,
      "System": 7450,
      "Syntax": 7451,
      "susp": 7452,
      "univers": 7453,
      "judgment": 7454,
      "Desktop": 7455,
      "benefits": 7456,
      "forgotten": 7457,
      "doctors": 7458,
      "succeed": 7459,
      "patients": 7460,
      "patiently": 7461,
      "drawing": 7462,
      "includes": 7463,
      "blessed": 7464,
      "superior": 7465,
      "suggesting": 7466,
      "suggestion": 7467,
      "circum": 7468,
      "rocks": 7469,
      "copying": 7470,
      "pictures": 7471,
      "prayers": 7472,
      "API": 7473,
      "Curtis": 7474,
      "Liu": 7475,
      "Library": 7476,
      "squir": 7477,
      "warnings": 7478,
      "collection": 7479,
      "Krabs": 7480,
      "bsite": 7481,
      "humble": 7482,
      "vault": 7483,
      "widget": 7484,
      "Hades": 7485,
      "refused": 7486,
      "Worker": 7487,
      "jumped": 7488,
      "Grandma": 7489,
      "Appoint": 7490,
      "photos": 7491,
      "ronic": 7492,
      "strip": 7493,
      "strike": 7494,
      "vertical": 7495,
      "corrected": 7496,
      "appearance": 7497,
      "bastards": 7498,
      "crossed": 7499,
      "announce": 7500,
      "recited": 7501,
      "agreement": 7502,
      "Bluetooth": 7503,
      "electronic": 7504,
      "parking": 7505,
      "revelation": 7506,
      "suffering": 7507,
      "particular": 7508,
      "corrupted": 7509,
      "score": 7510,
      "Baah": 7511,
      "Mailbox": 7512,
      "Smith": 7513,
      "daemon": 7514,
      "odds": 7515,
      "growing": 7516,
      "Signature": 7517,
      "Walker": 7518,
      "persons": 7519,
      "psycho": 7520,
      "determine": 7521,
      "LAU": 7522,
      "Richard": 7523,
      "casino": 7524,
      "ceremony": 7525,
      "federal": 7526,
      "fruits": 7527,
      "capture": 7528,
      "Solar": 7529,
      "Template": 7530,
      "Understand": 7531,
      "Wayne": 7532,
      "compete": 7533,
      "competition": 7534,
      "Judgment": 7535,
      "fifth": 7536,
      "Islands": 7537,
      "Engine": 7538,
      "fluid": 7539,
      "activated": 7540,
      "Reverse": 7541,
      "Traitor": 7542,
      "tunnel": 7543,
      "reckoning": 7544,
      "arrested": 7545,
      "explorer": 7546,
      "celebrate": 7547,
      "Dennis": 7548,
      "basic": 7549,
      "coward": 7550,
      "tongues": 7551,
      "betrayed": 7552,
      "territory": 7553,
      "bothering": 7554,
      "warriors": 7555,
      "Operation": 7556,
      "limited": 7557,
      "introduce": 7558,
      "maximum": 7559,
      "passionate": 7560,
      "Automatically": 7561,
      "neighbour": 7562,
      "Brazil": 7563,
      "DAV": 7564,
      "Language": 7565,
      "Santa": 7566,
      "Target": 7567,
      "recursive": 7568,
      "tradition": 7569,
      "parameter": 7570,
      "Objects": 7571,
      "GRUNTING": 7572,
      "02d": 7573,
      "Bonnie": 7574,
      "Careful": 7575,
      "Friends": 7576,
      "Isaac": 7577,
      "Katniss": 7578,
      "Latin": 7579,
      "Skynet": 7580,
      "integer": 7581,
      "necklace": 7582,
      "clouds": 7583,
      "Julian": 7584,
      "Murphy": 7585,
      "CTION": 7586,
      "Gandalf": 7587,
      "Python": 7588,
      "Volume": 7589,
      "Washington": 7590,
      "category": 7591,
      "elimin": 7592,
      "instructions": 7593,
      "Eliza": 7594,
      "Falcone": 7595,
      "Promise": 7596,
      "dictionary": 7597,
      "whisper": 7598,
      "Changes": 7599,
      "cuffs": 7600,
      "custody": 7601,
      "Christians": 7602,
      "Gonna": 7603,
      "Jacob": 7604,
      "Origin": 7605,
      "younger": 7606,
      "toilet": 7607,
      "glorify": 7608,
      "Atlantic": 7609,
      "Continue": 7610,
      "Ctrl": 7611,
      "Claire": 7612,
      "MIME": 7613,
      "Unexpected": 7614,
      "Hebrew": 7615,
      "Solomon": 7616,
      "Beautiful": 7617,
      "membrance": 7618,
      "warrant": 7619,
      "Question": 7620,
      "CHUCKLES": 7621,
      "Department": 7622,
      "Amanda": 7623,
      "Henry": 7624,
      "Mumbai": 7625,
      "Miami": 7626,
      "October": 7627,
      "Spring": 7628,
      "especially": 7629,
      "algorithm": 7630,
      "ambulance": 7631,
      "prosecutor": 7632,
      "Suzuran": 7633,
      "\"..": 7634,
      "\"...": 7635,
      "%(": 7636,
      ",”": 7637,
      ",...": 7638,
      "-%": 7639,
      ".%": 7640,
      ".*": 7641,
      "44": 7642,
      "46": 7643,
      "47": 7644,
      "48": 7645,
      "710": 7646,
      "911": 7647,
      "?'": 7648,
      "A_": 7649,
      "Ax": 7650,
      "Ale": 7651,
      "Ana": 7652,
      "Ama": 7653,
      "Apri": 7654,
      "Aaron": 7655,
      "Band": 7656,
      "Bab": 7657,
      "Bag": 7658,
      "Bak": 7659,
      "Bear": 7660,
      "Batt": 7661,
      "Blast": 7662,
      "Bren": 7663,
      "Bla": 7664,
      "Bitch": 7665,
      "Brian": 7666,
      "Bryan": 7667,
      "CS": 7668,
      "Cat": 7669,
      "Cand": 7670,
      "Cour": 7671,
      "Cage": 7672,
      "Cull": 7673,
      "Cold": 7674,
      "Cons": 7675,
      "Coun": 7676,
      "Clip": 7677,
      "Categ": 7678,
      "CREA": 7679,
      "Ding": 7680,
      "Dir": 7681,
      "Dod": 7682,
      "Dong": 7683,
      "Dix": 7684,
      "Eve": 7685,
      "Ent": 7686,
      "ETA": 7687,
      "Fis": 7688,
      "Fac": 7689,
      "Fly": 7690,
      "Fif": 7691,
      "Fear": 7692,
      "Faster": 7693,
      "Feed": 7694,
      "Fatal": 7695,
      "GA": 7696,
      "Ga": 7697,
      "Gur": 7698,
      "Gok": 7699,
      "Gary": 7700,
      "Greet": 7701,
      "HA": 7702,
      "HS": 7703,
      "Hay": 7704,
      "Hong": 7705,
      "Hail": 7706,
      "Hann": 7707,
      "Honest": 7708,
      "HEL": 7709,
      "Holt": 7710,
      "IV": 7711,
      "Ide": 7712,
      "Icons": 7713,
      "Ivan": 7714,
      "Jing": 7715,
      "Jem": 7716,
      "Jump": 7717,
      "Kh": 7718,
      "Kol": 7719,
      "Kong": 7720,
      "Kob": 7721,
      "Las": 7722,
      "Leah": 7723,
      "Less": 7724,
      "Lang": 7725,
      "Lev": 7726,
      "LING": 7727,
      "Liv": 7728,
      "Laugh": 7729,
      "Lloy": 7730,
      "Lucky": 7731,
      "Linda": 7732,
      "Mir": 7733,
      "Mons": 7734,
      "Mars": 7735,
      "Meta": 7736,
      "NT": 7737,
      "Nar": 7738,
      "Null": 7739,
      "Nathan": 7740,
      "Oli": 7741,
      "Oly": 7742,
      "Oct": 7743,
      "PP": 7744,
      "P_": 7745,
      "Por": 7746,
      "Pure": 7747,
      "Pose": 7748,
      "Pix": 7749,
      "PIN": 7750,
      "Pants": 7751,
      "PDF": 7752,
      "Row": 7753,
      "Rome": 7754,
      "Rah": 7755,
      "Rex": 7756,
      "Rows": 7757,
      "RIP": 7758,
      "Sc": 7759,
      "Sw": 7760,
      "Sac": 7761,
      "Sig": 7762,
      "Spo": 7763,
      "Sum": 7764,
      "Sep": 7765,
      "Sche": 7766,
      "Smur": 7767,
      "Ski": 7768,
      "Ti": 7769,
      "Tu": 7770,
      "Tw": 7771,
      "Tam": 7772,
      "Tong": 7773,
      "Taking": 7774,
      "THE": 7775,
      "Und": 7776,
      "Ubuntu": 7777,
      "VI": 7778,
      "VNC": 7779,
      "WH": 7780,
      "Wong": 7781,
      "Winn": 7782,
      "Yong": 7783,
      "Year": 7784,
      "Yester": 7785,
      "Zhang": 7786,
      "[%": 7787,
      "_k": 7788,
      "_Right": 7789,
      "_Show": 7790,
      "_New": 7791,
      "_Dis": 7792,
      "_Help": 7793,
      "_Copy": 7794,
      "_Edit": 7795,
      "_Previous": 7796,
      "_PATTERN": 7797,
      "aid": 7798,
      "bis": 7799,
      "bod": 7800,
      "bour": 7801,
      "bass": 7802,
      "bian": 7803,
      "basket": 7804,
      "cca": 7805,
      "cort": 7806,
      "cending": 7807,
      "cimal": 7808,
      "dess": 7809,
      "dating": 7810,
      "dict": 7811,
      "elo": 7812,
      "econ": 7813,
      "eager": 7814,
      "fid": 7815,
      "fare": 7816,
      "fright": 7817,
      "flock": 7818,
      "ffect": 7819,
      "faction": 7820,
      "fingers": 7821,
      "gro": 7822,
      "gross": 7823,
      "gitive": 7824,
      "ipp": 7825,
      "ipped": 7826,
      "jan": 7827,
      "jur": 7828,
      "junk": 7829,
      "jungle": 7830,
      "kb": 7831,
      "kno": 7832,
      "ket": 7833,
      "kward": 7834,
      "lat": 7835,
      "lump": 7836,
      "mall": 7837,
      "mam": 7838,
      "mary": 7839,
      "nar": 7840,
      "nay": 7841,
      "num": 7842,
      "ote": 7843,
      "ored": 7844,
      "oja": 7845,
      "pad": 7846,
      "pod": 7847,
      "pus": 7848,
      "paw": 7849,
      "pars": 7850,
      "pages": 7851,
      "pient": 7852,
      "paj": 7853,
      "piano": 7854,
      "rin": 7855,
      "rink": 7856,
      "rice": 7857,
      "rance": 7858,
      "slo": 7859,
      "sab": 7860,
      "sation": 7861,
      "sie": 7862,
      "sue": 7863,
      "skill": 7864,
      "swell": 7865,
      "smar": 7866,
      "scal": 7867,
      "swing": 7868,
      "tou": 7869,
      "tone": 7870,
      "tent": 7871,
      "tend": 7872,
      "tide": 7873,
      "tact": 7874,
      "tresp": 7875,
      "tune": 7876,
      "uer": 7877,
      "uman": 7878,
      "uine": 7879,
      "uous": 7880,
      "vap": 7881,
      "vator": 7882,
      "wage": 7883,
      "wings": 7884,
      "wakes": 7885,
      "whel": 7886,
      "yl": 7887,
      "zie": 7888,
      "zoom": 7889,
      "tha": 7890,
      "tham": 7891,
      "incoming": 7892,
      "inny": 7893,
      "inspector": 7894,
      "err": 7895,
      "erase": 7896,
      "ani": 7897,
      "anish": 7898,
      "rem": 7899,
      "rely": 7900,
      "reign": 7901,
      "rejo": 7902,
      "rebel": 7903,
      "retreat": 7904,
      "retired": 7905,
      "relieve": 7906,
      "reaches": 7907,
      "revenge": 7908,
      "rebels": 7909,
      "atore": 7910,
      "youth": 7911,
      "isy": 7912,
      "isol": 7913,
      "tos": 7914,
      "token": 7915,
      "lled": 7916,
      "lliant": 7917,
      "melo": 7918,
      "ories": 7919,
      "orida": 7920,
      "ening": 7921,
      "engines": 7922,
      "itent": 7923,
      "stab": 7924,
      "stamp": 7925,
      "stress": 7926,
      "stream": 7927,
      "editing": 7928,
      "ardo": 7929,
      "aration": 7930,
      "armor": 7931,
      "ario": 7932,
      "arrang": 7933,
      "leet": 7934,
      "health": 7935,
      "sec": 7936,
      "seized": 7937,
      "begun": 7938,
      "beef": 7939,
      "beloved": 7940,
      "begging": 7941,
      "oft": 7942,
      "asphe": 7943,
      "assets": 7944,
      "ascribe": 7945,
      "aye": 7946,
      "ays": 7947,
      "whist": 7948,
      "esis": 7949,
      "esar": 7950,
      "aling": 7951,
      "altern": 7952,
      "owed": 7953,
      "ids": 7954,
      "idon": 7955,
      "idences": 7956,
      "acceler": 7957,
      "ros": 7958,
      "rose": 7959,
      "rope": 7960,
      "rots": 7961,
      "rogue": 7962,
      "ett": 7963,
      "etern": 7964,
      "fornia": 7965,
      "libr": 7966,
      "liars": 7967,
      "Whis": 7968,
      "allerg": 7969,
      "uta": 7970,
      "adjust": 7971,
      "admon": 7972,
      "Throw": 7973,
      "Thousand": 7974,
      "ione": 7975,
      "dock": 7976,
      "rial": 7977,
      "rius": 7978,
      "rifle": 7979,
      "rific": 7980,
      "nds": 7981,
      "areas": 7982,
      "notify": 7983,
      "notification": 7984,
      "web": 7985,
      "weed": 7986,
      "weigh": 7987,
      "weather": 7988,
      "loan": 7989,
      "loving": 7990,
      "chill": 7991,
      "chunk": 7992,
      "negoti": 7993,
      "Hector": 7994,
      "Heaven": 7995,
      "abort": 7996,
      "abund": 7997,
      "imit": 7998,
      "impressed": 7999,
      "impressive": 8000,
      "urs": 8001,
      "ural": 8002,
      "urgent": 8003,
      "urban": 8004,
      "uster": 8005,
      "amity": 8006,
      "amatic": 8007,
      "unte": 8008,
      "unbelie": 8009,
      "unfinished": 8010,
      "aging": 8011,
      "agers": 8012,
      "entin": 8013,
      "cancell": 8014,
      "deput": 8015,
      "debug": 8016,
      "antage": 8017,
      "whatsoever": 8018,
      "ifts": 8019,
      "mol": 8020,
      "mole": 8021,
      "tear": 8022,
      "oppos": 8023,
      "nail": 8024,
      "fection": 8025,
      "ainted": 8026,
      "rights": 8027,
      "rightly": 8028,
      "sai": 8029,
      "sail": 8030,
      "pler": 8031,
      "plates": 8032,
      "platform": 8033,
      "inder": 8034,
      "whore": 8035,
      "maniac": 8036,
      "thereby": 8037,
      "conut": 8038,
      "condo": 8039,
      "consu": 8040,
      "constr": 8041,
      "concept": 8042,
      "config": 8043,
      "confront": 8044,
      "aps": 8045,
      "ulu": 8046,
      "ulator": 8047,
      "asters": 8048,
      "onge": 8049,
      "compress": 8050,
      "compression": 8051,
      "iest": 8052,
      "ieve": 8053,
      "ieves": 8054,
      "iels": 8055,
      "expo": 8056,
      "exits": 8057,
      "expen": 8058,
      "gum": 8059,
      "poet": 8060,
      "poly": 8061,
      "aka": 8062,
      "eluj": 8063,
      "hish": 8064,
      "proposal": 8065,
      "raising": 8066,
      "Goo": 8067,
      "Going": 8068,
      "Goog": 8069,
      "Gotham": 8070,
      "preh": 8071,
      "coon": 8072,
      "core": 8073,
      "coordin": 8074,
      "icking": 8075,
      "offset": 8076,
      "acted": 8077,
      "actal": 8078,
      "liest": 8079,
      "grap": 8080,
      "grass": 8081,
      "anky": 8082,
      "assure": 8083,
      "Ins": 8084,
      "Incoming": 8085,
      "Invite": 8086,
      "spared": 8087,
      "itty": 8088,
      "angers": 8089,
      "anghai": 8090,
      "brown": 8091,
      "bride": 8092,
      "brick": 8093,
      "perish": 8094,
      "perfu": 8095,
      "permitted": 8096,
      "perimeter": 8097,
      "Lost": 8098,
      "Load": 8099,
      "override": 8100,
      "overwhel": 8101,
      "forefathers": 8102,
      "Reg": 8103,
      "Release": 8104,
      "Remind": 8105,
      "oted": 8106,
      "otic": 8107,
      "whereabouts": 8108,
      "afar": 8109,
      "newly": 8110,
      "disco": 8111,
      "discover": 8112,
      "dishes": 8113,
      "disrespect": 8114,
      "disposal": 8115,
      "embrace": 8116,
      "woke": 8117,
      "Chung": 8118,
      "intention": 8119,
      "ansas": 8120,
      "helps": 8121,
      "diagram": 8122,
      "Sea": 8123,
      "Sean": 8124,
      "Seek": 8125,
      "Sebast": 8126,
      "prick": 8127,
      "Stone": 8128,
      "Starling": 8129,
      "blown": 8130,
      "izza": 8131,
      "talks": 8132,
      "ameters": 8133,
      "shake": 8134,
      "shaking": 8135,
      "shapes": 8136,
      "fuckers": 8137,
      "portal": 8138,
      "ademy": 8139,
      "Wherever": 8140,
      "bodyguard": 8141,
      "obed": 8142,
      "obsess": 8143,
      "observe": 8144,
      "chess": 8145,
      "minimum": 8146,
      "Movie": 8147,
      "Moham": 8148,
      "struck": 8149,
      "Shred": 8150,
      "Shift": 8151,
      "Shanti": 8152,
      "Shanghai": 8153,
      "curve": 8154,
      "cleared": 8155,
      "yeon": 8156,
      "headers": 8157,
      "choices": 8158,
      "Dev": 8159,
      "Decrypt": 8160,
      "Develo": 8161,
      "Unicode": 8162,
      "Extra": 8163,
      "Expected": 8164,
      "placement": 8165,
      "awake": 8166,
      "afternoon": 8167,
      "suppor": 8168,
      "nightmare": 8169,
      "hug": 8170,
      "phones": 8171,
      "worldly": 8172,
      "throne": 8173,
      "evac": 8174,
      "evidences": 8175,
      "atts": 8176,
      "atten": 8177,
      "attend": 8178,
      "Alas": 8179,
      "Alta": 8180,
      "Alvin": 8181,
      "bition": 8182,
      "bitter": 8183,
      "described": 8184,
      "desperate": 8185,
      "clot": 8186,
      "ruined": 8187,
      "rences": 8188,
      "gian": 8189,
      "hears": 8190,
      "gery": 8191,
      "dynam": 8192,
      "lessly": 8193,
      "kiddin": 8194,
      "reality": 8195,
      "Maya": 8196,
      "Mayday": 8197,
      "landed": 8198,
      "colony": 8199,
      "drey": 8200,
      "rows": 8201,
      "messed": 8202,
      "finity": 8203,
      "Compat": 8204,
      "Computer": 8205,
      "conditions": 8206,
      "stops": 8207,
      "cried": 8208,
      "moral": 8209,
      "pens": 8210,
      "follows": 8211,
      "counts": 8212,
      "dramatic": 8213,
      "resources": 8214,
      "League": 8215,
      "Waiting": 8216,
      "Orb": 8217,
      "gins": 8218,
      "surgery": 8219,
      "uded": 8220,
      "Tele": 8221,
      "medal": 8222,
      "Confirm": 8223,
      "Console": 8224,
      "Grant": 8225,
      "Graph": 8226,
      "crown": 8227,
      "crum": 8228,
      "mariju": 8229,
      "promises": 8230,
      "clearing": 8231,
      "chapter": 8232,
      "hardly": 8233,
      "compound": 8234,
      "completion": 8235,
      "parties": 8236,
      "interval": 8237,
      "intercess": 8238,
      "interrupt": 8239,
      "genuine": 8240,
      "slumber": 8241,
      "visions": 8242,
      "earthquake": 8243,
      "steady": 8244,
      "Advanced": 8245,
      "central": 8246,
      "Indic": 8247,
      "Prep": 8248,
      "Preparing": 8249,
      "witches": 8250,
      "cuts": 8251,
      "driven": 8252,
      "drift": 8253,
      "sweat": 8254,
      "fastest": 8255,
      "Manny": 8256,
      "logging": 8257,
      "ificates": 8258,
      "Seeing": 8259,
      "Brad": 8260,
      "skull": 8261,
      "fearing": 8262,
      "thankful": 8263,
      "leaders": 8264,
      "Host": 8265,
      "Holly": 8266,
      "rises": 8267,
      "policy": 8268,
      "dealing": 8269,
      "gged": 8270,
      "decrypt": 8271,
      "safely": 8272,
      "guessing": 8273,
      "Seriz": 8274,
      "cords": 8275,
      "metal": 8276,
      "bookmark": 8277,
      "Quentin": 8278,
      "wished": 8279,
      "frequ": 8280,
      "Drac": 8281,
      "Merry": 8282,
      "priate": 8283,
      "solve": 8284,
      "Audrey": 8285,
      "Coll": 8286,
      "Colo": 8287,
      "Post": 8288,
      "Poss": 8289,
      "voy": 8290,
      "vote": 8291,
      "Setting": 8292,
      "Space": 8293,
      "Spanish": 8294,
      "highway": 8295,
      "studied": 8296,
      "studio": 8297,
      "temp": 8298,
      "temple": 8299,
      "template": 8300,
      "favors": 8301,
      "speaker": 8302,
      "specifies": 8303,
      "complex": 8304,
      "Fox": 8305,
      "Forever": 8306,
      "horizontal": 8307,
      "fairy": 8308,
      "punished": 8309,
      "fallen": 8310,
      "existence": 8311,
      "latest": 8312,
      "lately": 8313,
      "axis": 8314,
      "teams": 8315,
      "figures": 8316,
      "ierce": 8317,
      "magn": 8318,
      "Accept": 8319,
      "dropping": 8320,
      "attacking": 8321,
      "Killing": 8322,
      "millions": 8323,
      "reasonable": 8324,
      "Phill": 8325,
      "grams": 8326,
      "buyer": 8327,
      "Flare": 8328,
      "Florida": 8329,
      "bullets": 8330,
      "flood": 8331,
      "statement": 8332,
      "hostages": 8333,
      "smaller": 8334,
      "cliff": 8335,
      "fugitive": 8336,
      "servation": 8337,
      "Paragraph": 8338,
      "drawer": 8339,
      "activate": 8340,
      "expects": 8341,
      "flee": 8342,
      "modify": 8343,
      "module": 8344,
      "objective": 8345,
      "Kingdom": 8346,
      "occas": 8347,
      "grandson": 8348,
      "struct": 8349,
      "Copying": 8350,
      "Much": 8351,
      "distant": 8352,
      "accepts": 8353,
      "prisoners": 8354,
      "Benji": 8355,
      "LED": 8356,
      "Optim": 8357,
      "Wrap": 8358,
      "argue": 8359,
      "Morning": 8360,
      "volunte": 8361,
      "blowing": 8362,
      "Additional": 8363,
      "Breaking": 8364,
      "Prime": 8365,
      "equals": 8366,
      "muscle": 8367,
      "classic": 8368,
      "professor": 8369,
      "burned": 8370,
      "belts": 8371,
      "Ahh": 8372,
      "Luci": 8373,
      "Lucy": 8374,
      "Gener": 8375,
      "Genji": 8376,
      "Usage": 8377,
      "aiman": 8378,
      "machines": 8379,
      "matching": 8380,
      "chances": 8381,
      "Launch": 8382,
      "Label": 8383,
      "ubali": 8384,
      "fella": 8385,
      "heroes": 8386,
      "Daniels": 8387,
      "Syn": 8388,
      "Working": 8389,
      "suspic": 8390,
      "strengthen": 8391,
      "uniform": 8392,
      "universe": 8393,
      "fools": 8394,
      "Wasn": 8395,
      "Elena": 8396,
      "ROAN": 8397,
      "songs": 8398,
      "ounced": 8399,
      "Frankie": 8400,
      "Choi": 8401,
      "Raymond": 8402,
      "forgives": 8403,
      "Corpor": 8404,
      "Correct": 8405,
      "Geeta": 8406,
      "Pathetic": 8407,
      "streets": 8408,
      "smells": 8409,
      "Saruman": 8410,
      "birdie": 8411,
      "circles": 8412,
      "cameras": 8413,
      "accounts": 8414,
      "Tyler": 8415,
      "bells": 8416,
      "precious": 8417,
      "menubar": 8418,
      "Apparently": 8419,
      "CHE": 8420,
      "brilliant": 8421,
      "tickets": 8422,
      "requests": 8423,
      "decisions": 8424,
      "cats": 8425,
      "catalog": 8426,
      "180": 8427,
      "GNU": 8428,
      "Judy": 8429,
      "miral": 8430,
      "mirror": 8431,
      "vicious": 8432,
      "idiots": 8433,
      "provides": 8434,
      "Alif": 8435,
      "Nicky": 8436,
      "reminded": 8437,
      "processing": 8438,
      "Grandpa": 8439,
      "Printing": 8440,
      "Simon": 8441,
      "Simple": 8442,
      "righteously": 8443,
      "appropriate": 8444,
      "gradu": 8445,
      "clicking": 8446,
      "Store": 8447,
      "Slowly": 8448,
      "garage": 8449,
      "pushed": 8450,
      "smooth": 8451,
      "origin": 8452,
      "plugins": 8453,
      "Magic": 8454,
      "SSH": 8455,
      "Scot": 8456,
      "intellect": 8457,
      "separated": 8458,
      "tricks": 8459,
      "dirt": 8460,
      "hunter": 8461,
      "claims": 8462,
      "corrupt": 8463,
      "Anti": 8464,
      "Delhi": 8465,
      "Film": 8466,
      "obeyed": 8467,
      "subjected": 8468,
      "Subject": 8469,
      "Subversion": 8470,
      "sacred": 8471,
      "swimm": 8472,
      "threatened": 8473,
      "survived": 8474,
      "survival": 8475,
      "challeng": 8476,
      "engineering": 8477,
      "Music": 8478,
      "Musli": 8479,
      "Warning": 8480,
      "splendid": 8481,
      "expand": 8482,
      "authorities": 8483,
      "possessed": 8484,
      "determin": 8485,
      "determines": 8486,
      "Laden": 8487,
      "MSN": 8488,
      "Salv": 8489,
      "Wonder": 8490,
      "titles": 8491,
      "turtle": 8492,
      "wireless": 8493,
      "declined": 8494,
      "explosive": 8495,
      "companion": 8496,
      "briefcase": 8497,
      "intelligent": 8498,
      "Penny": 8499,
      "Retreat": 8500,
      "Underline": 8501,
      "binary": 8502,
      "anticip": 8503,
      "conversations": 8504,
      "attributes": 8505,
      "centered": 8506,
      "Finish": 8507,
      "Falls": 8508,
      "Public": 8509,
      "Report": 8510,
      "folk": 8511,
      "sandw": 8512,
      "compensation": 8513,
      "product": 8514,
      "quarter": 8515,
      "fluence": 8516,
      "suspects": 8517,
      "Revert": 8518,
      "Silver": 8519,
      "\\\\{": 8520,
      "satis": 8521,
      "organization": 8522,
      "terminated": 8523,
      "methods": 8524,
      "County": 8525,
      "Garden": 8526,
      "PATH": 8527,
      "Ronnie": 8528,
      "Savitar": 8529,
      "crowd": 8530,
      "gamble": 8531,
      "gambling": 8532,
      "yöur": 8533,
      "negative": 8534,
      "fellows": 8535,
      "species": 8536,
      "violent": 8537,
      "Bloody": 8538,
      "CEO": 8539,
      "DOOR": 8540,
      "Operations": 8541,
      "Romania": 8542,
      "massive": 8543,
      "schedule": 8544,
      "wasted": 8545,
      "advance": 8546,
      "advantage": 8547,
      "prototype": 8548,
      "awaits": 8549,
      "maximize": 8550,
      "political": 8551,
      "Miller": 8552,
      "dwelling": 8553,
      "sucking": 8554,
      "poisoned": 8555,
      "surrounding": 8556,
      "parameters": 8557,
      "Adjustment": 8558,
      "Characters": 8559,
      "unexpectedly": 8560,
      "continued": 8561,
      "Element": 8562,
      "Sweet": 8563,
      "puppy": 8564,
      "pigs": 8565,
      "throat": 8566,
      "integr": 8567,
      "immortal": 8568,
      "mystery": 8569,
      "mysterious": 8570,
      "virtue": 8571,
      "Domin": 8572,
      "Eastern": 8573,
      "GHS": 8574,
      "Girls": 8575,
      "Honor": 8576,
      "Ignore": 8577,
      "Personal": 8578,
      "Smooth": 8579,
      "aggression": 8580,
      "aggressive": 8581,
      "mobile": 8582,
      "sincerely": 8583,
      "Technically": 8584,
      "Tracking": 8585,
      "participants": 8586,
      "CONT": 8587,
      "Pleasure": 8588,
      "Parker": 8589,
      "Sulaiman": 8590,
      "Visible": 8591,
      "sample": 8592,
      "sniper": 8593,
      "reputation": 8594,
      "creatures": 8595,
      "qualified": 8596,
      "Anjali": 8597,
      "Defense": 8598,
      "Protect": 8599,
      "priority": 8600,
      "California": 8601,
      "Diego": 8602,
      "literally": 8603,
      "anniversary": 8604,
      "Western": 8605,
      "shelter": 8606,
      "greedy": 8607,
      "breasts": 8608,
      "collapse": 8609,
      "Alignment": 8610,
      "Matthew": 8611,
      "fabricate": 8612,
      "accomplish": 8613,
      "Birth": 8614,
      "Browser": 8615,
      "Emergency": 8616,
      "bounty": 8617,
      "arrangement": 8618,
      "Throne": 8619,
      "Execut": 8620,
      "Sparky": 8621,
      "Francis": 8622,
      "CROWD": 8623,
      "Frame": 8624,
      "Kumar": 8625,
      "Lieutenant": 8626,
      "Software": 8627,
      "Tiger": 8628,
      "Version": 8629,
      "analys": 8630,
      "retrieve": 8631,
      "encountered": 8632,
      "helicop": 8633,
      "therapist": 8634,
      "triumph": 8635,
      "registration": 8636,
      "pursued": 8637,
      "Baahubali": 8638,
      "DAVID": 8639,
      "Original": 8640,
      "Amazing": 8641,
      "April": 8642,
      "Honestly": 8643,
      "Jemma": 8644,
      "Koba": 8645,
      "Lloyd": 8646,
      "Monsieur": 8647,
      "Olivia": 8648,
      "Olymp": 8649,
      "Poseidon": 8650,
      "Twice": 8651,
      "Yesterday": 8652,
      "touches": 8653,
      "Google": 8654,
      "Sebastian": 8655,
      "Mohammed": 8656,
      "Develop": 8657,
      "Compatibility": 8658,
      "marijuana": 8659,
      "Hollywood": 8660,
      "occasion": 8661,
      "volunteer": 8662,
      "!)": 8663,
      "\"-": 8664,
      ")!": 8665,
      ").\"": 8666,
      "-'": 8667,
      "//": 8668,
      "1f": 8669,
      "27": 8670,
      "28": 8671,
      "31": 8672,
      "3D": 8673,
      "3rd": 8674,
      "55": 8675,
      "62": 8676,
      "72": 8677,
      "86": 8678,
      "88": 8679,
      "99": 8680,
      "://": 8681,
      "?’": 8682,
      "@}": 8683,
      "A1": 8684,
      "AI": 8685,
      "AM": 8686,
      "Athe": 8687,
      "Aur": 8688,
      "Aun": 8689,
      "Ash": 8690,
      "Able": 8691,
      "Athen": 8692,
      "Aqu": 8693,
      "Amen": 8694,
      "Auntie": 8695,
      "ACTION": 8696,
      "BO": 8697,
      "BU": 8698,
      "Ble": 8699,
      "Bha": 8700,
      "Bil": 8701,
      "Bright": 8702,
      "Bour": 8703,
      "Bind": 8704,
      "Bul": 8705,
      "Bart": 8706,
      "Bless": 8707,
      "Bible": 8708,
      "Bunch": 8709,
      "Battle": 8710,
      "Bhar": 8711,
      "Biff": 8712,
      "BLO": 8713,
      "CM": 8714,
      "Cad": 8715,
      "Cir": 8716,
      "Cher": 8717,
      "Came": 8718,
      "Cath": 8719,
      "Cub": 8720,
      "Cale": 8721,
      "Chair": 8722,
      "CAS": 8723,
      "CMS": 8724,
      "Cell": 8725,
      "CCPD": 8726,
      "DD": 8727,
      "Dro": 8728,
      "Dut": 8729,
      "Done": 8730,
      "Dol": 8731,
      "Dist": 8732,
      "Dang": 8733,
      "Dary": 8734,
      "Dia": 8735,
      "Dial": 8736,
      "Diam": 8737,
      "Diction": 8738,
      "Eject": 8739,
      "Evan": 8740,
      "Ethi": 8741,
      "Effect": 8742,
      "FS": 8743,
      "Fer": 8744,
      "Fail": 8745,
      "Fest": 8746,
      "Feng": 8747,
      "Finger": 8748,
      "Fleet": 8749,
      "GS": 8750,
      "G_": 8751,
      "Git": 8752,
      "Gas": 8753,
      "Gus": 8754,
      "Gren": 8755,
      "Gina": 8756,
      "Ghul": 8757,
      "Gnome": 8758,
      "GStre": 8759,
      "GROAN": 8760,
      "H_": 8761,
      "Hou": 8762,
      "Hah": 8763,
      "Hind": 8764,
      "Hers": 8765,
      "Hans": 8766,
      "Hob": 8767,
      "Hud": 8768,
      "Haz": 8769,
      "Hallow": 8770,
      "Half": 8771,
      "IO": 8772,
      "Iran": 8773,
      "Jed": 8774,
      "Jag": 8775,
      "Jess": 8776,
      "Jody": 8777,
      "Junk": 8778,
      "Java": 8779,
      "Junior": 8780,
      "KB": 8781,
      "Kan": 8782,
      "Kor": 8783,
      "Kow": 8784,
      "Kab": 8785,
      "Kur": 8786,
      "Kend": 8787,
      "Kel": 8788,
      "Kick": 8789,
      "Kath": 8790,
      "Kash": 8791,
      "Karen": 8792,
      "Khan": 8793,
      "Katherine": 8794,
      "Kansas": 8795,
      "LL": 8796,
      "Lion": 8797,
      "Lose": 8798,
      "Later": 8799,
      "Lily": 8800,
      "Laz": 8801,
      "Lane": 8802,
      "Lines": 8803,
      "Lisa": 8804,
      "Mack": 8805,
      "Main": 8806,
      "Mord": 8807,
      "Mort": 8808,
      "Mick": 8809,
      "Mem": 8810,
      "Mob": 8811,
      "Making": 8812,
      "March": 8813,
      "Makes": 8814,
      "Mik": 8815,
      "M_BAR_": 8816,
      "Mummy": 8817,
      "Misa": 8818,
      "Ni": 8819,
      "Nin": 8820,
      "Ner": 8821,
      "Ned": 8822,
      "Nic": 8823,
      "Nev": 8824,
      "Nav": 8825,
      "Naut": 8826,
      "NAR": 8827,
      "Nik": 8828,
      "Natal": 8829,
      "OS": 8830,
      "OU": 8831,
      "Ox": 8832,
      "Opp": 8833,
      "PM": 8834,
      "PO": 8835,
      "Pand": 8836,
      "Pod": 8837,
      "Pup": 8838,
      "Pent": 8839,
      "Pers": 8840,
      "Pig": 8841,
      "Pau": 8842,
      "Pablo": 8843,
      "QU": 8844,
      "RC": 8845,
      "RR": 8846,
      "RU": 8847,
      "Rh": 8848,
      "Rat": 8849,
      "Rid": 8850,
      "Rod": 8851,
      "Rend": 8852,
      "Ride": 8853,
      "Rene": 8854,
      "Rather": 8855,
      "Random": 8856,
      "RATOR": 8857,
      "Sou": 8858,
      "Sno": 8859,
      "Swi": 8860,
      "Sna": 8861,
      "Sach": 8862,
      "Sud": 8863,
      "Swed": 8864,
      "Siv": 8865,
      "Spot": 8866,
      "Swear": 8867,
      "Spread": 8868,
      "Satell": 8869,
      "Shish": 8870,
      "TH": 8871,
      "TL": 8872,
      "Town": 8873,
      "Tess": 8874,
      "Touch": 8875,
      "Taste": 8876,
      "Tina": 8877,
      "Tiled": 8878,
      "Tatsu": 8879,
      "UM": 8880,
      "Using": 8881,
      "VE": 8882,
      "Vin": 8883,
      "Vamp": 8884,
      "Vince": 8885,
      "Wing": 8886,
      "Wit": 8887,
      "Wed": 8888,
      "Wes": 8889,
      "Went": 8890,
      "Wish": 8891,
      "Wang": 8892,
      "Warri": 8893,
      "Witch": 8894,
      "Xia": 8895,
      "XML": 8896,
      "YA": 8897,
      "YING": 8898,
      "Zip": 8899,
      "_m": 8900,
      "_t": 8901,
      "_Not": 8902,
      "_File": 8903,
      "_Name": 8904,
      "_Remove": 8905,
      "_Number": 8906,
      "_Folder": 8907,
      "_Delete": 8908,
      "_Rename": 8909,
      "_Apply": 8910,
      "ape": 8911,
      "auntie": 8912,
      "buck": 8913,
      "bang": 8914,
      "bunk": 8915,
      "borders": 8916,
      "bolt": 8917,
      "cen": 8918,
      "cand": 8919,
      "ccess": 8920,
      "dc": 8921,
      "dim": 8922,
      "dive": 8923,
      "ders": 8924,
      "duck": 8925,
      "dread": 8926,
      "dale": 8927,
      "dummy": 8928,
      "dawn": 8929,
      "dazz": 8930,
      "fi": 8931,
      "fere": 8932,
      "fag": 8933,
      "fans": 8934,
      "fred": 8935,
      "fib": 8936,
      "flies": 8937,
      "faint": 8938,
      "gap": 8939,
      "gree": 8940,
      "gau": 8941,
      "gene": 8942,
      "gaz": 8943,
      "ggest": 8944,
      "gaze": 8945,
      "hm": 8946,
      "hr": 8947,
      "hom": 8948,
      "hil": 8949,
      "hence": 8950,
      "hates": 8951,
      "humb": 8952,
      "hiring": 8953,
      "imental": 8954,
      "jokes": 8955,
      "km": 8956,
      "kar": 8957,
      "knight": 8958,
      "kings": 8959,
      "lers": 8960,
      "lene": 8961,
      "m_": 8962,
      "mers": 8963,
      "mble": 8964,
      "museum": 8965,
      "mione": 8966,
      "null": 8967,
      "nigh": 8968,
      "nib": 8969,
      "native": 8970,
      "narrow": 8971,
      "oe": 8972,
      "ove": 8973,
      "oers": 8974,
      "obl": 8975,
      "oxygen": 8976,
      "pas": 8977,
      "pil": 8978,
      "pact": 8979,
      "pies": 8980,
      "pia": 8981,
      "pious": 8982,
      "plot": 8983,
      "pins": 8984,
      "pork": 8985,
      "paste": 8986,
      "ras": 8987,
      "rust": 8988,
      "rally": 8989,
      "rated": 8990,
      "ramp": 8991,
      "si": 8992,
      "sar": 8993,
      "sch": 8994,
      "sack": 8995,
      "sink": 8996,
      "sca": 8997,
      "sity": 8998,
      "sought": 8999,
      "sque": 9000,
      "scrap": 9001,
      "soph": 9002,
      "tim": 9003,
      "twenty": 9004,
      "uf": 9005,
      "uel": 9006,
      "uction": 9007,
      "ufact": 9008,
      "vast": 9009,
      "vak": 9010,
      "vity": 9011,
      "vors": 9012,
      "vouch": 9013,
      "wd": 9014,
      "ww": 9015,
      "wat": 9016,
      "wary": 9017,
      "wagon": 9018,
      "wreck": 9019,
      "yn": 9020,
      "ying": 9021,
      "yed": 9022,
      "yam": 9023,
      "yah": 9024,
      "yers": 9025,
      "yach": 9026,
      "yond": 9027,
      "zomb": 9028,
      "zhen": 9029,
      "♪♪": 9030,
      "thre": 9031,
      "thug": 9032,
      "thieves": 9033,
      "ousai": 9034,
      "iner": 9035,
      "inve": 9036,
      "inations": 9037,
      "inating": 9038,
      "indec": 9039,
      "inju": 9040,
      "inspir": 9041,
      "informed": 9042,
      "ermines": 9043,
      "anci": 9044,
      "ancial": 9045,
      "onne": 9046,
      "onation": 9047,
      "onents": 9048,
      "thed": 9049,
      "theast": 9050,
      "rea": 9051,
      "rege": 9052,
      "relie": 9053,
      "reform": 9054,
      "restart": 9055,
      "rels": 9056,
      "reconsider": 9057,
      "rett": 9058,
      "reference": 9059,
      "restored": 9060,
      "retire": 9061,
      "remembrance": 9062,
      "isp": 9063,
      "ision": 9064,
      "tol": 9065,
      "tox": 9066,
      "tower": 9067,
      "melt": 9068,
      "ingo": 9069,
      "ingham": 9070,
      "orc": 9071,
      "ori": 9072,
      "orient": 9073,
      "orized": 9074,
      "ento": 9075,
      "enix": 9076,
      "enjoined": 9077,
      "enorm": 9078,
      "iture": 9079,
      "itous": 9080,
      "itles": 9081,
      "itics": 9082,
      "sti": 9083,
      "stir": 9084,
      "stim": 9085,
      "stalk": 9086,
      "stances": 9087,
      "edges": 9088,
      "arose": 9089,
      "arian": 9090,
      "lector": 9091,
      "hee": 9092,
      "hex": 9093,
      "heim": 9094,
      "heel": 9095,
      "hesit": 9096,
      "sect": 9097,
      "seize": 9098,
      "nold": 9099,
      "beside": 9100,
      "bearing": 9101,
      "behalf": 9102,
      "belly": 9103,
      "beware": 9104,
      "becca": 9105,
      "andal": 9106,
      "asso": 9107,
      "asma": 9108,
      "assem": 9109,
      "whip": 9110,
      "eret": 9111,
      "escort": 9112,
      "hal": 9113,
      "haust": 9114,
      "haul": 9115,
      "hallow": 9116,
      "haunt": 9117,
      "alike": 9118,
      "alarms": 9119,
      "alski": 9120,
      "oward": 9121,
      "iding": 9122,
      "acer": 9123,
      "acon": 9124,
      "acter": 9125,
      "gob": 9126,
      "goat": 9127,
      "icing": 9128,
      "ications": 9129,
      "ician": 9130,
      "rome": 9131,
      "roit": 9132,
      "roar": 9133,
      "ette": 9134,
      "verti": 9135,
      "verty": 9136,
      "verted": 9137,
      "lift": 9138,
      "lizard": 9139,
      "limits": 9140,
      "Whom": 9141,
      "omed": 9142,
      "alloc": 9143,
      "alliance": 9144,
      "utions": 9145,
      "adel": 9146,
      "adult": 9147,
      "adia": 9148,
      "admitted": 9149,
      "Though": 9150,
      "Thought": 9151,
      "Thirty": 9152,
      "Thurs": 9153,
      "doo": 9154,
      "dot": 9155,
      "dore": 9156,
      "doom": 9157,
      "dogg": 9158,
      "docks": 9159,
      "rix": 9160,
      "rier": 9161,
      "rike": 9162,
      "riel": 9163,
      "...]": 9164,
      "arena": 9165,
      "arett": 9166,
      "notifications": 9167,
      "noticed": 9168,
      "weep": 9169,
      "website": 9170,
      "lod": 9171,
      "lover": 9172,
      "chor": 9173,
      "chie": 9174,
      "chip": 9175,
      "charm": 9176,
      "chased": 9177,
      "outfit": 9178,
      "Weap": 9179,
      "iron": 9180,
      "necks": 9181,
      "Them": 9182,
      "abad": 9183,
      "abom": 9184,
      "abra": 9185,
      "absur": 9186,
      "impose": 9187,
      "impression": 9188,
      "improve": 9189,
      "uskey": 9190,
      "myth": 9191,
      "usters": 9192,
      "amas": 9193,
      "amus": 9194,
      "amps": 9195,
      "upper": 9196,
      "unite": 9197,
      "unning": 9198,
      "ungod": 9199,
      "unlocked": 9200,
      "unrecognized": 9201,
      "unlawful": 9202,
      "aga": 9203,
      "agar": 9204,
      "agne": 9205,
      "agues": 9206,
      "Items": 9207,
      "pei": 9208,
      "entine": 9209,
      "entity": 9210,
      "entrance": 9211,
      "cans": 9212,
      "cancer": 9213,
      "debu": 9214,
      "defer": 9215,
      "depos": 9216,
      "decent": 9217,
      "deities": 9218,
      "shold": 9219,
      "shattered": 9220,
      "shitty": 9221,
      "anton": 9222,
      "antine": 9223,
      "rying": 9224,
      "moth": 9225,
      "tee": 9226,
      "tears": 9227,
      "ille": 9228,
      "opic": 9229,
      "opard": 9230,
      "opposed": 9231,
      "opacity": 9232,
      "getaway": 9233,
      "gettin": 9234,
      "navig": 9235,
      "nasty": 9236,
      "fest": 9237,
      "feather": 9238,
      "sob": 9239,
      "soy": 9240,
      "soil": 9241,
      "social": 9242,
      "ilton": 9243,
      "worm": 9244,
      "safer": 9245,
      "pluck": 9246,
      "plants": 9247,
      "plumb": 9248,
      "plague": 9249,
      "pledge": 9250,
      "indent": 9251,
      "justly": 9252,
      "mann": 9253,
      "manip": 9254,
      "manner": 9255,
      "sometime": 9256,
      "someplace": 9257,
      "conven": 9258,
      "concl": 9259,
      "context": 9260,
      "construction": 9261,
      "convey": 9262,
      "console": 9263,
      "convoy": 9264,
      "trun": 9265,
      "trast": 9266,
      "trump": 9267,
      "trunk": 9268,
      "aphor": 9269,
      "ulting": 9270,
      "ulating": 9271,
      "focused": 9272,
      "arty": 9273,
      "artic": 9274,
      "artific": 9275,
      "endars": 9276,
      "endian": 9277,
      "geome": 9278,
      "cakes": 9279,
      "igation": 9280,
      "butter": 9281,
      "comput": 9282,
      "commission": 9283,
      "commissioner": 9284,
      "excl": 9285,
      "exposed": 9286,
      "exalted": 9287,
      "exhaust": 9288,
      "guer": 9289,
      "guise": 9290,
      "guages": 9291,
      "poo": 9292,
      "poses": 9293,
      "poverty": 9294,
      "Butch": 9295,
      "Button": 9296,
      "cometh": 9297,
      "istics": 9298,
      "backwards": 9299,
      "umns": 9300,
      "elite": 9301,
      "proving": 9302,
      "proved": 9303,
      "prostr": 9304,
      "proced": 9305,
      "propose": 9306,
      "promotion": 9307,
      "prostrate": 9308,
      "ucker": 9309,
      "rav": 9310,
      "idey": 9311,
      "hoenix": 9312,
      "ppers": 9313,
      "needing": 9314,
      "wouldst": 9315,
      "preach": 9316,
      "prepar": 9317,
      "preparing": 9318,
      "coconut": 9319,
      "icked": 9320,
      "Door": 9321,
      "irect": 9322,
      "grain": 9323,
      "grown": 9324,
      "assured": 9325,
      "Inte": 9326,
      "Inbox": 9327,
      "Invert": 9328,
      "sper": 9329,
      "span": 9330,
      "spit": 9331,
      "spar": 9332,
      "spons": 9333,
      "springs": 9334,
      "workshop": 9335,
      "ishop": 9336,
      "crete": 9337,
      "creating": 9338,
      "crease": 9339,
      "creates": 9340,
      "bration": 9341,
      "branch": 9342,
      "performed": 9343,
      "berg": 9344,
      "overtook": 9345,
      "overwrite": 9346,
      "suff": 9347,
      "Shelly": 9348,
      "foreign": 9349,
      "foreground": 9350,
      "query": 9351,
      "Rec": 9352,
      "Refresh": 9353,
      "Rebecca": 9354,
      "wherewith": 9355,
      "affl": 9356,
      "affirm": 9357,
      "stood": 9358,
      "stores": 9359,
      "disci": 9360,
      "disaster": 9361,
      "discard": 9362,
      "disappointed": 9363,
      "disguise": 9364,
      "Begin": 9365,
      "Becket": 9366,
      "Beware": 9367,
      "Behavior": 9368,
      "Beyond": 9369,
      "Chick": 9370,
      "Chance": 9371,
      "Chucky": 9372,
      "happily": 9373,
      "Mystic": 9374,
      "achi": 9375,
      "ached": 9376,
      "achieve": 9377,
      "spear": 9378,
      "ansing": 9379,
      "unde": 9380,
      "underest": 9381,
      "reek": 9382,
      "itement": 9383,
      "divide": 9384,
      "divor": 9385,
      "dialo": 9386,
      "Sell": 9387,
      "Seong": 9388,
      "Section": 9389,
      "Secure": 9390,
      "prise": 9391,
      "prince": 9392,
      "Stark": 9393,
      "blur": 9394,
      "blink": 9395,
      "blade": 9396,
      "blaming": 9397,
      "blasphe": 9398,
      "issors": 9399,
      "shares": 9400,
      "gren": 9401,
      "torch": 9402,
      "civil": 9403,
      "cipher": 9404,
      "ailable": 9405,
      "filesystem": 9406,
      "obli": 9407,
      "obje": 9408,
      "mayor": 9409,
      "wrap": 9410,
      "wrink": 9411,
      "cheat": 9412,
      "cheated": 9413,
      "minus": 9414,
      "Canary": 9415,
      "Moe": 9416,
      "Mocking": 9417,
      "finds": 9418,
      "handed": 9419,
      "standards": 9420,
      "strand": 9421,
      "strangers": 9422,
      "mug": 9423,
      "Angle": 9424,
      "Anchor": 9425,
      "friendly": 9426,
      "Notification": 9427,
      "cargo": 9428,
      "vessel": 9429,
      "playback": 9430,
      "playlist": 9431,
      "cling": 9432,
      "monsters": 9433,
      "Devil": 9434,
      "Deleting": 9435,
      "Decimal": 9436,
      "Unmount": 9437,
      "Ext": 9438,
      "Expo": 9439,
      "Express": 9440,
      "Exchange": 9441,
      "Extract": 9442,
      "Exalted": 9443,
      "controlling": 9444,
      "ilda": 9445,
      "ildoers": 9446,
      "listed": 9447,
      "homey": 9448,
      "homeland": 9449,
      "Together": 9450,
      "awkward": 9451,
      "ateral": 9452,
      "supper": 9453,
      "nightfall": 9454,
      "hugging": 9455,
      "keeper": 9456,
      "lecture": 9457,
      "evildoers": 9458,
      "Albert": 9459,
      "Album": 9460,
      "clothing": 9461,
      "lasting": 9462,
      "mustn": 9463,
      "ruin": 9464,
      "rude": 9465,
      "Environment": 9466,
      "kindness": 9467,
      "mates": 9468,
      "maze": 9469,
      "warden": 9470,
      "dresses": 9471,
      "Comment": 9472,
      "Compan": 9473,
      "Compassionate": 9474,
      "estate": 9475,
      "heartbeat": 9476,
      "Board": 9477,
      "mostly": 9478,
      "lighter": 9479,
      "crip": 9480,
      "penet": 9481,
      "penny": 9482,
      "Produ": 9483,
      "Prophe": 9484,
      "Proxy": 9485,
      "followers": 9486,
      "passwords": 9487,
      "passports": 9488,
      "badge": 9489,
      "ashing": 9490,
      "ashed": 9491,
      "Need": 9492,
      "Neil": 9493,
      "planes": 9494,
      "planned": 9495,
      "counted": 9496,
      "countdown": 9497,
      "drown": 9498,
      "drama": 9499,
      "resist": 9500,
      "resort": 9501,
      "udge": 9502,
      "normally": 9503,
      "holds": 9504,
      "medication": 9505,
      "icted": 9506,
      "Cond": 9507,
      "Contrast": 9508,
      "Gran": 9509,
      "criter": 9510,
      "march": 9511,
      "Roll": 9512,
      "Ross": 9513,
      "mindful": 9514,
      "identification": 9515,
      "identifier": 9516,
      "iana": 9517,
      "signific": 9518,
      "Mecha": 9519,
      "Megan": 9520,
      "Measure": 9521,
      "cycle": 9522,
      "chamber": 9523,
      "calc": 9524,
      "cali": 9525,
      "calamity": 9526,
      "calendars": 9527,
      "winds": 9528,
      "compli": 9529,
      "finest": 9530,
      "frag": 9531,
      "lazy": 9532,
      "parable": 9533,
      "sling": 9534,
      "corpor": 9535,
      "resting": 9536,
      "archy": 9537,
      "Artic": 9538,
      "visor": 9539,
      "visibility": 9540,
      "pective": 9541,
      "smiling": 9542,
      "personnel": 9543,
      "listens": 9544,
      "Admiral": 9545,
      "Attempt": 9546,
      "cents": 9547,
      "century": 9548,
      "Indust": 9549,
      "Index": 9550,
      "Present": 9551,
      "copies": 9552,
      "charges": 9553,
      "News": 9554,
      "Erica": 9555,
      "bargain": 9556,
      "drif": 9557,
      "jobs": 9558,
      "senator": 9559,
      "walks": 9560,
      "appa": 9561,
      "append": 9562,
[...]
